{
  "version": "1.0",
  "truncation": null,
  "padding": null,
  "added_tokens": [
    {
      "id": 0,
      "content": "[UNK]",
      "single_word": false,
      "lstrip": false,
      "rstrip": false,
      "normalized": false,
      "special": true
    },
    {
      "id": 1,
      "content": "[CLS]",
      "single_word": false,
      "lstrip": false,
      "rstrip": false,
      "normalized": false,
      "special": true
    },
    {
      "id": 2,
      "content": "[SEP]",
      "single_word": false,
      "lstrip": false,
      "rstrip": false,
      "normalized": false,
      "special": true
    },
    {
      "id": 3,
      "content": "[PAD]",
      "single_word": false,
      "lstrip": false,
      "rstrip": false,
      "normalized": false,
      "special": true
    },
    {
      "id": 4,
      "content": "[MASK]",
      "single_word": false,
      "lstrip": false,
      "rstrip": false,
      "normalized": false,
      "special": true
    }
  ],
  "normalizer": {
    "type": "Sequence",
    "normalizers": [
      {
        "type": "NFD"
      },
      {
        "type": "Lowercase"
      },
      {
        "type": "StripAccents"
      }
    ]
  },
  "pre_tokenizer": {
    "type": "BertPreTokenizer"
  },
  "post_processor": null,
  "decoder": {
    "type": "WordPiece",
    "prefix": "##",
    "cleanup": true
  },
  "model": {
    "type": "WordPiece",
    "unk_token": "[UNK]",
    "continuing_subword_prefix": "##",
    "max_input_chars_per_word": 100,
    "vocab": {
      "[UNK]": 0,
      "[CLS]": 1,
      "[SEP]": 2,
      "[PAD]": 3,
      "[MASK]": 4,
      "!": 5,
      "\"": 6,
      "$": 7,
      "%": 8,
      "&": 9,
      "'": 10,
      "(": 11,
      ")": 12,
      "+": 13,
      ",": 14,
      "-": 15,
      ".": 16,
      "/": 17,
      "0": 18,
      "1": 19,
      "2": 20,
      "3": 21,
      "4": 22,
      "5": 23,
      "6": 24,
      "7": 25,
      "8": 26,
      "9": 27,
      ":": 28,
      ";": 29,
      "?": 30,
      "a": 31,
      "b": 32,
      "c": 33,
      "d": 34,
      "e": 35,
      "f": 36,
      "g": 37,
      "h": 38,
      "i": 39,
      "j": 40,
      "k": 41,
      "l": 42,
      "m": 43,
      "n": 44,
      "o": 45,
      "p": 46,
      "q": 47,
      "r": 48,
      "s": 49,
      "t": 50,
      "u": 51,
      "v": 52,
      "w": 53,
      "x": 54,
      "y": 55,
      "z": 56,
      "«": 57,
      "»": 58,
      "œ": 59,
      "с": 60,
      "​": 61,
      "–": 62,
      "‘": 63,
      "’": 64,
      "…": 65,
      "‽": 66,
      "₂": 67,
      "##r": 68,
      "##o": 69,
      "##i": 70,
      "##t": 71,
      "##e": 72,
      "##n": 73,
      "##s": 74,
      "##u": 75,
      "##y": 76,
      "##z": 77,
      "##a": 78,
      "##m": 79,
      "##f": 80,
      "##p": 81,
      "##d": 82,
      "##b": 83,
      "##q": 84,
      "##c": 85,
      "##h": 86,
      "##g": 87,
      "##l": 88,
      "##x": 89,
      "##v": 90,
      "##j": 91,
      "##w": 92,
      "##9": 93,
      "##5": 94,
      "##k": 95,
      "##2": 96,
      "##0": 97,
      "##7": 98,
      "##8": 99,
      "##3": 100,
      "##4": 101,
      "##1": 102,
      "##6": 103,
      "##​": 104,
      "##œ": 105,
      "##₂": 106,
      "##ou": 107,
      "##re": 108,
      "##ai": 109,
      "##en": 110,
      "##on": 111,
      "de": 112,
      "##er": 113,
      "##es": 114,
      "qu": 115,
      "je": 116,
      "pa": 117,
      "##ous": 118,
      "##le": 119,
      "##oi": 120,
      "##an": 121,
      "##te": 122,
      "es": 123,
      "##om": 124,
      "que": 125,
      "pas": 126,
      "##ais": 127,
      "est": 128,
      "vous": 129,
      "##ent": 130,
      "##eu": 131,
      "il": 132,
      "##is": 133,
      "un": 134,
      "ce": 135,
      "la": 136,
      "ne": 137,
      "ai": 138,
      "le": 139,
      "##our": 140,
      "et": 141,
      "en": 142,
      "##se": 143,
      "tu": 144,
      "##ait": 145,
      "##lle": 146,
      "##ie": 147,
      "av": 148,
      "su": 149,
      "tom": 150,
      "##qu": 151,
      "##ti": 152,
      "##ne": 153,
      "##or": 154,
      "ch": 155,
      "au": 156,
      "##ment": 157,
      "me": 158,
      "nous": 159,
      "pour": 160,
      "##it": 161,
      "##res": 162,
      "##me": 163,
      "##ar": 164,
      "##ons": 165,
      "##au": 166,
      "re": 167,
      "##de": 168,
      "##eux": 169,
      "une": 170,
      "##us": 171,
      "tr": 172,
      "##ant": 173,
      "##tre": 174,
      "par": 175,
      "te": 176,
      "##ll": 177,
      "les": 178,
      "##ci": 179,
      "com": 180,
      "##ch": 181,
      "##ez": 182,
      "pl": 183,
      "##ien": 184,
      "##aire": 185,
      "ca": 186,
      "pr": 187,
      "tou": 188,
      "##mp": 189,
      "suis": 190,
      "##que": 191,
      "##ouv": 192,
      "##nt": 193,
      "elle": 194,
      "se": 195,
      "##ce": 196,
      "des": 197,
      "##oir": 198,
      "##ans": 199,
      "##in": 200,
      "##ge": 201,
      "son": 202,
      "mon": 203,
      "faire": 204,
      "##ois": 205,
      "##av": 206,
      "##ri": 207,
      "pen": 208,
      "con": 209,
      "as": 210,
      "ar": 211,
      "ma": 212,
      "##os": 213,
      "##pe": 214,
      "##ui": 215,
      "tout": 216,
      "si": 217,
      "du": 218,
      "moi": 219,
      "dans": 220,
      "pre": 221,
      "##ble": 222,
      "plus": 223,
      "##la": 224,
      "##end": 225,
      "di": 226,
      "##ain": 227,
      "qui": 228,
      "##onne": 229,
      "quel": 230,
      "fait": 231,
      "##ec": 232,
      "##ter": 233,
      "pro": 234,
      "##am": 235,
      "ap": 236,
      "ou": 237,
      "dev": 238,
      "##ir": 239,
      "veux": 240,
      "vo": 241,
      "##tte": 242,
      "sur": 243,
      "##cu": 244,
      "##che": 245,
      "peu": 246,
      "etre": 247,
      "in": 248,
      "##ur": 249,
      "##rai": 250,
      "##ille": 251,
      "etait": 252,
      "##as": 253,
      "avec": 254,
      "etes": 255,
      "##ers": 256,
      "##ve": 257,
      "mar": 258,
      "##oit": 259,
      "##ure": 260,
      "##and": 261,
      "##li": 262,
      "##ose": 263,
      "##ot": 264,
      "##tion": 265,
      "##ue": 266,
      "##iez": 267,
      "##si": 268,
      "pense": 269,
      "##lles": 270,
      "##nd": 271,
      "##mps": 272,
      "##ff": 273,
      "vou": 274,
      "##mes": 275,
      "##tt": 276,
      "avez": 277,
      "sont": 278,
      "sa": 279,
      "cette": 280,
      "res": 281,
      "##iv": 282,
      "dit": 283,
      "##ort": 284,
      "ils": 285,
      "##ux": 286,
      "dem": 287,
      "##eau": 288,
      "##ier": 289,
      "all": 290,
      "##rais": 291,
      "am": 292,
      "tres": 293,
      "##ra": 294,
      "ete": 295,
      "peux": 296,
      "mais": 297,
      "votre": 298,
      "pe": 299,
      "cela": 300,
      "ex": 301,
      "temps": 302,
      "##uis": 303,
      "ser": 304,
      "##con": 305,
      "man": 306,
      "##jour": 307,
      "##quoi": 308,
      "pourquoi": 309,
      "dis": 310,
      "lui": 311,
      "sais": 312,
      "heu": 313,
      "##ger": 314,
      "ici": 315,
      "##co": 316,
      "vrai": 317,
      "##oin": 318,
      "##eur": 319,
      "##ler": 320,
      "an": 321,
      "##oup": 322,
      "trav": 323,
      "##ran": 324,
      "app": 325,
      "pouv": 326,
      "##mer": 327,
      "##iere": 328,
      "on": 329,
      "##age": 330,
      "##di": 331,
      "jam": 332,
      "chose": 333,
      "comp": 334,
      "##op": 335,
      "toi": 336,
      "##il": 337,
      "jamais": 338,
      "##ard": 339,
      "pers": 340,
      "##ite": 341,
      "##orte": 342,
      "att": 343,
      "travai": 344,
      "##ut": 345,
      "comment": 346,
      "sav": 347,
      "arri": 348,
      "aime": 349,
      "bien": 350,
      "##gn": 351,
      "dire": 352,
      "beau": 353,
      "##al": 354,
      "##at": 355,
      "vraiment": 356,
      "ac": 357,
      "##ion": 358,
      "avons": 359,
      "##ens": 360,
      "ton": 361,
      "##able": 362,
      "##ap": 363,
      "quelque": 364,
      "ont": 365,
      "jour": 366,
      "##oy": 367,
      "som": 368,
      "##les": 369,
      "cr": 370,
      "##uit": 371,
      "aller": 372,
      "seu": 373,
      "tous": 374,
      "##ndre": 375,
      "heure": 376,
      "personne": 377,
      "pens": 378,
      "bes": 379,
      "besoin": 380,
      "##coup": 381,
      "avoir": 382,
      "beaucoup": 383,
      "va": 384,
      "elles": 385,
      "gr": 386,
      "trouv": 387,
      "mes": 388,
      "##bre": 389,
      "peut": 390,
      "fa": 391,
      "voul": 392,
      "##sez": 393,
      "##rent": 394,
      "rep": 395,
      "##lement": 396,
      "##ole": 397,
      "lais": 398,
      "##ine": 399,
      "imp": 400,
      "##gent": 401,
      "ec": 402,
      "reg": 403,
      "fer": 404,
      "jus": 405,
      "##onn": 406,
      "sommes": 407,
      "ent": 408,
      "##ise": 409,
      "##enir": 410,
      "##endre": 411,
      "mi": 412,
      "fau": 413,
      "etais": 414,
      "parler": 415,
      "rien": 416,
      "quelqu": 417,
      "##oire": 418,
      "##ors": 419,
      "sem": 420,
      "fais": 421,
      "comme": 422,
      "per": 423,
      "arrive": 424,
      "enf": 425,
      "train": 426,
      "##der": 427,
      "ta": 428,
      "##ser": 429,
      "##tes": 430,
      "##rait": 431,
      "pres": 432,
      "ess": 433,
      "maison": 434,
      "dej": 435,
      "mary": 436,
      "##ation": 437,
      "##ire": 438,
      "deux": 439,
      "##are": 440,
      "trop": 441,
      "toujour": 442,
      "toujours": 443,
      "##ag": 444,
      "##ande": 445,
      "aimer": 446,
      "##ivre": 447,
      "##ance": 448,
      "meme": 449,
      "quoi": 450,
      "voir": 451,
      "##core": 452,
      "bon": 453,
      "nouv": 454,
      "argent": 455,
      "##ante": 456,
      "quand": 457,
      "##ont": 458,
      "##tement": 459,
      "encore": 460,
      "aus": 461,
      "##ab": 462,
      "monde": 463,
      "voit": 464,
      "avait": 465,
      "vi": 466,
      "der": 467,
      "##ants": 468,
      "ver": 469,
      "vais": 470,
      "veu": 471,
      "##aine": 472,
      "part": 473,
      "passe": 474,
      "puis": 475,
      "conn": 476,
      "##aint": 477,
      "##cher": 478,
      "dois": 479,
      "##ver": 480,
      "parti": 481,
      "ad": 482,
      "autre": 483,
      "comb": 484,
      "sou": 485,
      "soit": 486,
      "##use": 487,
      "fe": 488,
      "dep": 489,
      "voiture": 490,
      "##ces": 491,
      "##enant": 492,
      "aimerais": 493,
      "##be": 494,
      "comm": 495,
      "faut": 496,
      "ache": 497,
      "no": 498,
      "aut": 499,
      "ses": 500,
      "##orm": 501,
      "cour": 502,
      "ret": 503,
      "maint": 504,
      "##lez": 505,
      "##iens": 506,
      "fois": 507,
      "ren": 508,
      "maintenant": 509,
      "fran": 510,
      "##et": 511,
      "##ence": 512,
      "combien": 513,
      "##ay": 514,
      "ces": 515,
      "hui": 516,
      "travail": 517,
      "##riez": 518,
      "##aient": 519,
      "vu": 520,
      "aider": 521,
      "##ol": 522,
      "ceci": 523,
      "##per": 524,
      "oc": 525,
      "##ate": 526,
      "aujour": 527,
      "appre": 528,
      "aujourd": 529,
      "arre": 530,
      "vie": 531,
      "entre": 532,
      "##ac": 533,
      "jou": 534,
      "demande": 535,
      "aussi": 536,
      "diff": 537,
      "##gue": 538,
      "essay": 539,
      "##tin": 540,
      "##ore": 541,
      "alle": 542,
      "mal": 543,
      "air": 544,
      "avais": 545,
      "nom": 546,
      "peti": 547,
      "pos": 548,
      "hier": 549,
      "##ente": 550,
      "##ere": 551,
      "##enu": 552,
      "##cais": 553,
      "proble": 554,
      "porte": 555,
      "plait": 556,
      "##dre": 557,
      "quelle": 558,
      "##endu": 559,
      "pouvez": 560,
      "juste": 561,
      "##oute": 562,
      "francais": 563,
      "dern": 564,
      "##ati": 565,
      "pere": 566,
      "eu": 567,
      "fin": 568,
      "##ique": 569,
      "cont": 570,
      "##rit": 571,
      "che": 572,
      "chez": 573,
      "##ert": 574,
      "etu": 575,
      "emp": 576,
      "appe": 577,
      "apres": 578,
      "##ris": 579,
      "env": 580,
      "livre": 581,
      "##nee": 582,
      "marie": 583,
      "rap": 584,
      "seul": 585,
      "grand": 586,
      "lon": 587,
      "toutes": 588,
      "pensais": 589,
      "tele": 590,
      "##ttre": 591,
      "##ions": 592,
      "deja": 593,
      "ple": 594,
      "compre": 595,
      "cha": 596,
      "souv": 597,
      "aucu": 598,
      "donne": 599,
      "hom": 600,
      "##cile": 601,
      "occu": 602,
      "prendre": 603,
      "notre": 604,
      "pris": 605,
      "trouve": 606,
      "assez": 607,
      "hab": 608,
      "bonne": 609,
      "##arde": 610,
      "trois": 611,
      "##pp": 612,
      "aide": 613,
      "mieux": 614,
      "lu": 615,
      "demain": 616,
      "##ras": 617,
      "pu": 618,
      "voulez": 619,
      "parle": 620,
      "avant": 621,
      "##ller": 622,
      "sans": 623,
      "connais": 624,
      "eco": 625,
      "devrais": 626,
      "##bl": 627,
      "##ide": 628,
      "laisse": 629,
      "##du": 630,
      "##out": 631,
      "simp": 632,
      "ecole": 633,
      "acc": 634,
      "rev": 635,
      "disp": 636,
      "probleme": 637,
      "##eun": 638,
      "##dent": 639,
      "ass": 640,
      "ter": 641,
      "inte": 642,
      "manger": 643,
      "fut": 644,
      "pie": 645,
      "ques": 646,
      "prop": 647,
      "li": 648,
      "ab": 649,
      "##elle": 650,
      "##oses": 651,
      "tes": 652,
      "ide": 653,
      "enfants": 654,
      "##ses": 655,
      "pay": 656,
      "savoir": 657,
      "gens": 658,
      "rencon": 659,
      "cons": 660,
      "toute": 661,
      "aux": 662,
      "leur": 663,
      "heures": 664,
      "long": 665,
      "soir": 666,
      "int": 667,
      "ami": 668,
      "##mme": 669,
      "##ord": 670,
      "##ro": 671,
      "chan": 672,
      "##pere": 673,
      "mere": 674,
      "##ph": 675,
      "em": 676,
      "mer": 677,
      "nuit": 678,
      "##ote": 679,
      "reste": 680,
      "homme": 681,
      "bi": 682,
      "##enti": 683,
      "po": 684,
      "supp": 685,
      "mom": 686,
      "vis": 687,
      "##oc": 688,
      "moment": 689,
      "fil": 690,
      "cet": 691,
      "attend": 692,
      "chien": 693,
      "repon": 694,
      "##nds": 695,
      "ob": 696,
      "end": 697,
      "##urs": 698,
      "##ts": 699,
      "vos": 700,
      "ref": 701,
      "diffi": 702,
      "lors": 703,
      "simplement": 704,
      "ph": 705,
      "##ton": 706,
      "partir": 707,
      "dec": 708,
      "desole": 709,
      "quelques": 710,
      "ense": 711,
      "nouveau": 712,
      "aurais": 713,
      "ans": 714,
      "cher": 715,
      "poi": 716,
      "##oyez": 717,
      "voulais": 718,
      "tot": 719,
      "conf": 720,
      "exp": 721,
      "##iste": 722,
      "idee": 723,
      "choses": 724,
      "ep": 725,
      "sens": 726,
      "voy": 727,
      "##orti": 728,
      "or": 729,
      "##jet": 730,
      "montre": 731,
      "rester": 732,
      "ins": 733,
      "jeu": 734,
      "occupe": 735,
      "chau": 736,
      "voud": 737,
      "derniere": 738,
      "gen": 739,
      "##onner": 740,
      "##llement": 741,
      "cou": 742,
      "ign": 743,
      "rais": 744,
      "##tu": 745,
      "##ager": 746,
      "##avant": 747,
      "demand": 748,
      "fi": 749,
      "bou": 750,
      "sorti": 751,
      "##el": 752,
      "##iner": 753,
      "veut": 754,
      "mange": 755,
      "habit": 756,
      "##ul": 757,
      "##auv": 758,
      "venir": 759,
      "bos": 760,
      "heureux": 761,
      "boston": 762,
      "##cie": 763,
      "petit": 764,
      "aff": 765,
      "rencontre": 766,
      "jours": 767,
      "prom": 768,
      "espere": 769,
      "br": 770,
      "main": 771,
      "##ist": 772,
      "ag": 773,
      "##cer": 774,
      "sait": 775,
      "##dui": 776,
      "min": 777,
      "cert": 778,
      "##aux": 779,
      "fr": 780,
      "##tr": 781,
      "depuis": 782,
      "##cre": 783,
      "regard": 784,
      "##œur": 785,
      "##tions": 786,
      "rend": 787,
      "semble": 788,
      "##gne": 789,
      "peur": 790,
      "fre": 791,
      "##gl": 792,
      "faites": 793,
      "##rez": 794,
      "##ention": 795,
      "croire": 796,
      "trouver": 797,
      "##ene": 798,
      "prem": 799,
      "pref": 800,
      "arrete": 801,
      "mauv": 802,
      "non": 803,
      "##temps": 804,
      "amis": 805,
      "mauvais": 806,
      "ra": 807,
      "prof": 808,
      "achete": 809,
      "interes": 810,
      "gar": 811,
      "coup": 812,
      "matin": 813,
      "al": 814,
      "meille": 815,
      "##dant": 816,
      "semaine": 817,
      "cham": 818,
      "fort": 819,
      "##rer": 820,
      "difficile": 821,
      "rendre": 822,
      "conse": 823,
      "seule": 824,
      "oubl": 825,
      "regarde": 826,
      "eau": 827,
      "##he": 828,
      "fille": 829,
      "##rents": 830,
      "##phon": 831,
      "entendu": 832,
      "soyez": 833,
      "raison": 834,
      "##if": 835,
      "##euse": 836,
      "pendant": 837,
      "fati": 838,
      "##roit": 839,
      "savais": 840,
      "chambre": 841,
      "sois": 842,
      "##asse": 843,
      "car": 844,
      "##sse": 845,
      "pourrais": 846,
      "acheter": 847,
      "etud": 848,
      "##quer": 849,
      "souvent": 850,
      "##ques": 851,
      "jusqu": 852,
      "telephon": 853,
      "proch": 854,
      "crois": 855,
      "pouvons": 856,
      "##mble": 857,
      "uti": 858,
      "mort": 859,
      "##ction": 860,
      "parents": 861,
      "prie": 862,
      "ri": 863,
      "femme": 864,
      "ven": 865,
      "##ale": 866,
      "##onnes": 867,
      "##ct": 868,
      "question": 869,
      "phot": 870,
      "##rions": 871,
      "##rre": 872,
      "##sion": 873,
      "poli": 874,
      "jap": 875,
      "longtemps": 876,
      "japon": 877,
      "surp": 878,
      "im": 879,
      "##uv": 880,
      "##uer": 881,
      "##ns": 882,
      "deb": 883,
      "dou": 884,
      "##ches": 885,
      "ecri": 886,
      "angl": 887,
      "##duire": 888,
      "mot": 889,
      "anglais": 890,
      "etran": 891,
      "inv": 892,
      "##uses": 893,
      "prefere": 894,
      "eff": 895,
      "tard": 896,
      "##ic": 897,
      "##agne": 898,
      "##teur": 899,
      "dejeun": 900,
      "sau": 901,
      "##iend": 902,
      "fatigue": 903,
      "vois": 904,
      "##ace": 905,
      "reve": 906,
      "nombre": 907,
      "rent": 908,
      "gros": 909,
      "sera": 910,
      "dorm": 911,
      "##alement": 912,
      "fu": 913,
      "travaille": 914,
      "import": 915,
      "erre": 916,
      "lit": 917,
      "lire": 918,
      "aucun": 919,
      "dejeuner": 920,
      "##bli": 921,
      "etaient": 922,
      "jouer": 923,
      "oublie": 924,
      "fam": 925,
      "voi": 926,
      "fete": 927,
      "##int": 928,
      "##agn": 929,
      "perdu": 930,
      "point": 931,
      "ech": 932,
      "moins": 933,
      "aucune": 934,
      "##orter": 935,
      "dur": 936,
      "travailler": 937,
      "commen": 938,
      "bles": 939,
      "##leur": 940,
      "retard": 941,
      "##ures": 942,
      "##aires": 943,
      "devons": 944,
      "##ats": 945,
      "penses": 946,
      "rappe": 947,
      "lorsque": 948,
      "telephone": 949,
      "pourrait": 950,
      "ouv": 951,
      "cor": 952,
      "ignore": 953,
      "dont": 954,
      "##sible": 955,
      "adore": 956,
      "##par": 957,
      "retour": 958,
      "ville": 959,
      "deci": 960,
      "mala": 961,
      "sent": 962,
      "passer": 963,
      "commence": 964,
      "chev": 965,
      "etudi": 966,
      "piece": 967,
      "##ss": 968,
      "##ieur": 969,
      "caf": 970,
      "##illez": 971,
      "chem": 972,
      "etiez": 973,
      "emb": 974,
      "sujet": 975,
      "##ienne": 976,
      "##ds": 977,
      "presque": 978,
      "viens": 979,
      "pri": 980,
      "##ttes": 981,
      "fai": 982,
      "nour": 983,
      "##um": 984,
      "dites": 985,
      "nouvelle": 986,
      "age": 987,
      "ba": 988,
      "hist": 989,
      "sortir": 990,
      "##omp": 991,
      "ci": 992,
      "frere": 993,
      "ele": 994,
      "parf": 995,
      "conv": 996,
      "enfant": 997,
      "accord": 998,
      "detes": 999,
      "##im": 1000,
      "doit": 1001,
      "prev": 1002,
      "gran": 1003,
      "table": 1004,
      "donner": 1005,
      "##vent": 1006,
      "autres": 1007,
      "empl": 1008,
      "cafe": 1009,
      "##ges": 1010,
      "##sant": 1011,
      "devriez": 1012,
      "verite": 1013,
      "grande": 1014,
      "co": 1015,
      "apprecie": 1016,
      "pensez": 1017,
      "attendre": 1018,
      "inter": 1019,
      "cl": 1020,
      "arriver": 1021,
      "ten": 1022,
      "vas": 1023,
      "journee": 1024,
      "voudrais": 1025,
      "##lis": 1026,
      "##cep": 1027,
      "propos": 1028,
      "##ision": 1029,
      "rem": 1030,
      "certain": 1031,
      "savez": 1032,
      "##nes": 1033,
      "allez": 1034,
      "suppose": 1035,
      "pret": 1036,
      "##gu": 1037,
      "lettre": 1038,
      "for": 1039,
      "allons": 1040,
      "chaque": 1041,
      "##ient": 1042,
      "inf": 1043,
      "essaye": 1044,
      "venu": 1045,
      "##ign": 1046,
      "davant": 1047,
      "davantage": 1048,
      "mis": 1049,
      "tour": 1050,
      "sœur": 1051,
      "##duit": 1052,
      "inc": 1053,
      "##ites": 1054,
      "bure": 1055,
      "nu": 1056,
      "jeune": 1057,
      "famille": 1058,
      "entendre": 1059,
      "##ill": 1060,
      "##onc": 1061,
      "term": 1062,
      "vin": 1063,
      "partie": 1064,
      "photo": 1065,
      "liv": 1066,
      "##ta": 1067,
      "##ents": 1068,
      "##cident": 1069,
      "essayer": 1070,
      "##dez": 1071,
      "##ee": 1072,
      "##cle": 1073,
      "devez": 1074,
      "bus": 1075,
      "cap": 1076,
      "bureau": 1077,
      "dix": 1078,
      "veuillez": 1079,
      "devoir": 1080,
      "##aite": 1081,
      "merci": 1082,
      "histoire": 1083,
      "dan": 1084,
      "##bable": 1085,
      "gare": 1086,
      "port": 1087,
      "##reux": 1088,
      "expli": 1089,
      "ord": 1090,
      "livres": 1091,
      "cuis": 1092,
      "##conn": 1093,
      "petite": 1094,
      "laisser": 1095,
      "##illes": 1096,
      "voulait": 1097,
      "##ume": 1098,
      "esp": 1099,
      "ferme": 1100,
      "lan": 1101,
      "##des": 1102,
      "tellement": 1103,
      "feu": 1104,
      "accident": 1105,
      "heureuse": 1106,
      "froi": 1107,
      "chance": 1108,
      "##lite": 1109,
      "bas": 1110,
      "laissez": 1111,
      "arreter": 1112,
      "##ca": 1113,
      "plu": 1114,
      "ann": 1115,
      "film": 1116,
      "demander": 1117,
      "pouvoir": 1118,
      "fini": 1119,
      "st": 1120,
      "viv": 1121,
      "reun": 1122,
      "prend": 1123,
      "##conque": 1124,
      "tre": 1125,
      "ve": 1126,
      "##lui": 1127,
      "souh": 1128,
      "envie": 1129,
      "##ner": 1130,
      "discu": 1131,
      "nager": 1132,
      "quit": 1133,
      "annee": 1134,
      "##nez": 1135,
      "##cier": 1136,
      "exac": 1137,
      "ecrit": 1138,
      "##ateau": 1139,
      "sous": 1140,
      "sure": 1141,
      "alors": 1142,
      "vivre": 1143,
      "celui": 1144,
      "profes": 1145,
      "mus": 1146,
      "devrions": 1147,
      "comprends": 1148,
      "tete": 1149,
      "confi": 1150,
      "ev": 1151,
      "##tique": 1152,
      "dess": 1153,
      "prends": 1154,
      "##port": 1155,
      "devrait": 1156,
      "##olere": 1157,
      "change": 1158,
      "parv": 1159,
      "mari": 1160,
      "serait": 1161,
      "endroit": 1162,
      "vite": 1163,
      "rec": 1164,
      "probable": 1165,
      "erreur": 1166,
      "##ition": 1167,
      "contin": 1168,
      "seulement": 1169,
      "entend": 1170,
      "apprendre": 1171,
      "be": 1172,
      "rou": 1173,
      "serv": 1174,
      "ensemble": 1175,
      "deteste": 1176,
      "reunion": 1177,
      "##anter": 1178,
      "fils": 1179,
      "mo": 1180,
      "nourrit": 1181,
      "##ves": 1182,
      "mois": 1183,
      "nos": 1184,
      "##sent": 1185,
      "##see": 1186,
      "vieux": 1187,
      "can": 1188,
      "##ivers": 1189,
      "personnes": 1190,
      "midi": 1191,
      "malade": 1192,
      "cau": 1193,
      "colere": 1194,
      "##nte": 1195,
      "mede": 1196,
      "reconn": 1197,
      "pru": 1198,
      "comprendre": 1199,
      "ecrire": 1200,
      "medeci": 1201,
      "##rise": 1202,
      "ferais": 1203,
      "serais": 1204,
      "sol": 1205,
      "joue": 1206,
      "##rir": 1207,
      "serai": 1208,
      "compte": 1209,
      "conc": 1210,
      "conduire": 1211,
      "yeux": 1212,
      "##seur": 1213,
      "garcon": 1214,
      "exc": 1215,
      "facile": 1216,
      "nourriture": 1217,
      "chat": 1218,
      "questions": 1219,
      "froid": 1220,
      "cote": 1221,
      "dispose": 1222,
      "meilleur": 1223,
      "the": 1224,
      "vue": 1225,
      "##lu": 1226,
      "##aie": 1227,
      "utilis": 1228,
      "amie": 1229,
      "##tionne": 1230,
      "importe": 1231,
      "regarder": 1232,
      "reu": 1233,
      "##utes": 1234,
      "pi": 1235,
      "attra": 1236,
      "attention": 1237,
      "cin": 1238,
      "##oite": 1239,
      "pourriez": 1240,
      "plan": 1241,
      "connait": 1242,
      "##ments": 1243,
      "plais": 1244,
      "vit": 1245,
      "mettre": 1246,
      "autant": 1247,
      "reponse": 1248,
      "##tra": 1249,
      "place": 1250,
      "marche": 1251,
      "boire": 1252,
      "##qui": 1253,
      "contre": 1254,
      "maniere": 1255,
      "pays": 1256,
      "##ateur": 1257,
      "##lot": 1258,
      "##aut": 1259,
      "premier": 1260,
      "belle": 1261,
      "eg": 1262,
      "##man": 1263,
      "present": 1264,
      "voyage": 1265,
      "imag": 1266,
      "##mis": 1267,
      "##entot": 1268,
      "mag": 1269,
      "bientot": 1270,
      "recu": 1271,
      "off": 1272,
      "##bles": 1273,
      "##oix": 1274,
      "sour": 1275,
      "##ls": 1276,
      "rapide": 1277,
      "confiance": 1278,
      "##nsi": 1279,
      "##pare": 1280,
      "##ber": 1281,
      "ainsi": 1282,
      "tombe": 1283,
      "coute": 1284,
      "##quie": 1285,
      "minutes": 1286,
      "conseil": 1287,
      "chemin": 1288,
      "enn": 1289,
      "visite": 1290,
      "bois": 1291,
      "vel": 1292,
      "dormir": 1293,
      "exactement": 1294,
      "##lli": 1295,
      "comple": 1296,
      "##urer": 1297,
      "accep": 1298,
      "etudier": 1299,
      "termine": 1300,
      "dernier": 1301,
      "rest": 1302,
      "diner": 1303,
      "##oyer": 1304,
      "police": 1305,
      "ordin": 1306,
      "professeur": 1307,
      "cri": 1308,
      "tant": 1309,
      "##rant": 1310,
      "##ute": 1311,
      "secre": 1312,
      "vol": 1313,
      "##ations": 1314,
      "fou": 1315,
      "gard": 1316,
      "seri": 1317,
      "prix": 1318,
      "senti": 1319,
      "##riere": 1320,
      "suff": 1321,
      "velo": 1322,
      "##tis": 1323,
      "plut": 1324,
      "vient": 1325,
      "possible": 1326,
      "enseign": 1327,
      "cla": 1328,
      "##ense": 1329,
      "det": 1330,
      "inquie": 1331,
      "##ins": 1332,
      "penser": 1333,
      "musique": 1334,
      "medecin": 1335,
      "##son": 1336,
      "##iter": 1337,
      "impres": 1338,
      "important": 1339,
      "rej": 1340,
      "pouvais": 1341,
      "journ": 1342,
      "decide": 1343,
      "loin": 1344,
      "aurait": 1345,
      "boulot": 1346,
      "probablement": 1347,
      "equi": 1348,
      "chans": 1349,
      "quiconque": 1350,
      "verre": 1351,
      "prochaine": 1352,
      "ay": 1353,
      "##sa": 1354,
      "##uy": 1355,
      "aimes": 1356,
      "##amment": 1357,
      "habitu": 1358,
      "assis": 1359,
      "genre": 1360,
      "##rite": 1361,
      "##omm": 1362,
      "parl": 1363,
      "##ige": 1364,
      "##oue": 1365,
      "ouver": 1366,
      "appar": 1367,
      "lieu": 1368,
      "affaire": 1369,
      "dessus": 1370,
      "##iller": 1371,
      "cal": 1372,
      "desolee": 1373,
      "premiere": 1374,
      "plutot": 1375,
      "mour": 1376,
      "cheveux": 1377,
      "emploi": 1378,
      "puisse": 1379,
      "##cour": 1380,
      "tra": 1381,
      "do": 1382,
      "##un": 1383,
      "neces": 1384,
      "##dia": 1385,
      "leurs": 1386,
      "##agner": 1387,
      "sorte": 1388,
      "##ances": 1389,
      "garde": 1390,
      "sit": 1391,
      "##hors": 1392,
      "dehors": 1393,
      "chois": 1394,
      "chanter": 1395,
      "##ages": 1396,
      "payer": 1397,
      "##ru": 1398,
      "fene": 1399,
      "##tant": 1400,
      "appris": 1401,
      "habitue": 1402,
      "fenetre": 1403,
      "##obe": 1404,
      "##ies": 1405,
      "cause": 1406,
      "##rons": 1407,
      "prete": 1408,
      "gent": 1409,
      "aupar": 1410,
      "exam": 1411,
      "surpris": 1412,
      "embras": 1413,
      "auparavant": 1414,
      "deran": 1415,
      "produit": 1416,
      "surv": 1417,
      "sort": 1418,
      "viend": 1419,
      "sign": 1420,
      "refle": 1421,
      "##fs": 1422,
      "faim": 1423,
      "aim": 1424,
      "suiv": 1425,
      "choix": 1426,
      "peuvent": 1427,
      "resp": 1428,
      "content": 1429,
      "obli": 1430,
      "japonais": 1431,
      "##bres": 1432,
      "##cons": 1433,
      "qua": 1434,
      "imme": 1435,
      "prepare": 1436,
      "travers": 1437,
      "##ray": 1438,
      "necess": 1439,
      "cre": 1440,
      "cle": 1441,
      "manque": 1442,
      "blesse": 1443,
      "connaiss": 1444,
      "cinq": 1445,
      "habitude": 1446,
      "##curite": 1447,
      "attends": 1448,
      "hum": 1449,
      "##cs": 1450,
      "etions": 1451,
      "marcher": 1452,
      "appeler": 1453,
      "changer": 1454,
      "prochain": 1455,
      "ban": 1456,
      "stu": 1457,
      "autor": 1458,
      "##lie": 1459,
      "##cul": 1460,
      "etrange": 1461,
      "discuter": 1462,
      "vers": 1463,
      "##elles": 1464,
      "ait": 1465,
      "cas": 1466,
      "##ouver": 1467,
      "rencontrer": 1468,
      "ecoute": 1469,
      "intention": 1470,
      "chauss": 1471,
      "agit": 1472,
      "problemes": 1473,
      "chaud": 1474,
      "##nis": 1475,
      "pap": 1476,
      "appele": 1477,
      "utiliser": 1478,
      "op": 1479,
      "pom": 1480,
      "##lan": 1481,
      "convain": 1482,
      "devoirs": 1483,
      "fra": 1484,
      "pouvait": 1485,
      "nouvelles": 1486,
      "at": 1487,
      "guer": 1488,
      "vont": 1489,
      "secret": 1490,
      "##diatement": 1491,
      "immediatement": 1492,
      "ecou": 1493,
      "cours": 1494,
      "##lo": 1495,
      "cade": 1496,
      "journal": 1497,
      "##oye": 1498,
      "repondre": 1499,
      "fle": 1500,
      "##dit": 1501,
      "chante": 1502,
      "satis": 1503,
      "perdre": 1504,
      "lund": 1505,
      "satisf": 1506,
      "moy": 1507,
      "sy": 1508,
      "##tient": 1509,
      "terre": 1510,
      "equipe": 1511,
      "cent": 1512,
      "ty": 1513,
      "parce": 1514,
      "##urent": 1515,
      "fon": 1516,
      "pois": 1517,
      "amer": 1518,
      "amus": 1519,
      "appare": 1520,
      "fumer": 1521,
      "boite": 1522,
      "somme": 1523,
      "contr": 1524,
      "telev": 1525,
      "##tenir": 1526,
      "##duis": 1527,
      "##resse": 1528,
      "occupee": 1529,
      "suffis": 1530,
      "securite": 1531,
      "prenez": 1532,
      "peine": 1533,
      "repare": 1534,
      "rentre": 1535,
      "eux": 1536,
      "casse": 1537,
      "##gues": 1538,
      "stup": 1539,
      "gagne": 1540,
      "asse": 1541,
      "lum": 1542,
      "aband": 1543,
      "necessaire": 1544,
      "chaussures": 1545,
      "amou": 1546,
      "classe": 1547,
      "gagner": 1548,
      "reme": 1549,
      "savait": 1550,
      "##rou": 1551,
      "##sage": 1552,
      "##tez": 1553,
      "pren": 1554,
      "differe": 1555,
      "appelle": 1556,
      "revoir": 1557,
      "mains": 1558,
      "cop": 1559,
      "tort": 1560,
      "celle": 1561,
      "##lique": 1562,
      "dispos": 1563,
      "abs": 1564,
      "chercher": 1565,
      "magas": 1566,
      "reflech": 1567,
      "vole": 1568,
      "lundi": 1569,
      "sante": 1570,
      "##ba": 1571,
      "def": 1572,
      "##iel": 1573,
      "avion": 1574,
      "##nees": 1575,
      "##aille": 1576,
      "propre": 1577,
      "riche": 1578,
      "lis": 1579,
      "##onte": 1580,
      "tomber": 1581,
      "##ital": 1582,
      "lune": 1583,
      "etudie": 1584,
      "nombreux": 1585,
      "rappelle": 1586,
      "langue": 1587,
      "completement": 1588,
      "fier": 1589,
      "##tres": 1590,
      "##ven": 1591,
      "##ieres": 1592,
      "char": 1593,
      "##ains": 1594,
      "pleuv": 1595,
      "faisons": 1596,
      "garder": 1597,
      "bu": 1598,
      "bout": 1599,
      "soi": 1600,
      "##nce": 1601,
      "##bi": 1602,
      "##ature": 1603,
      "voulons": 1604,
      "numer": 1605,
      "hote": 1606,
      "##erent": 1607,
      "##peau": 1608,
      "vac": 1609,
      "rentrer": 1610,
      "commencer": 1611,
      "fas": 1612,
      "ment": 1613,
      "super": 1614,
      "reti": 1615,
      "##chez": 1616,
      "mat": 1617,
      "exper": 1618,
      "ferai": 1619,
      "decision": 1620,
      "certaine": 1621,
      "reconnais": 1622,
      "chanson": 1623,
      "soin": 1624,
      "##iers": 1625,
      "laque": 1626,
      "##quel": 1627,
      "bruit": 1628,
      "situ": 1629,
      "laquelle": 1630,
      "fo": 1631,
      "ni": 1632,
      "##ete": 1633,
      "neige": 1634,
      "##ames": 1635,
      "devenir": 1636,
      "austra": 1637,
      "trente": 1638,
      "cana": 1639,
      "dr": 1640,
      "hor": 1641,
      "rom": 1642,
      "##ars": 1643,
      "fall": 1644,
      "derriere": 1645,
      "prudent": 1646,
      "ordinateur": 1647,
      "fit": 1648,
      "idi": 1649,
      "##ssi": 1650,
      "entrer": 1651,
      "lorsqu": 1652,
      "tennis": 1653,
      "rapidement": 1654,
      "restau": 1655,
      "doll": 1656,
      "biere": 1657,
      "resse": 1658,
      "instant": 1659,
      "##erv": 1660,
      "facon": 1661,
      "intelli": 1662,
      "interessant": 1663,
      "etudiants": 1664,
      "souhaite": 1665,
      "television": 1666,
      "numero": 1667,
      "cœur": 1668,
      "sac": 1669,
      "souviens": 1670,
      "hotel": 1671,
      "##cte": 1672,
      "temp": 1673,
      "essaie": 1674,
      "ayez": 1675,
      "vacances": 1676,
      "australie": 1677,
      "droit": 1678,
      "four": 1679,
      "leve": 1680,
      "arbre": 1681,
      "invite": 1682,
      "bebe": 1683,
      "hop": 1684,
      "##ok": 1685,
      "aimez": 1686,
      "vouloir": 1687,
      "plein": 1688,
      "##ifie": 1689,
      "tire": 1690,
      "respons": 1691,
      "##og": 1692,
      "##antes": 1693,
      "##cite": 1694,
      "##onna": 1695,
      "mauvaise": 1696,
      "##ctionn": 1697,
      "##oupe": 1698,
      "##teau": 1699,
      "##indre": 1700,
      "sembl": 1701,
      "poser": 1702,
      "epous": 1703,
      "cuisine": 1704,
      "magasin": 1705,
      "##ttez": 1706,
      "##ets": 1707,
      "affaires": 1708,
      "racon": 1709,
      "donc": 1710,
      "ju": 1711,
      "lait": 1712,
      "nett": 1713,
      "hopital": 1714,
      "route": 1715,
      "##ade": 1716,
      "##lent": 1717,
      "##reuse": 1718,
      "##arre": 1719,
      "prin": 1720,
      "projet": 1721,
      "montrer": 1722,
      "vetement": 1723,
      "quatre": 1724,
      "ris": 1725,
      "devant": 1726,
      "etranger": 1727,
      "situation": 1728,
      "ceux": 1729,
      "coin": 1730,
      "font": 1731,
      "rue": 1732,
      "##ables": 1733,
      "chapeau": 1734,
      "endorm": 1735,
      "rouge": 1736,
      "oblige": 1737,
      "guerre": 1738,
      "stupide": 1739,
      "dollars": 1740,
      "robe": 1741,
      "##ze": 1742,
      "##erai": 1743,
      "poste": 1744,
      "annivers": 1745,
      "##ises": 1746,
      "ignor": 1747,
      "deg": 1748,
      "cadeau": 1749,
      "fasse": 1750,
      "œil": 1751,
      "finir": 1752,
      "consci": 1753,
      "anniversaire": 1754,
      "mor": 1755,
      "##ule": 1756,
      "sel": 1757,
      "indi": 1758,
      "##lier": 1759,
      "faisait": 1760,
      "empru": 1761,
      "vetements": 1762,
      "bla": 1763,
      "##iseau": 1764,
      "##aines": 1765,
      "restaurant": 1766,
      "bat": 1767,
      "sole": 1768,
      "##sons": 1769,
      "mem": 1770,
      "parc": 1771,
      "six": 1772,
      "diman": 1773,
      "##veille": 1774,
      "veulent": 1775,
      "voudriez": 1776,
      "soleil": 1777,
      "##sante": 1778,
      "libre": 1779,
      "paye": 1780,
      "force": 1781,
      "pous": 1782,
      "desc": 1783,
      "annees": 1784,
      "permis": 1785,
      "amies": 1786,
      "interesse": 1787,
      "inform": 1788,
      "bras": 1789,
      "wee": 1790,
      "##tue": 1791,
      "remp": 1792,
      "vieille": 1793,
      "empe": 1794,
      "week": 1795,
      "##nent": 1796,
      "##gt": 1797,
      "sug": 1798,
      "##arras": 1799,
      "##sionne": 1800,
      "rapport": 1801,
      "nombreuses": 1802,
      "parfois": 1803,
      "plaisir": 1804,
      "##oque": 1805,
      "donnez": 1806,
      "decouv": 1807,
      "##mee": 1808,
      "desorm": 1809,
      "envir": 1810,
      "pleurer": 1811,
      "capable": 1812,
      "desormais": 1813,
      "riv": 1814,
      "##oudre": 1815,
      "##cieux": 1816,
      "voulu": 1817,
      "souff": 1818,
      "remar": 1819,
      "fonc": 1820,
      "spe": 1821,
      "##titu": 1822,
      "mont": 1823,
      "respe": 1824,
      "minute": 1825,
      "meilleure": 1826,
      "gentil": 1827,
      "lumiere": 1828,
      "fus": 1829,
      "val": 1830,
      "##tron": 1831,
      "examen": 1832,
      "gateau": 1833,
      "jard": 1834,
      "pose": 1835,
      "rendu": 1836,
      "##lation": 1837,
      "##cuse": 1838,
      "noel": 1839,
      "dange": 1840,
      "##igne": 1841,
      "##pes": 1842,
      "##da": 1843,
      "filles": 1844,
      "type": 1845,
      "liste": 1846,
      "lequel": 1847,
      "parlez": 1848,
      "secon": 1849,
      "expliquer": 1850,
      "dimanche": 1851,
      "blan": 1852,
      "doi": 1853,
      "noir": 1854,
      "##cation": 1855,
      "avoc": 1856,
      "anim": 1857,
      "perme": 1858,
      "pied": 1859,
      "carte": 1860,
      "venez": 1861,
      "mots": 1862,
      "##ieurs": 1863,
      "mourir": 1864,
      "fonctionne": 1865,
      "men": 1866,
      "porter": 1867,
      "rire": 1868,
      "dictionn": 1869,
      "gener": 1870,
      "reussi": 1871,
      "suffisamment": 1872,
      "##cas": 1873,
      "different": 1874,
      "aies": 1875,
      "##sions": 1876,
      "souci": 1877,
      "accomp": 1878,
      "ouvrir": 1879,
      "pluie": 1880,
      "##id": 1881,
      "plage": 1882,
      "faute": 1883,
      "pian": 1884,
      "jardin": 1885,
      "sal": 1886,
      "resoudre": 1887,
      "voici": 1888,
      "##mment": 1889,
      "esper": 1890,
      "suc": 1891,
      "met": 1892,
      "moindre": 1893,
      "plusieurs": 1894,
      "##raient": 1895,
      "manteau": 1896,
      "apporte": 1897,
      "hommes": 1898,
      "demanda": 1899,
      "dictionnaire": 1900,
      "tasse": 1901,
      "vaut": 1902,
      "##lace": 1903,
      "oubli": 1904,
      "amuse": 1905,
      "emm": 1906,
      "##ult": 1907,
      "souhait": 1908,
      "ecouter": 1909,
      "rav": 1910,
      "##xi": 1911,
      "tru": 1912,
      "telle": 1913,
      "mesure": 1914,
      "finalement": 1915,
      "cherche": 1916,
      "furent": 1917,
      "honne": 1918,
      "neu": 1919,
      "impati": 1920,
      "entrep": 1921,
      "servi": 1922,
      "excuses": 1923,
      "derange": 1924,
      "oiseau": 1925,
      "sil": 1926,
      "##vement": 1927,
      "compris": 1928,
      "arriv": 1929,
      "frap": 1930,
      "gra": 1931,
      "chiens": 1932,
      "amour": 1933,
      "regre": 1934,
      "rendez": 1935,
      "fleurs": 1936,
      "##gle": 1937,
      "medi": 1938,
      "remer": 1939,
      "devenu": 1940,
      "##olu": 1941,
      "malh": 1942,
      "succes": 1943,
      "joi": 1944,
      "##rouv": 1945,
      "##air": 1946,
      "aille": 1947,
      "##tif": 1948,
      "seriez": 1949,
      "vide": 1950,
      "biz": 1951,
      "radi": 1952,
      "reparer": 1953,
      "riviere": 1954,
      "##ener": 1955,
      "depe": 1956,
      "refuse": 1957,
      "surprise": 1958,
      "reuss": 1959,
      "satisfait": 1960,
      "ur": 1961,
      "##enue": 1962,
      "recher": 1963,
      "##cien": 1964,
      "feriez": 1965,
      "adresse": 1966,
      "occas": 1967,
      "bibli": 1968,
      "dormi": 1969,
      "bibliot": 1970,
      "menti": 1971,
      "##gez": 1972,
      "##endez": 1973,
      "##onge": 1974,
      "aviez": 1975,
      "mets": 1976,
      "repas": 1977,
      "ennuy": 1978,
      "appareil": 1979,
      "##ond": 1980,
      "##ecu": 1981,
      "dist": 1982,
      "face": 1983,
      "publi": 1984,
      "quitter": 1985,
      "rejou": 1986,
      "ouvert": 1987,
      "experien": 1988,
      "bati": 1989,
      "##sait": 1990,
      "##mi": 1991,
      "##ma": 1992,
      "##mmes": 1993,
      "ener": 1994,
      "##user": 1995,
      "parap": 1996,
      "peint": 1997,
      "court": 1998,
      "occuper": 1999,
      "bibliothe": 2000,
      "##uite": 2001,
      "##ident": 2002,
      "suite": 2003,
      "##cha": 2004,
      "poids": 2005,
      "opin": 2006,
      "piano": 2007,
      "bar": 2008,
      "##cip": 2009,
      "erreurs": 2010,
      "bateau": 2011,
      "ga": 2012,
      "##iser": 2013,
      "incon": 2014,
      "travaill": 2015,
      "conseille": 2016,
      "##eusement": 2017,
      "corre": 2018,
      "sty": 2019,
      "imagine": 2020,
      "poisson": 2021,
      "bibliotheque": 2022,
      "mit": 2023,
      "tent": 2024,
      "univers": 2025,
      "sucre": 2026,
      "trom": 2027,
      "regles": 2028,
      "grosse": 2029,
      "##cours": 2030,
      "moyen": 2031,
      "amoureux": 2032,
      "mens": 2033,
      "nerv": 2034,
      "avions": 2035,
      "##rible": 2036,
      "danser": 2037,
      "appro": 2038,
      "reveille": 2039,
      "##part": 2040,
      "plupart": 2041,
      "pleuvoir": 2042,
      "dangereux": 2043,
      "atte": 2044,
      "bais": 2045,
      "##alite": 2046,
      "##orme": 2047,
      "sep": 2048,
      "serez": 2049,
      "##gere": 2050,
      "allait": 2051,
      "allee": 2052,
      "restez": 2053,
      "##siez": 2054,
      "tran": 2055,
      "contac": 2056,
      "prison": 2057,
      "venue": 2058,
      "effray": 2059,
      "quitte": 2060,
      "##ball": 2061,
      "idiot": 2062,
      "tim": 2063,
      "quels": 2064,
      "femmes": 2065,
      "autour": 2066,
      "habite": 2067,
      "attendais": 2068,
      "arretez": 2069,
      "##luie": 2070,
      "roman": 2071,
      "parapluie": 2072,
      "hors": 2073,
      "vendre": 2074,
      "##tie": 2075,
      "##ues": 2076,
      "tue": 2077,
      "auriez": 2078,
      "regardez": 2079,
      "bizarre": 2080,
      "rejouis": 2081,
      "jo": 2082,
      "pauv": 2083,
      "##eurs": 2084,
      "impos": 2085,
      "posse": 2086,
      "esprit": 2087,
      "lunettes": 2088,
      "##ang": 2089,
      "lar": 2090,
      "atta": 2091,
      "entends": 2092,
      "attraper": 2093,
      "bag": 2094,
      "doute": 2095,
      "fav": 2096,
      "##00": 2097,
      "decu": 2098,
      "##aise": 2099,
      "aie": 2100,
      "salle": 2101,
      "##olie": 2102,
      "fatiguee": 2103,
      "echap": 2104,
      "pommes": 2105,
      "sommeil": 2106,
      "pire": 2107,
      "##iques": 2108,
      "##onde": 2109,
      "##ines": 2110,
      "oncle": 2111,
      "faci": 2112,
      "danger": 2113,
      "serieux": 2114,
      "symp": 2115,
      "intelligent": 2116,
      "honnete": 2117,
      "ble": 2118,
      "guit": 2119,
      "tenir": 2120,
      "dece": 2121,
      "pan": 2122,
      "lever": 2123,
      "sus": 2124,
      "fera": 2125,
      "radio": 2126,
      "experience": 2127,
      "cer": 2128,
      "##vre": 2129,
      "avis": 2130,
      "div": 2131,
      "fermer": 2132,
      "jeunes": 2133,
      "coucher": 2134,
      "proposition": 2135,
      "asseoir": 2136,
      "aise": 2137,
      "cli": 2138,
      "pop": 2139,
      "##yo": 2140,
      "real": 2141,
      "cache": 2142,
      "dirait": 2143,
      "contente": 2144,
      "voyager": 2145,
      "durant": 2146,
      "sentir": 2147,
      "certains": 2148,
      "parviens": 2149,
      "autorise": 2150,
      "emprunt": 2151,
      "hau": 2152,
      "haut": 2153,
      "tuer": 2154,
      "##iete": 2155,
      "pard": 2156,
      "rappeler": 2157,
      "concert": 2158,
      "avocat": 2159,
      "rh": 2160,
      "##oule": 2161,
      "##auche": 2162,
      "prog": 2163,
      "ress": 2164,
      "constr": 2165,
      "promes": 2166,
      "recomm": 2167,
      "attrape": 2168,
      "accepter": 2169,
      "##venient": 2170,
      "seconde": 2171,
      "occasion": 2172,
      "inconvenient": 2173,
      "th": 2174,
      "##die": 2175,
      "patron": 2176,
      "etage": 2177,
      "avaient": 2178,
      "##rice": 2179,
      "essayez": 2180,
      "photos": 2181,
      "risque": 2182,
      "reussir": 2183,
      "opinion": 2184,
      "gere": 2185,
      "tok": 2186,
      "prit": 2187,
      "arme": 2188,
      "preter": 2189,
      "result": 2190,
      "attendu": 2191,
      "parfait": 2192,
      "tableau": 2193,
      "convaincu": 2194,
      "tokyo": 2195,
      "ame": 2196,
      "her": 2197,
      "rare": 2198,
      "cele": 2199,
      "seras": 2200,
      "##ierement": 2201,
      "actue": 2202,
      "##atique": 2203,
      "rends": 2204,
      "echec": 2205,
      "impression": 2206,
      "bons": 2207,
      "vend": 2208,
      "##uve": 2209,
      "##euses": 2210,
      "prote": 2211,
      "mign": 2212,
      "courant": 2213,
      "courir": 2214,
      "simple": 2215,
      "##ifier": 2216,
      "debut": 2217,
      "mariage": 2218,
      "presenter": 2219,
      "bonnes": 2220,
      "donna": 2221,
      "##bes": 2222,
      "##gan": 2223,
      "cam": 2224,
      "taxi": 2225,
      "garcons": 2226,
      "base": 2227,
      "##illa": 2228,
      "ressemble": 2229,
      "empecher": 2230,
      "neuf": 2231,
      "entreprise": 2232,
      "malheu": 2233,
      "gri": 2234,
      "mien": 2235,
      "##quis": 2236,
      "triste": 2237,
      "ecriv": 2238,
      "cheval": 2239,
      "etudiant": 2240,
      "vingt": 2241,
      "connaitre": 2242,
      "conseils": 2243,
      "papier": 2244,
      "impossible": 2245,
      "alles": 2246,
      "huit": 2247,
      "mente": 2248,
      "##gie": 2249,
      "lac": 2250,
      "mach": 2251,
      "##oser": 2252,
      "message": 2253,
      "chemise": 2254,
      "calme": 2255,
      "banque": 2256,
      "eut": 2257,
      "##na": 2258,
      "##jec": 2259,
      "chats": 2260,
      "##art": 2261,
      "arret": 2262,
      "espoir": 2263,
      "continuer": 2264,
      "enseignant": 2265,
      "reflechir": 2266,
      "dos": 2267,
      "oui": 2268,
      "##ctement": 2269,
      "##ail": 2270,
      "trans": 2271,
      "camp": 2272,
      "allume": 2273,
      "difference": 2274,
      "ignorais": 2275,
      "batiment": 2276,
      "avance": 2277,
      "proche": 2278,
      "savons": 2279,
      "comprend": 2280,
      "pieds": 2281,
      "voix": 2282,
      "egalement": 2283,
      "signifie": 2284,
      "foot": 2285,
      "30": 2286,
      "taille": 2287,
      "##oles": 2288,
      "##oux": 2289,
      "ded": 2290,
      "neg": 2291,
      "##iver": 2292,
      "comporte": 2293,
      "appreci": 2294,
      "chanc": 2295,
      "interieur": 2296,
      "amusant": 2297,
      "animaux": 2298,
      "af": 2299,
      "ali": 2300,
      "cles": 2301,
      "ciel": 2302,
      "honte": 2303,
      "œu": 2304,
      "rece": 2305,
      "supporter": 2306,
      "tranqu": 2307,
      "ore": 2308,
      "pai": 2309,
      "lave": 2310,
      "etats": 2311,
      "suivre": 2312,
      "aug": 2313,
      "trait": 2314,
      "##ave": 2315,
      "prec": 2316,
      "##otes": 2317,
      "couleur": 2318,
      "eleve": 2319,
      "certaines": 2320,
      "tempete": 2321,
      "speci": 2322,
      "emprunter": 2323,
      "aer": 2324,
      "doc": 2325,
      "mou": 2326,
      "sin": 2327,
      "dure": 2328,
      "envoye": 2329,
      "promets": 2330,
      "douleur": 2331,
      "frappe": 2332,
      "soire": 2333,
      "##ales": 2334,
      "guitare": 2335,
      "bille": 2336,
      "gout": 2337,
      "##uel": 2338,
      "viande": 2339,
      "rencontres": 2340,
      "retourner": 2341,
      "continue": 2342,
      "environ": 2343,
      "rhume": 2344,
      "cense": 2345,
      "irai": 2346,
      "##ront": 2347,
      "monte": 2348,
      "coupe": 2349,
      "promis": 2350,
      "forme": 2351,
      "viendra": 2352,
      "##rouille": 2353,
      "drole": 2354,
      "dedans": 2355,
      "nature": 2356,
      "chaise": 2357,
      "marier": 2358,
      "compter": 2359,
      "repro": 2360,
      "semaines": 2361,
      "amerique": 2362,
      "medica": 2363,
      "econ": 2364,
      "##dente": 2365,
      "aiment": 2366,
      "conduis": 2367,
      "art": 2368,
      "##rase": 2369,
      "discours": 2370,
      "voyez": 2371,
      "facilement": 2372,
      "vire": 2373,
      "##tenu": 2374,
      "deli": 2375,
      "##tive": 2376,
      "##iennent": 2377,
      "signe": 2378,
      "moitie": 2379,
      "propres": 2380,
      "conside": 2381,
      "fruit": 2382,
      "portes": 2383,
      "econom": 2384,
      "tiens": 2385,
      "tente": 2386,
      "##nement": 2387,
      "repe": 2388,
      "parles": 2389,
      "##cee": 2390,
      "demis": 2391,
      "##oyable": 2392,
      "perd": 2393,
      "pleut": 2394,
      "idees": 2395,
      "contrar": 2396,
      "universite": 2397,
      "soiree": 2398,
      "boute": 2399,
      "dents": 2400,
      "hiver": 2401,
      "sors": 2402,
      "##ime": 2403,
      "##ible": 2404,
      "##enez": 2405,
      "unis": 2406,
      "##tier": 2407,
      "tri": 2408,
      "##cule": 2409,
      "##oyons": 2410,
      "passee": 2411,
      "entretenir": 2412,
      "dispar": 2413,
      "stylo": 2414,
      "pauvre": 2415,
      "sie": 2416,
      "##ution": 2417,
      "##oport": 2418,
      "chacu": 2419,
      "organ": 2420,
      "semblez": 2421,
      "aeroport": 2422,
      "couv": 2423,
      "cir": 2424,
      "gauche": 2425,
      "vent": 2426,
      "##ps": 2427,
      "allais": 2428,
      "viol": 2429,
      "apprecier": 2430,
      "debout": 2431,
      "abandonne": 2432,
      "responsable": 2433,
      "sept": 2434,
      "docteur": 2435,
      "glace": 2436,
      "enne": 2437,
      "##iee": 2438,
      "attenti": 2439,
      "##alent": 2440,
      "vouliez": 2441,
      "ferait": 2442,
      "presente": 2443,
      "connaissez": 2444,
      "debarras": 2445,
      "colle": 2446,
      "incr": 2447,
      "vivent": 2448,
      "sentiment": 2449,
      "embrasser": 2450,
      "reconnaissant": 2451,
      "conscience": 2452,
      "celebre": 2453,
      "norm": 2454,
      "sk": 2455,
      "##zz": 2456,
      "lev": 2457,
      "traite": 2458,
      "plain": 2459,
      "groupe": 2460,
      "enfin": 2461,
      "president": 2462,
      "partout": 2463,
      "cesse": 2464,
      "douche": 2465,
      "eleves": 2466,
      "accepte": 2467,
      "nettoyer": 2468,
      "selon": 2469,
      "he": 2470,
      "jal": 2471,
      "##lise": 2472,
      "##aitement": 2473,
      "pare": 2474,
      "##ieme": 2475,
      "##rier": 2476,
      "exter": 2477,
      "longue": 2478,
      "souvenir": 2479,
      "merite": 2480,
      "aimait": 2481,
      "machine": 2482,
      "##gre": 2483,
      "parole": 2484,
      "sache": 2485,
      "soud": 2486,
      "commande": 2487,
      "vieil": 2488,
      "visage": 2489,
      "##ick": 2490,
      "decider": 2491,
      "suggere": 2492,
      "trompe": 2493,
      "rarement": 2494,
      "forte": 2495,
      "len": 2496,
      "mur": 2497,
      "mille": 2498,
      "nav": 2499,
      "##cteur": 2500,
      "##este": 2501,
      "seuls": 2502,
      "imm": 2503,
      "##iendra": 2504,
      "prevu": 2505,
      "copine": 2506,
      "jolie": 2507,
      "##ome": 2508,
      "avenir": 2509,
      "##tiques": 2510,
      "attendez": 2511,
      "adme": 2512,
      "allem": 2513,
      "mariee": 2514,
      "utilise": 2515,
      "prefererais": 2516,
      "prive": 2517,
      "choisir": 2518,
      "din": 2519,
      "el": 2520,
      "morte": 2521,
      "vecu": 2522,
      "##pl": 2523,
      "crav": 2524,
      "crains": 2525,
      "difficul": 2526,
      "enseigne": 2527,
      "cherch": 2528,
      "##ulaire": 2529,
      "promen": 2530,
      "commenca": 2531,
      "information": 2532,
      "ameli": 2533,
      "œufs": 2534,
      "bain": 2535,
      "eur": 2536,
      "gouver": 2537,
      "so": 2538,
      "##itable": 2539,
      "dieu": 2540,
      "inn": 2541,
      "adm": 2542,
      "note": 2543,
      "ennuis": 2544,
      "remercier": 2545,
      "chacun": 2546,
      "frais": 2547,
      "opp": 2548,
      "soc": 2549,
      "##ope": 2550,
      "##oche": 2551,
      "##qua": 2552,
      "choue": 2553,
      "##rib": 2554,
      "##rige": 2555,
      "exce": 2556,
      "aimeriez": 2557,
      "depend": 2558,
      "commun": 2559,
      "expl": 2560,
      "oubliez": 2561,
      "importante": 2562,
      "habituellement": 2563,
      "americ": 2564,
      "mentir": 2565,
      "blague": 2566,
      "battre": 2567,
      "tranquille": 2568,
      "cravate": 2569,
      "cu": 2570,
      "gre": 2571,
      "loi": 2572,
      "muse": 2573,
      "sport": 2574,
      "arrivee": 2575,
      "verifier": 2576,
      "obtenir": 2577,
      "continu": 2578,
      "pomme": 2579,
      "certainement": 2580,
      "silen": 2581,
      "exterieur": 2582,
      "bord": 2583,
      "##ram": 2584,
      "pars": 2585,
      "tel": 2586,
      "ind": 2587,
      "extre": 2588,
      "possi": 2589,
      "pleure": 2590,
      "champ": 2591,
      "merveille": 2592,
      "sauve": 2593,
      "offre": 2594,
      "couteau": 2595,
      "inquiete": 2596,
      "canad": 2597,
      "service": 2598,
      "incroyable": 2599,
      "form": 2600,
      "##tit": 2601,
      "aurai": 2602,
      "reelle": 2603,
      "##lat": 2604,
      "exer": 2605,
      "arrives": 2606,
      "croy": 2607,
      "revenu": 2608,
      "cuisiner": 2609,
      "concent": 2610,
      "cray": 2611,
      "dort": 2612,
      "##to": 2613,
      "##reable": 2614,
      "##aign": 2615,
      "patient": 2616,
      "##eure": 2617,
      "pourrions": 2618,
      "sejour": 2619,
      "##rig": 2620,
      "##dition": 2621,
      "revenir": 2622,
      "retourne": 2623,
      "portait": 2624,
      "preparer": 2625,
      "epouse": 2626,
      "montagne": 2627,
      "blanc": 2628,
      "public": 2629,
      "bouteille": 2630,
      "cine": 2631,
      "ly": 2632,
      "pain": 2633,
      "sci": 2634,
      "##rie": 2635,
      "##tent": 2636,
      "pati": 2637,
      "ens": 2638,
      "cho": 2639,
      "mettez": 2640,
      "prets": 2641,
      "excuse": 2642,
      "disent": 2643,
      "compagn": 2644,
      "toile": 2645,
      "repondu": 2646,
      "##cture": 2647,
      "impressionne": 2648,
      "parlons": 2649,
      "atti": 2650,
      "semblait": 2651,
      "endormi": 2652,
      "extreme": 2653,
      "but": 2654,
      "mienne": 2655,
      "pont": 2656,
      "eng": 2657,
      "##iennes": 2658,
      "arti": 2659,
      "##terre": 2660,
      "##raite": 2661,
      "objec": 2662,
      "fiche": 2663,
      "incap": 2664,
      "canape": 2665,
      "descend": 2666,
      "remarque": 2667,
      "faveur": 2668,
      "gerer": 2669,
      "societe": 2670,
      "##rique": 2671,
      "##ffe": 2672,
      "entrai": 2673,
      "phrase": 2674,
      "voila": 2675,
      "tourne": 2676,
      "sourire": 2677,
      "tombee": 2678,
      "embrasse": 2679,
      "abandonner": 2680,
      "morce": 2681,
      "proteger": 2682,
      "aj": 2683,
      "nage": 2684,
      "##ron": 2685,
      "##gence": 2686,
      "parait": 2687,
      "touche": 2688,
      "##ing": 2689,
      "manquer": 2690,
      "depri": 2691,
      "contra": 2692,
      "appel": 2693,
      "envers": 2694,
      "obtenu": 2695,
      "fallu": 2696,
      "possede": 2697,
      "lentement": 2698,
      "reellement": 2699,
      "cinema": 2700,
      "tick": 2701,
      "##tons": 2702,
      "##mon": 2703,
      "##hn": 2704,
      "##once": 2705,
      "##isse": 2706,
      "laver": 2707,
      "quelconque": 2708,
      "##raph": 2709,
      "courses": 2710,
      "institu": 2711,
      "effec": 2712,
      "corps": 2713,
      "serieusement": 2714,
      "appartement": 2715,
      "regrette": 2716,
      "joindre": 2717,
      "chouette": 2718,
      "cout": 2719,
      "ram": 2720,
      "tend": 2721,
      "##cus": 2722,
      "##hi": 2723,
      "celles": 2724,
      "demen": 2725,
      "dise": 2726,
      "conseilla": 2727,
      "utile": 2728,
      "terminer": 2729,
      "actuellement": 2730,
      "europe": 2731,
      "innoc": 2732,
      "ira": 2733,
      "##dres": 2734,
      "##tinee": 2735,
      "pron": 2736,
      "conduit": 2737,
      "regle": 2738,
      "grands": 2739,
      "accor": 2740,
      "sauf": 2741,
      "prevois": 2742,
      "solution": 2743,
      "excuser": 2744,
      "deranger": 2745,
      "match": 2746,
      "recherche": 2747,
      "nerveux": 2748,
      "promesse": 2749,
      "promenade": 2750,
      "curi": 2751,
      "lo": 2752,
      "##ste": 2753,
      "##uler": 2754,
      "pause": 2755,
      "##istes": 2756,
      "nez": 2757,
      "produire": 2758,
      "surs": 2759,
      "march": 2760,
      "acquis": 2761,
      "implique": 2762,
      "langues": 2763,
      "prudente": 2764,
      "ouverte": 2765,
      "moyens": 2766,
      "bouton": 2767,
      "afin": 2768,
      "ameliore": 2769,
      "excell": 2770,
      "extremement": 2771,
      "soup": 2772,
      "##ici": 2773,
      "##oie": 2774,
      "##anc": 2775,
      "##anti": 2776,
      "new": 2777,
      "memes": 2778,
      "##llage": 2779,
      "dirai": 2780,
      "pecher": 2781,
      "heureuses": 2782,
      "connu": 2783,
      "##acle": 2784,
      "occupes": 2785,
      "regarda": 2786,
      "ouvre": 2787,
      "maladie": 2788,
      "humeur": 2789,
      "gouvernement": 2790,
      "musee": 2791,
      "dent": 2792,
      "tient": 2793,
      "##romp": 2794,
      "##ig": 2795,
      "##gee": 2796,
      "dipl": 2797,
      "voitures": 2798,
      "assurer": 2799,
      "effort": 2800,
      "parfaitement": 2801,
      "claire": 2802,
      "rejoi": 2803,
      "convaincre": 2804,
      "fallait": 2805,
      "generalement": 2806,
      "fant": 2807,
      "fiere": 2808,
      "soyons": 2809,
      "##irent": 2810,
      "##mine": 2811,
      "##enus": 2812,
      "##omas": 2813,
      "etat": 2814,
      "croit": 2815,
      "sembles": 2816,
      "entree": 2817,
      "##atif": 2818,
      "appeller": 2819,
      "assure": 2820,
      "agreable": 2821,
      "importance": 2822,
      "coll": 2823,
      "arrivera": 2824,
      "absolu": 2825,
      "permettre": 2826,
      "##rouve": 2827,
      "john": 2828,
      "sympa": 2829,
      "divor": 2830,
      "thomas": 2831,
      "bri": 2832,
      "egl": 2833,
      "meur": 2834,
      "pique": 2835,
      "##mb": 2836,
      "##mar": 2837,
      "##ork": 2838,
      "##ots": 2839,
      "accuse": 2840,
      "seules": 2841,
      "pensait": 2842,
      "londres": 2843,
      "terrible": 2844,
      "lim": 2845,
      "visiter": 2846,
      "refus": 2847,
      "confec": 2848,
      "echoue": 2849,
      "football": 2850,
      "instituteur": 2851,
      "date": 2852,
      "ge": 2853,
      "##lir": 2854,
      "##erse": 2855,
      "quar": 2856,
      "esca": 2857,
      "aura": 2858,
      "restes": 2859,
      "savent": 2860,
      "ecris": 2861,
      "faisais": 2862,
      "essai": 2863,
      "soucie": 2864,
      "octo": 2865,
      "freres": 2866,
      "nulle": 2867,
      "appartient": 2868,
      "controle": 2869,
      "epouser": 2870,
      "decouvert": 2871,
      "fruits": 2872,
      "octobre": 2873,
      "19": 2874,
      "cui": 2875,
      "mai": 2876,
      "sang": 2877,
      "york": 2878,
      "##gers": 2879,
      "##ouer": 2880,
      "quelles": 2881,
      "sures": 2882,
      "##cine": 2883,
      "conge": 2884,
      "voler": 2885,
      "seront": 2886,
      "ecout": 2887,
      "commis": 2888,
      "##atiques": 2889,
      "chef": 2890,
      "pleine": 2891,
      "brise": 2892,
      "profonde": 2893,
      "politique": 2894,
      "preferee": 2895,
      "clair": 2896,
      "sold": 2897,
      "imagin": 2898,
      "valise": 2899,
      "ravi": 2900,
      "boit": 2901,
      "hy": 2902,
      "pier": 2903,
      "tir": 2904,
      "talent": 2905,
      "##ni": 2906,
      "##ame": 2907,
      "##dra": 2908,
      "##issez": 2909,
      "pla": 2910,
      "arbres": 2911,
      "pretes": 2912,
      "amb": 2913,
      "excu": 2914,
      "serons": 2915,
      "##col": 2916,
      "grave": 2917,
      "mill": 2918,
      "faux": 2919,
      "perte": 2920,
      "adv": 2921,
      "poe": 2922,
      "epoque": 2923,
      "printemps": 2924,
      "truc": 2925,
      "trucs": 2926,
      "contact": 2927,
      "precise": 2928,
      "couvert": 2929,
      "silencieux": 2930,
      "ensuite": 2931,
      "choco": 2932,
      "eglise": 2933,
      "domm": 2934,
      "rum": 2935,
      "##xe": 2936,
      "##voir": 2937,
      "deter": 2938,
      "legu": 2939,
      "##itation": 2940,
      "desire": 2941,
      "##chee": 2942,
      "dejeu": 2943,
      "retraite": 2944,
      "absent": 2945,
      "nouveaux": 2946,
      "epuis": 2947,
      "balle": 2948,
      "capit": 2949,
      "explication": 2950,
      "mensonge": 2951,
      "augment": 2952,
      "absolument": 2953,
      "rac": 2954,
      "vienne": 2955,
      "##ilite": 2956,
      "##att": 2957,
      "##fie": 2958,
      "##one": 2959,
      "chin": 2960,
      "auras": 2961,
      "pours": 2962,
      "pratique": 2963,
      "##mpe": 2964,
      "village": 2965,
      "soupe": 2966,
      "##etres": 2967,
      "expri": 2968,
      "blessee": 2969,
      "prendra": 2970,
      "crime": 2971,
      "connaissance": 2972,
      "remettre": 2973,
      "fasses": 2974,
      "impatient": 2975,
      "correctement": 2976,
      "echecs": 2977,
      "malheureuse": 2978,
      "paix": 2979,
      "medicament": 2980,
      "considere": 2981,
      "eloi": 2982,
      "article": 2983,
      "lour": 2984,
      "##ile": 2985,
      "paris": 2986,
      "##ttra": 2987,
      "##abilite": 2988,
      "prisonn": 2989,
      "interromp": 2990,
      "cloche": 2991,
      "tenez": 2992,
      "assister": 2993,
      "choisi": 2994,
      "permission": 2995,
      "bis": 2996,
      "hes": 2997,
      "romp": 2998,
      "sc": 2999,
      "##emp": 3000,
      "##selle": 3001,
      "aurez": 3002,
      "##itie": 3003,
      "##rage": 3004,
      "eteindre": 3005,
      "exemp": 3006,
      "persu": 3007,
      "ecla": 3008,
      "essaya": 3009,
      "consac": 3010,
      "geni": 3011,
      "surpre": 3012,
      "voisins": 3013,
      "embarras": 3014,
      "incend": 3015,
      "##itesse": 3016,
      "sortie": 3017,
      "droite": 3018,
      "crayon": 3019,
      "compagnie": 3020,
      "legumes": 3021,
      "dejeune": 3022,
      "rate": 3023,
      "##sance": 3024,
      "jeter": 3025,
      "devait": 3026,
      "repos": 3027,
      "particu": 3028,
      "##entez": 3029,
      "habille": 3030,
      "coupable": 3031,
      "commenc": 3032,
      "inquiet": 3033,
      "sortez": 3034,
      "raconte": 3035,
      "oublier": 3036,
      "larmes": 3037,
      "chanceux": 3038,
      "lycee": 3039,
      "morceau": 3040,
      "fli": 3041,
      "vus": 3042,
      "##ode": 3043,
      "##ycle": 3044,
      "##œurs": 3045,
      "sub": 3046,
      "##riger": 3047,
      "faits": 3048,
      "inti": 3049,
      "manqu": 3050,
      "nouvel": 3051,
      "france": 3052,
      "grandes": 3053,
      "comprenez": 3054,
      "##entif": 3055,
      "couper": 3056,
      "venus": 3057,
      "invites": 3058,
      "corde": 3059,
      "elect": 3060,
      "explique": 3061,
      "raconter": 3062,
      "souhaiter": 3063,
      "special": 3064,
      "acquisition": 3065,
      "dom": 3066,
      "eh": 3067,
      "fie": 3068,
      "gas": 3069,
      "hate": 3070,
      "tar": 3071,
      "##pa": 3072,
      "##ctions": 3073,
      "##gente": 3074,
      "lett": 3075,
      "##ours": 3076,
      "songe": 3077,
      "##sionner": 3078,
      "sale": 3079,
      "jambe": 3080,
      "cru": 3081,
      "entierement": 3082,
      "bonh": 3083,
      "##olog": 3084,
      "##ateurs": 3085,
      "assie": 3086,
      "voyons": 3087,
      "brule": 3088,
      "##tru": 3089,
      "interessante": 3090,
      "ball": 3091,
      "pizz": 3092,
      "traverser": 3093,
      "energie": 3094,
      "panne": 3095,
      "program": 3096,
      "precisement": 3097,
      "particulier": 3098,
      "lettres": 3099,
      "buv": 3100,
      "cos": 3101,
      "has": 3102,
      "mir": 3103,
      "put": 3104,
      "##istre": 3105,
      "etoi": 3106,
      "##aitre": 3107,
      "rela": 3108,
      "devraient": 3109,
      "apporter": 3110,
      "croyez": 3111,
      "autom": 3112,
      "demandez": 3113,
      "compren": 3114,
      "ligne": 3115,
      "epau": 3116,
      "morts": 3117,
      "##ctionner": 3118,
      "riz": 3119,
      "fume": 3120,
      "batt": 3121,
      "suivi": 3122,
      "soient": 3123,
      "doivent": 3124,
      "oiseaux": 3125,
      "billet": 3126,
      "chocolat": 3127,
      "incendie": 3128,
      "bour": 3129,
      "dro": 3130,
      "mise": 3131,
      "obe": 3132,
      "tenu": 3133,
      "##leve": 3134,
      "##aisse": 3135,
      "mec": 3136,
      "plaint": 3137,
      "dirais": 3138,
      "reser": 3139,
      "ecl": 3140,
      "##olf": 3141,
      "envis": 3142,
      "assist": 3143,
      "abord": 3144,
      "refaire": 3145,
      "convers": 3146,
      "imaginer": 3147,
      "foule": 3148,
      "chansons": 3149,
      "assey": 3150,
      "retire": 3151,
      "respec": 3152,
      "urgence": 3153,
      "plaindre": 3154,
      "10": 3155,
      "paire": 3156,
      "##oo": 3157,
      "##uti": 3158,
      "##une": 3159,
      "##az": 3160,
      "detr": 3161,
      "##oires": 3162,
      "passez": 3163,
      "##ress": 3164,
      "sonne": 3165,
      "matinee": 3166,
      "##cuit": 3167,
      "##lieu": 3168,
      "amene": 3169,
      "vraie": 3170,
      "traverse": 3171,
      "sombre": 3172,
      "trouvait": 3173,
      "partage": 3174,
      "ador": 3175,
      "reves": 3176,
      "alco": 3177,
      "theor": 3178,
      "amuser": 3179,
      "memoire": 3180,
      "salaire": 3181,
      "grat": 3182,
      "bagages": 3183,
      "disparu": 3184,
      "debarrasser": 3185,
      "exerci": 3186,
      "gasp": 3187,
      "20": 3188,
      "genti": 3189,
      "commer": 3190,
      "concer": 3191,
      "mangez": 3192,
      "##range": 3193,
      "complique": 3194,
      "accro": 3195,
      "##occu": 3196,
      "chaude": 3197,
      "matins": 3198,
      "cartes": 3199,
      "sauver": 3200,
      "maries": 3201,
      "sentiments": 3202,
      "ressem": 3203,
      "attentivement": 3204,
      "hasard": 3205,
      "bal": 3206,
      "cul": 3207,
      "golf": 3208,
      "pis": 3209,
      "poin": 3210,
      "sœurs": 3211,
      "##th": 3212,
      "##cti": 3213,
      "##ret": 3214,
      "##omb": 3215,
      "aveu": 3216,
      "##ita": 3217,
      "##medi": 3218,
      "##ara": 3219,
      "##chons": 3220,
      "plante": 3221,
      "marrant": 3222,
      "ancien": 3223,
      "direction": 3224,
      "partici": 3225,
      "depense": 3226,
      "chaleur": 3227,
      "mauvaises": 3228,
      "##iendrai": 3229,
      "voisin": 3230,
      "portable": 3231,
      "mode": 3232,
      "japonaise": 3233,
      "timide": 3234,
      "suspe": 3235,
      "cous": 3236,
      "vitesse": 3237,
      "##uter": 3238,
      "##ane": 3239,
      "unique": 3240,
      "##ourv": 3241,
      "chi": 3242,
      "parie": 3243,
      "##osse": 3244,
      "preoccu": 3245,
      "discus": 3246,
      "presse": 3247,
      "veritable": 3248,
      "vaisselle": 3249,
      "passeport": 3250,
      "depourv": 3251,
      "portef": 3252,
      "##ative": 3253,
      "supplement": 3254,
      "bouche": 3255,
      "interessee": 3256,
      "cuisin": 3257,
      "moque": 3258,
      "papa": 3259,
      "horrible": 3260,
      "distance": 3261,
      "resultat": 3262,
      "resultats": 3263,
      "14": 3264,
      "crai": 3265,
      "eveille": 3266,
      "ro": 3267,
      "##rain": 3268,
      "##tal": 3269,
      "##cycle": 3270,
      "##ails": 3271,
      "##euille": 3272,
      "ailles": 3273,
      "##tiens": 3274,
      "chine": 3275,
      "rever": 3276,
      "trac": 3277,
      "cacher": 3278,
      "dirige": 3279,
      "devais": 3280,
      "##oto": 3281,
      "saou": 3282,
      "appuy": 3283,
      "partis": 3284,
      "appelez": 3285,
      "bicycle": 3286,
      "riches": 3287,
      "danse": 3288,
      "plaisanter": 3289,
      "volont": 3290,
      "parlent": 3291,
      "amoureuse": 3292,
      "informations": 3293,
      "effraye": 3294,
      "construit": 3295,
      "ennemi": 3296,
      "biscuit": 3297,
      "costu": 3298,
      "portefeuille": 3299,
      "bicyclette": 3300,
      "ru": 3301,
      "ras": 3302,
      "##enait": 3303,
      "##oncer": 3304,
      "trou": 3305,
      "##cieuse": 3306,
      "##lade": 3307,
      "demar": 3308,
      "sert": 3309,
      "angle": 3310,
      "##ilites": 3311,
      "meilleurs": 3312,
      "enseigner": 3313,
      "esperons": 3314,
      "peinture": 3315,
      "siege": 3316,
      "appellerai": 3317,
      "poursui": 3318,
      "theorie": 3319,
      "piscine": 3320,
      "cand": 3321,
      "ky": 3322,
      "##ize": 3323,
      "##etre": 3324,
      "##ulation": 3325,
      "##bour": 3326,
      "##guer": 3327,
      "##lus": 3328,
      "##oise": 3329,
      "nee": 3330,
      "destin": 3331,
      "magn": 3332,
      "voleur": 3333,
      "inde": 3334,
      "bienven": 3335,
      "pensent": 3336,
      "valeur": 3337,
      "rendit": 3338,
      "donnerai": 3339,
      "cancer": 3340,
      "magaz": 3341,
      "gentille": 3342,
      "connaissait": 3343,
      "##titude": 3344,
      "excusez": 3345,
      "dommage": 3346,
      "conversation": 3347,
      "exercice": 3348,
      "ha": 3349,
      "pes": 3350,
      "tien": 3351,
      "veste": 3352,
      "##ture": 3353,
      "##sit": 3354,
      "##min": 3355,
      "##ouse": 3356,
      "aver": 3357,
      "prise": 3358,
      "monn": 3359,
      "condui": 3360,
      "maman": 3361,
      "marre": 3362,
      "##sier": 3363,
      "##oph": 3364,
      "accu": 3365,
      "##isee": 3366,
      "vint": 3367,
      "combat": 3368,
      "envoyer": 3369,
      "reviens": 3370,
      "supporte": 3371,
      "montrez": 3372,
      "##ception": 3373,
      "prendrai": 3374,
      "disposez": 3375,
      "details": 3376,
      "emmener": 3377,
      "circu": 3378,
      "difficultes": 3379,
      "candid": 3380,
      "edu": 3381,
      "fis": 3382,
      "har": 3383,
      "ile": 3384,
      "tap": 3385,
      "##uie": 3386,
      "##xim": 3387,
      "##omage": 3388,
      "realite": 3389,
      "penetre": 3390,
      "precip": 3391,
      "##lage": 3392,
      "##andis": 3393,
      "alliez": 3394,
      "verifie": 3395,
      "veuilles": 3396,
      "adoles": 3397,
      "depart": 3398,
      "connaisse": 3399,
      "decla": 3400,
      "instru": 3401,
      "occupees": 3402,
      "gars": 3403,
      "films": 3404,
      "ayons": 3405,
      "fassiez": 3406,
      "idiote": 3407,
      "differentes": 3408,
      "bleu": 3409,
      "decede": 3410,
      "menteur": 3411,
      "campagne": 3412,
      "repeter": 3413,
      "ticket": 3414,
      "costume": 3415,
      "adolesc": 3416,
      "eus": 3417,
      "pou": 3418,
      "roi": 3419,
      "##oti": 3420,
      "##deur": 3421,
      "##bri": 3422,
      "##reur": 3423,
      "##ences": 3424,
      "##isation": 3425,
      "lache": 3426,
      "choque": 3427,
      "mett": 3428,
      "toucher": 3429,
      "maj": 3430,
      "devine": 3431,
      "##ira": 3432,
      "inuti": 3433,
      "sach": 3434,
      "saches": 3435,
      "samedi": 3436,
      "exige": 3437,
      "##enses": 3438,
      "derniers": 3439,
      "grandi": 3440,
      "decl": 3441,
      "chauff": 3442,
      "affec": 3443,
      "station": 3444,
      "servie": 3445,
      "boisson": 3446,
      "prenons": 3447,
      "juge": 3448,
      "pousser": 3449,
      "echapper": 3450,
      "recommande": 3451,
      "allemand": 3452,
      "confectionne": 3453,
      "pierre": 3454,
      "pizza": 3455,
      "discussion": 3456,
      "magnif": 3457,
      "dote": 3458,
      "kil": 3459,
      "meu": 3460,
      "notes": 3461,
      "pon": 3462,
      "pot": 3463,
      "poule": 3464,
      "tienne": 3465,
      "##bat": 3466,
      "suici": 3467,
      "##tir": 3468,
      "chant": 3469,
      "aurions": 3470,
      "monter": 3471,
      "arriere": 3472,
      "prov": 3473,
      "devint": 3474,
      "saviez": 3475,
      "##ath": 3476,
      "milieu": 3477,
      "##irer": 3478,
      "couru": 3479,
      "contro": 3480,
      "diffici": 3481,
      "couter": 3482,
      "agis": 3483,
      "discute": 3484,
      "differente": 3485,
      "disposons": 3486,
      "princip": 3487,
      "indiquer": 3488,
      "skier": 3489,
      "scientif": 3490,
      "soldats": 3491,
      "kyoto": 3492,
      "monnaie": 3493,
      "circulation": 3494,
      "cents": 3495,
      "dra": 3496,
      "hur": 3497,
      "orig": 3498,
      "sp": 3499,
      "tandis": 3500,
      "zoo": 3501,
      "##gal": 3502,
      "jeux": 3503,
      "##tien": 3504,
      "deses": 3505,
      "##terie": 3506,
      "##liers": 3507,
      "peindre": 3508,
      "##gnes": 3509,
      "tache": 3510,
      "aiderai": 3511,
      "pleur": 3512,
      "disputer": 3513,
      "assur": 3514,
      "pieces": 3515,
      "restee": 3516,
      "coule": 3517,
      "tourner": 3518,
      "vivant": 3519,
      "tremble": 3520,
      "folle": 3521,
      "silence": 3522,
      "atteint": 3523,
      "baseball": 3524,
      "contrarie": 3525,
      "incapable": 3526,
      "clairement": 3527,
      "imagination": 3528,
      "bonheur": 3529,
      "alcool": 3530,
      "sentez": 3531,
      "##ides": 3532,
      "##eres": 3533,
      "##nant": 3534,
      "##pend": 3535,
      "##dence": 3536,
      "##ree": 3537,
      "quin": 3538,
      "##tiv": 3539,
      "##net": 3540,
      "##inte": 3541,
      "preuve": 3542,
      "resolu": 3543,
      "maisons": 3544,
      "verrouille": 3545,
      "vues": 3546,
      "essayons": 3547,
      "allees": 3548,
      "emporter": 3549,
      "##ock": 3550,
      "obs": 3551,
      "sortit": 3552,
      "frequ": 3553,
      "policier": 3554,
      "faible": 3555,
      "docu": 3556,
      "centre": 3557,
      "charge": 3558,
      "tirer": 3559,
      "pardonner": 3560,
      "navire": 3561,
      "fen": 3562,
      "sh": 3563,
      "sen": 3564,
      "sand": 3565,
      "##imes": 3566,
      "##iger": 3567,
      "##gare": 3568,
      "quant": 3569,
      "##omme": 3570,
      "celi": 3571,
      "enorme": 3572,
      "chere": 3573,
      "mech": 3574,
      "mecs": 3575,
      "compe": 3576,
      "condi": 3577,
      "armes": 3578,
      "mater": 3579,
      "procu": 3580,
      "devenue": 3581,
      "##irm": 3582,
      "vote": 3583,
      "##uelle": 3584,
      "ressent": 3585,
      "demi": 3586,
      "eteint": 3587,
      "##oya": 3588,
      "semb": 3589,
      "course": 3590,
      "##ack": 3591,
      "assise": 3592,
      "poche": 3593,
      "##ulte": 3594,
      "##querir": 3595,
      "reveiller": 3596,
      "decida": 3597,
      "convient": 3598,
      "tenait": 3599,
      "egard": 3600,
      "surviv": 3601,
      "frapp": 3602,
      "syste": 3603,
      "obligee": 3604,
      "spect": 3605,
      "respecte": 3606,
      "ennuyeux": 3607,
      "approche": 3608,
      "bague": 3609,
      "echappe": 3610,
      "camion": 3611,
      "traiter": 3612,
      "demissionner": 3613,
      "merveilleux": 3614,
      "rumeur": 3615,
      "chinois": 3616,
      "aveugle": 3617,
      "celibat": 3618,
      "col": 3619,
      "ir": 3620,
      "jume": 3621,
      "mote": 3622,
      "oper": 3623,
      "pn": 3624,
      "paie": 3625,
      "toit": 3626,
      "viennent": 3627,
      "yens": 3628,
      "##dis": 3629,
      "##hab": 3630,
      "pant": 3631,
      "page": 3632,
      "esc": 3633,
      "pass": 3634,
      "devient": 3635,
      "##sine": 3636,
      "alla": 3637,
      "compare": 3638,
      "##oppe": 3639,
      "fac": 3640,
      "impro": 3641,
      "courage": 3642,
      "arreta": 3643,
      "petits": 3644,
      "sauter": 3645,
      "blesser": 3646,
      "ouvrit": 3647,
      "laisserai": 3648,
      "fermee": 3649,
      "fermez": 3650,
      "trah": 3651,
      "fonctionner": 3652,
      "##rouiller": 3653,
      "intelligente": 3654,
      "fourn": 3655,
      "respect": 3656,
      "doigt": 3657,
      "urgent": 3658,
      "enerve": 3659,
      "population": 3660,
      "jaloux": 3661,
      "dingue": 3662,
      "demenage": 3663,
      "dentiste": 3664,
      "efforts": 3665,
      "brill": 3666,
      "limite": 3667,
      "malheureusement": 3668,
      "gentilles": 3669,
      "angleterre": 3670,
      "fenetres": 3671,
      "cra": 3672,
      "nai": 3673,
      "##siere": 3674,
      "##ares": 3675,
      "##fi": 3676,
      "##gnee": 3677,
      "encour": 3678,
      "tem": 3679,
      "##ffre": 3680,
      "disait": 3681,
      "reposer": 3682,
      "laissa": 3683,
      "regime": 3684,
      "faudra": 3685,
      "dispon": 3686,
      "chausse": 3687,
      "agir": 3688,
      "fortune": 3689,
      "fatigues": 3690,
      "etrangers": 3691,
      "rembour": 3692,
      "feuilles": 3693,
      "eviter": 3694,
      "signif": 3695,
      "fond": 3696,
      "emprunte": 3697,
      "cercle": 3698,
      "progres": 3699,
      "mignonne": 3700,
      "soudain": 3701,
      "contrat": 3702,
      "meurtre": 3703,
      "biscuits": 3704,
      "assurance": 3705,
      "systeme": 3706,
      "pneu": 3707,
      "ran": 3708,
      "##mbre": 3709,
      "##mente": 3710,
      "##matiques": 3711,
      "##ple": 3712,
      "##cis": 3713,
      "##wi": 3714,
      "enque": 3715,
      "##quez": 3716,
      "separe": 3717,
      "jambes": 3718,
      "##ates": 3719,
      "trouves": 3720,
      "voulaient": 3721,
      "enfance": 3722,
      "deroule": 3723,
      "vert": 3724,
      "veuille": 3725,
      "particul": 3726,
      "apprends": 3727,
      "##duction": 3728,
      "amic": 3729,
      "rencontree": 3730,
      "preferes": 3731,
      "profond": 3732,
      "invitation": 3733,
      "ouvrez": 3734,
      "sentis": 3735,
      "cigare": 3736,
      "annule": 3737,
      "reconnu": 3738,
      "critique": 3739,
      "viendrai": 3740,
      "etrangere": 3741,
      "cassee": 3742,
      "supermar": 3743,
      "semblant": 3744,
      "projets": 3745,
      "esperais": 3746,
      "video": 3747,
      "atteindre": 3748,
      "pareille": 3749,
      "explos": 3750,
      "toilettes": 3751,
      "genial": 3752,
      "sandwi": 3753,
      "gui": 3754,
      "nation": 3755,
      "##ouille": 3756,
      "##rement": 3757,
      "quoti": 3758,
      "paress": 3759,
      "neiger": 3760,
      "mep": 3761,
      "plac": 3762,
      "plantes": 3763,
      "prouver": 3764,
      "mondi": 3765,
      "asc": 3766,
      "##sionn": 3767,
      "excite": 3768,
      "manges": 3769,
      "##oyes": 3770,
      "personnel": 3771,
      "repose": 3772,
      "enfui": 3773,
      "aussit": 3774,
      "disposes": 3775,
      "const": 3776,
      "rattra": 3777,
      "remis": 3778,
      "belles": 3779,
      "terminee": 3780,
      "suffit": 3781,
      "credit": 3782,
      "poissons": 3783,
      "disposer": 3784,
      "##bilite": 3785,
      "retirer": 3786,
      "decouvrir": 3787,
      "general": 3788,
      "arriva": 3789,
      "baisse": 3790,
      "ecrivez": 3791,
      "recemment": 3792,
      "normal": 3793,
      "croyais": 3794,
      "innocent": 3795,
      "excellent": 3796,
      "diplome": 3797,
      "profondement": 3798,
      "programme": 3799,
      "magnifique": 3800,
      "quinze": 3801,
      "supermarche": 3802,
      "quotid": 3803,
      "aussitot": 3804,
      "fla": 3805,
      "jau": 3806,
      "mons": 3807,
      "pil": 3808,
      "poupe": 3809,
      "##acite": 3810,
      "##hen": 3811,
      "##quet": 3812,
      "##ouve": 3813,
      "proce": 3814,
      "##ottes": 3815,
      "ambi": 3816,
      "dises": 3817,
      "verrai": 3818,
      "puissions": 3819,
      "couramment": 3820,
      "apprend": 3821,
      "joues": 3822,
      "portez": 3823,
      "assit": 3824,
      "##perer": 3825,
      "resterai": 3826,
      "bouger": 3827,
      "promener": 3828,
      "voie": 3829,
      "changement": 3830,
      "detendre": 3831,
      "survenu": 3832,
      "sommet": 3833,
      "lisez": 3834,
      "horreur": 3835,
      "souffle": 3836,
      "menace": 3837,
      "populaire": 3838,
      "comportement": 3839,
      "since": 3840,
      "engage": 3841,
      "accorde": 3842,
      "hyp": 3843,
      "exemple": 3844,
      "pantal": 3845,
      "donn": 3846,
      "gue": 3847,
      "vendu": 3848,
      "##ieux": 3849,
      "##icien": 3850,
      "dech": 3851,
      "aurons": 3852,
      "##onses": 3853,
      "tromp": 3854,
      "##get": 3855,
      "armee": 3856,
      "##lable": 3857,
      "##onnee": 3858,
      "distin": 3859,
      "pouviez": 3860,
      "reponses": 3861,
      "adop": 3862,
      "renv": 3863,
      "cessez": 3864,
      "noms": 3865,
      "interet": 3866,
      "ordre": 3867,
      "##gnez": 3868,
      "##ication": 3869,
      "echan": 3870,
      "infirm": 3871,
      "ordres": 3872,
      "parvenu": 3873,
      "ordinaire": 3874,
      "enseignante": 3875,
      "traduire": 3876,
      "gardez": 3877,
      "aimais": 3878,
      "chanteur": 3879,
      "soif": 3880,
      "mathe": 3881,
      "emmene": 3882,
      "attaque": 3883,
      "mignon": 3884,
      "artiste": 3885,
      "##titut": 3886,
      "concentrer": 3887,
      "poeme": 3888,
      "hesite": 3889,
      "electri": 3890,
      "ponct": 3891,
      "ital": 3892,
      "lin": 3893,
      "loc": 3894,
      "sauv": 3895,
      "usage": 3896,
      "##rouver": 3897,
      "##orent": 3898,
      "##table": 3899,
      "##ak": 3900,
      "##gen": 3901,
      "##outer": 3902,
      "##ensee": 3903,
      "##tee": 3904,
      "plans": 3905,
      "proxim": 3906,
      "amitie": 3907,
      "##enser": 3908,
      "crain": 3909,
      "ferions": 3910,
      "##onnable": 3911,
      "essence": 3912,
      "joueur": 3913,
      "posa": 3914,
      "emporte": 3915,
      "futur": 3916,
      "totalement": 3917,
      "epar": 3918,
      "institut": 3919,
      "garage": 3920,
      "veniez": 3921,
      "inviter": 3922,
      "commencons": 3923,
      "rappelez": 3924,
      "histoires": 3925,
      "venues": 3926,
      "garer": 3927,
      "serieuse": 3928,
      "inquieter": 3929,
      "ecoutez": 3930,
      "pousse": 3931,
      "timbres": 3932,
      "realise": 3933,
      "malheureux": 3934,
      "grimp": 3935,
      "oreille": 3936,
      "oreilles": 3937,
      "possibilite": 3938,
      "refusa": 3939,
      "drogue": 3940,
      "ressembl": 3941,
      "controler": 3942,
      "moteur": 3943,
      "improbable": 3944,
      "sandwich": 3945,
      "mathematiques": 3946,
      "proximite": 3947,
      "beur": 3948,
      "caisse": 3949,
      "fous": 3950,
      "fore": 3951,
      "ident": 3952,
      "ivre": 3953,
      "jack": 3954,
      "nat": 3955,
      "odeur": 3956,
      "œuv": 3957,
      "##ider": 3958,
      "##tter": 3959,
      "##ub": 3960,
      "##mat": 3961,
      "##est": 3962,
      "##oient": 3963,
      "uns": 3964,
      "lap": 3965,
      "etas": 3966,
      "redi": 3967,
      "conte": 3968,
      "produis": 3969,
      "peche": 3970,
      "laisses": 3971,
      "victi": 3972,
      "laissee": 3973,
      "voudrait": 3974,
      "fiers": 3975,
      "minuit": 3976,
      "fami": 3977,
      "blesses": 3978,
      "sentais": 3979,
      "nourrir": 3980,
      "forces": 3981,
      "treize": 3982,
      "cinqu": 3983,
      "souris": 3984,
      "journaux": 3985,
      "copain": 3986,
      "reconnaissante": 3987,
      "conscient": 3988,
      "membre": 3989,
      "animal": 3990,
      "remercie": 3991,
      "depeche": 3992,
      "favor": 3993,
      "haute": 3994,
      "promesses": 3995,
      "nego": 3996,
      "apprecierais": 3997,
      "deprime": 3998,
      "persua": 3999,
      "eclair": 4000,
      "demarrer": 4001,
      "inutile": 4002,
      "difficiles": 4003,
      "guere": 4004,
      "institutrice": 4005,
      "etasun": 4006,
      "mait": 4007,
      "##rop": 4008,
      "##venu": 4009,
      "passes": 4010,
      "ille": 4011,
      "parmi": 4012,
      "##ina": 4013,
      "##chement": 4014,
      "##astique": 4015,
      "petr": 4016,
      "arrivent": 4017,
      "repre": 4018,
      "perdit": 4019,
      "courag": 4020,
      "rapp": 4021,
      "embe": 4022,
      "couche": 4023,
      "raisons": 4024,
      "fig": 4025,
      "ridi": 4026,
      "image": 4027,
      "effic": 4028,
      "travaillez": 4029,
      "bless": 4030,
      "ignorer": 4031,
      "prevenu": 4032,
      "club": 4033,
      "parvenir": 4034,
      "sortes": 4035,
      "reflechis": 4036,
      "responsabilite": 4037,
      "membres": 4038,
      "souffre": 4039,
      "blanche": 4040,
      "ravie": 4041,
      "barbe": 4042,
      "vendredi": 4043,
      "recommand": 4044,
      "aliments": 4045,
      "admire": 4046,
      "##ribue": 4047,
      "patience": 4048,
      "divorce": 4049,
      "million": 4050,
      "souhaiterais": 4051,
      "fievre": 4052,
      "epaule": 4053,
      "preoccupe": 4054,
      "bienvenue": 4055,
      "spectacle": 4056,
      "beurre": 4057,
      "cit": 4058,
      "loyer": 4059,
      "log": 4060,
      "##atre": 4061,
      "##omes": 4062,
      "aides": 4063,
      "entier": 4064,
      "##itaire": 4065,
      "reli": 4066,
      "allions": 4067,
      "pouvions": 4068,
      "##ards": 4069,
      "beaux": 4070,
      "puissiez": 4071,
      "command": 4072,
      "courrier": 4073,
      "cesser": 4074,
      "terri": 4075,
      "obser": 4076,
      "expres": 4077,
      "fich": 4078,
      "rendue": 4079,
      "saute": 4080,
      "ouvrage": 4081,
      "nourris": 4082,
      "coffre": 4083,
      "annonce": 4084,
      "professionne": 4085,
      "evite": 4086,
      "situe": 4087,
      "suivant": 4088,
      "lumieres": 4089,
      "prudents": 4090,
      "temper": 4091,
      "impatiente": 4092,
      "grace": 4093,
      "contacter": 4094,
      "decue": 4095,
      "etagere": 4096,
      "negli": 4097,
      "violon": 4098,
      "soudaine": 4099,
      "immeu": 4100,
      "racc": 4101,
      "##ologie": 4102,
      "magazine": 4103,
      "ascens": 4104,
      "quotidienne": 4105,
      "jackson": 4106,
      "dame": 4107,
      "fleur": 4108,
      "my": 4109,
      "##rure": 4110,
      "##œu": 4111,
      "##reg": 4112,
      "queue": 4113,
      "estom": 4114,
      "##ari": 4115,
      "plat": 4116,
      "sage": 4117,
      "resta": 4118,
      "##ortable": 4119,
      "allonge": 4120,
      "travailles": 4121,
      "vase": 4122,
      "entrain": 4123,
      "partager": 4124,
      "vieilles": 4125,
      "jouez": 4126,
      "petites": 4127,
      "donnees": 4128,
      "consider": 4129,
      "attendons": 4130,
      "cherchez": 4131,
      "regardes": 4132,
      "employe": 4133,
      "connaissais": 4134,
      "copie": 4135,
      "frapper": 4136,
      "gaz": 4137,
      "joli": 4138,
      "pardonne": 4139,
      "curieux": 4140,
      "locu": 4141,
      "flics": 4142,
      "suspect": 4143,
      "volontaire": 4144,
      "poursuiv": 4145,
      "serviette": 4146,
      "tremblement": 4147,
      "celibataire": 4148,
      "explosion": 4149,
      "pantalon": 4150,
      "cinquante": 4151,
      "temperature": 4152,
      "coi": 4153,
      "gor": 4154,
      "mene": 4155,
      "tor": 4156,
      "##oli": 4157,
      "##eb": 4158,
      "##ouill": 4159,
      "del": 4160,
      "##lever": 4161,
      "##teurs": 4162,
      "enreg": 4163,
      "tomba": 4164,
      "parcour": 4165,
      "sim": 4166,
      "dine": 4167,
      "##iration": 4168,
      "reserv": 4169,
      "serre": 4170,
      "mangent": 4171,
      "##ils": 4172,
      "##oyee": 4173,
      "facture": 4174,
      "repar": 4175,
      "partit": 4176,
      "soulage": 4177,
      "##erence": 4178,
      "dispute": 4179,
      "objet": 4180,
      "refuser": 4181,
      "cherches": 4182,
      "file": 4183,
      "##ulter": 4184,
      "fromage": 4185,
      "faite": 4186,
      "##ignit": 4187,
      "dessous": 4188,
      "servir": 4189,
      "offert": 4190,
      "habituee": 4191,
      "aimons": 4192,
      "##ograph": 4193,
      "accompagner": 4194,
      "emmen": 4195,
      "ailleurs": 4196,
      "travaillent": 4197,
      "nerveuse": 4198,
      "americain": 4199,
      "gren": 4200,
      "canadien": 4201,
      "ajouter": 4202,
      "augmentation": 4203,
      "exprimer": 4204,
      "saoul": 4205,
      "infirmiere": 4206,
      "estomac": 4207,
      "bran": 4208,
      "ine": 4209,
      "roses": 4210,
      "tante": 4211,
      "##tait": 4212,
      "##pres": 4213,
      "##gies": 4214,
      "##graph": 4215,
      "deco": 4216,
      "cere": 4217,
      "##resp": 4218,
      "##vel": 4219,
      "manif": 4220,
      "acquerir": 4221,
      "crie": 4222,
      "deuxieme": 4223,
      "bonjour": 4224,
      "puisses": 4225,
      "longs": 4226,
      "intro": 4227,
      "##tures": 4228,
      "rencontrees": 4229,
      "front": 4230,
      "rater": 4231,
      "rig": 4232,
      "sentie": 4233,
      "failli": 4234,
      "eleg": 4235,
      "parfaite": 4236,
      "vivons": 4237,
      "entendue": 4238,
      "crimine": 4239,
      "banc": 4240,
      "suffisant": 4241,
      "souhaitez": 4242,
      "descendre": 4243,
      "environs": 4244,
      "depecher": 4245,
      "ressens": 4246,
      "heros": 4247,
      "effectu": 4248,
      "derangerait": 4249,
      "souper": 4250,
      "epuise": 4251,
      "rompu": 4252,
      "etoiles": 4253,
      "assistance": 4254,
      "concerne": 4255,
      "participer": 4256,
      "education": 4257,
      "desespere": 4258,
      "ascenseur": 4259,
      "dors": 4260,
      "mord": 4261,
      "nord": 4262,
      "natif": 4263,
      "rus": 4264,
      "soix": 4265,
      "vain": 4266,
      "##umer": 4267,
      "##cles": 4268,
      "##onter": 4269,
      "jette": 4270,
      "passa": 4271,
      "passait": 4272,
      "estime": 4273,
      "ceint": 4274,
      "leger": 4275,
      "sud": 4276,
      "chic": 4277,
      "aupres": 4278,
      "rech": 4279,
      "parais": 4280,
      "tex": 4281,
      "telles": 4282,
      "desser": 4283,
      "surve": 4284,
      "##sive": 4285,
      "disiez": 4286,
      "saison": 4287,
      "anti": 4288,
      "compose": 4289,
      "repris": 4290,
      "fermes": 4291,
      "presence": 4292,
      "retarde": 4293,
      "rende": 4294,
      "dernieres": 4295,
      "chatte": 4296,
      "terme": 4297,
      "attendait": 4298,
      "attendrai": 4299,
      "fix": 4300,
      "coups": 4301,
      "alent": 4302,
      "mortes": 4303,
      "fumes": 4304,
      "##agnes": 4305,
      "rappelles": 4306,
      "interp": 4307,
      "tenue": 4308,
      "froide": 4309,
      "rentree": 4310,
      "invitee": 4311,
      "difficulte": 4312,
      "tendance": 4313,
      "rejoindre": 4314,
      "tiroir": 4315,
      "capitale": 4316,
      "buvez": 4317,
      "monsieur": 4318,
      "foret": 4319,
      "efficace": 4320,
      "100": 4321,
      "bl": 4322,
      "epe": 4323,
      "nique": 4324,
      "san": 4325,
      "##iment": 4326,
      "##ption": 4327,
      "##ciez": 4328,
      "##gique": 4329,
      "##gts": 4330,
      "quanti": 4331,
      "##isme": 4332,
      "##tifs": 4333,
      "auquel": 4334,
      "##chait": 4335,
      "desir": 4336,
      "montra": 4337,
      "##rire": 4338,
      "inj": 4339,
      "appli": 4340,
      "bienvenu": 4341,
      "beaute": 4342,
      "crise": 4343,
      "commettre": 4344,
      "peri": 4345,
      "courut": 4346,
      "retrouver": 4347,
      "aidez": 4348,
      "lic": 4349,
      "poches": 4350,
      "habituer": 4351,
      "rendrai": 4352,
      "invente": 4353,
      "furi": 4354,
      "etudiante": 4355,
      "remonter": 4356,
      "nuages": 4357,
      "bete": 4358,
      "parlait": 4359,
      "examens": 4360,
      "ecoutes": 4361,
      "semblent": 4362,
      "indique": 4363,
      "##idence": 4364,
      "meth": 4365,
      "oublierai": 4366,
      "reveillee": 4367,
      "augmente": 4368,
      "entraine": 4369,
      "##monie": 4370,
      "escaliers": 4371,
      "pratiquement": 4372,
      "reserve": 4373,
      "conduite": 4374,
      "chaussettes": 4375,
      "mondiale": 4376,
      "immeuble": 4377,
      "soixante": 4378,
      "mous": 4379,
      "orange": 4380,
      "web": 4381,
      "##icie": 4382,
      "##fois": 4383,
      "##cations": 4384,
      "##ka": 4385,
      "##ailles": 4386,
      "##onges": 4387,
      "##era": 4388,
      "##aissance": 4389,
      "enterre": 4390,
      "auraient": 4391,
      "recon": 4392,
      "sec": 4393,
      "aper": 4394,
      "inhab": 4395,
      "##veau": 4396,
      "sable": 4397,
      "##ortun": 4398,
      "serp": 4399,
      "regler": 4400,
      "perds": 4401,
      "franchement": 4402,
      "malch": 4403,
      "malgre": 4404,
      "##riser": 4405,
      "trouvee": 4406,
      "chances": 4407,
      "repondit": 4408,
      "demandes": 4409,
      "##uves": 4410,
      "fumee": 4411,
      "capables": 4412,
      "theatre": 4413,
      "souri": 4414,
      "complet": 4415,
      "ordinateurs": 4416,
      "charger": 4417,
      "prudentes": 4418,
      "amusee": 4419,
      "regretter": 4420,
      "large": 4421,
      "sympath": 4422,
      "bleue": 4423,
      "apprecient": 4424,
      "billets": 4425,
      "medicaments": 4426,
      "allemagne": 4427,
      "opportun": 4428,
      "sejourne": 4429,
      "objectif": 4430,
      "sachiez": 4431,
      "poupee": 4432,
      "elu": 4433,
      "nag": 4434,
      "role": 4435,
      "tas": 4436,
      "##erents": 4437,
      "##gles": 4438,
      "##eule": 4439,
      "##ister": 4440,
      "##isions": 4441,
      "lecture": 4442,
      "##orde": 4443,
      "pourrai": 4444,
      "##arme": 4445,
      "seche": 4446,
      "conges": 4447,
      "##osite": 4448,
      "##osition": 4449,
      "##lacer": 4450,
      "##onnement": 4451,
      "##lif": 4452,
      "amuses": 4453,
      "##onneur": 4454,
      "entra": 4455,
      "mic": 4456,
      "milli": 4457,
      "partons": 4458,
      "##verse": 4459,
      "addition": 4460,
      "jouait": 4461,
      "differents": 4462,
      "##drez": 4463,
      "puni": 4464,
      "piege": 4465,
      "propose": 4466,
      "##session": 4467,
      "phy": 4468,
      "insp": 4469,
      "insta": 4470,
      "genie": 4471,
      "genere": 4472,
      "bouge": 4473,
      "alb": 4474,
      "debrouille": 4475,
      "douz": 4476,
      "preferez": 4477,
      "effet": 4478,
      "fatiguees": 4479,
      "points": 4480,
      "agee": 4481,
      "internet": 4482,
      "infor": 4483,
      "egal": 4484,
      "##berte": 4485,
      "mourut": 4486,
      "produits": 4487,
      "creme": 4488,
      "autorises": 4489,
      "##loge": 4490,
      "prenom": 4491,
      "fassions": 4492,
      "coinci": 4493,
      "rempli": 4494,
      "ecrivain": 4495,
      "organise": 4496,
      "leva": 4497,
      "admettre": 4498,
      "colline": 4499,
      "lourd": 4500,
      "tarte": 4501,
      "respecter": 4502,
      "commerci": 4503,
      "cuisinier": 4504,
      "accue": 4505,
      "gentillesse": 4506,
      "disponible": 4507,
      "rembourser": 4508,
      "ambiti": 4509,
      "electricite": 4510,
      "familier": 4511,
      "persuader": 4512,
      "enregistre": 4513,
      "simil": 4514,
      "ceinture": 4515,
      "inhabit": 4516,
      "000": 4517,
      "amp": 4518,
      "bene": 4519,
      "baign": 4520,
      "fl": 4521,
      "loup": 4522,
      "lance": 4523,
      "loupe": 4524,
      "maire": 4525,
      "nie": 4526,
      "oce": 4527,
      "rasse": 4528,
      "viennes": 4529,
      "##ctes": 4530,
      "##aigne": 4531,
      "patr": 4532,
      "paquet": 4533,
      "##anou": 4534,
      "##issons": 4535,
      "aid": 4536,
      "aient": 4537,
      "lecon": 4538,
      "red": 4539,
      "relation": 4540,
      "parte": 4541,
      "parla": 4542,
      "tech": 4543,
      "desor": 4544,
      "condu": 4545,
      "site": 4546,
      "##ama": 4547,
      "devel": 4548,
      "deviner": 4549,
      "##rante": 4550,
      "applique": 4551,
      "trouvez": 4552,
      "pression": 4553,
      "courte": 4554,
      "arretes": 4555,
      "poster": 4556,
      "publ": 4557,
      "connaissent": 4558,
      "liqu": 4559,
      "libe": 4560,
      "consulter": 4561,
      "conference": 4562,
      "raisonnable": 4563,
      "bruy": 4564,
      "brouill": 4565,
      "double": 4566,
      "pretend": 4567,
      "informe": 4568,
      "photograph": 4569,
      "vehi": 4570,
      "entendit": 4571,
      "conclus": 4572,
      "detail": 4573,
      "importantes": 4574,
      "blessees": 4575,
      "connaissons": 4576,
      "apparence": 4577,
      "##bile": 4578,
      "risques": 4579,
      "sugges": 4580,
      "valent": 4581,
      "accomplir": 4582,
      "honnetete": 4583,
      "clients": 4584,
      "realiser": 4585,
      "autorisee": 4586,
      "chanceuse": 4587,
      "aliment": 4588,
      "recevoir": 4589,
      "economie": 4590,
      "ski": 4591,
      "soci": 4592,
      "quartier": 4593,
      "eloigne": 4594,
      "prisonniers": 4595,
      "instructions": 4596,
      "frappa": 4597,
      "encourage": 4598,
      "enquete": 4599,
      "relig": 4600,
      "quotidiennement": 4601,
      "coiff": 4602,
      "injus": 4603,
      "physi": 4604,
      "foire": 4605,
      "gu": 4606,
      "ger": 4607,
      "louer": 4608,
      "naissance": 4609,
      "rit": 4610,
      "##ores": 4611,
      "##aler": 4612,
      "##bilites": 4613,
      "deton": 4614,
      "legere": 4615,
      "enleve": 4616,
      "chateau": 4617,
      "mete": 4618,
      "partez": 4619,
      "##quette": 4620,
      "##irur": 4621,
      "##lions": 4622,
      "amen": 4623,
      "##uise": 4624,
      "directement": 4625,
      "trouva": 4626,
      "feras": 4627,
      "fautes": 4628,
      "##ateaux": 4629,
      "malin": 4630,
      "longues": 4631,
      "emo": 4632,
      "gene": 4633,
      "doue": 4634,
      "sentait": 4635,
      "sentit": 4636,
      "remise": 4637,
      "annuler": 4638,
      "vivait": 4639,
      "evident": 4640,
      "detend": 4641,
      "parlais": 4642,
      "choisis": 4643,
      "clef": 4644,
      "satisfaite": 4645,
      "absence": 4646,
      "charm": 4647,
      "valises": 4648,
      "accompagne": 4649,
      "apportez": 4650,
      "travaillons": 4651,
      "climat": 4652,
      "cambri": 4653,
      "plainte": 4654,
      "oppose": 4655,
      "determine": 4656,
      "capitaine": 4657,
      "201": 4658,
      "depourvu": 4659,
      "scientifique": 4660,
      "constamment": 4661,
      "licen": 4662,
      "album": 4663,
      "techn": 4664,
      "liquide": 4665,
      "brouillard": 4666,
      "goute": 4667,
      "honneur": 4668,
      "saint": 4669,
      "tit": 4670,
      "##trice": 4671,
      "##fond": 4672,
      "##ji": 4673,
      "##30": 4674,
      "##reuses": 4675,
      "##erable": 4676,
      "##ancer": 4677,
      "##issent": 4678,
      "etend": 4679,
      "enver": 4680,
      "avert": 4681,
      "##tice": 4682,
      "chand": 4683,
      "plaign": 4684,
      "##rine": 4685,
      "sieste": 4686,
      "surf": 4687,
      "ingen": 4688,
      "##asser": 4689,
      "salade": 4690,
      "demie": 4691,
      "##dite": 4692,
      "##iles": 4693,
      "##gner": 4694,
      "fache": 4695,
      "repres": 4696,
      "ferons": 4697,
      "aimerait": 4698,
      "verti": 4699,
      "appren": 4700,
      "possession": 4701,
      "francaise": 4702,
      "troisieme": 4703,
      "pun": 4704,
      "accus": 4705,
      "liberte": 4706,
      "test": 4707,
      "eprouv": 4708,
      "insc": 4709,
      "demandais": 4710,
      "firent": 4711,
      "meilleures": 4712,
      "employes": 4713,
      "accidents": 4714,
      "evanou": 4715,
      "medecins": 4716,
      "atter": 4717,
      "remede": 4718,
      "remets": 4719,
      "accompli": 4720,
      "mentionne": 4721,
      "mensonges": 4722,
      "baisser": 4723,
      "hauteur": 4724,
      "herbe": 4725,
      "transp": 4726,
      "jalouse": 4727,
      "admets": 4728,
      "possibilites": 4729,
      "formulaire": 4730,
      "marchand": 4731,
      "##mbler": 4732,
      "cuille": 4733,
      "automne": 4734,
      "supplementaire": 4735,
      "penetrer": 4736,
      "declare": 4737,
      "chauffeur": 4738,
      "affecte": 4739,
      "suicide": 4740,
      "hurler": 4741,
      "temoin": 4742,
      "particulierement": 4743,
      "paresseux": 4744,
      "echange": 4745,
      "quantite": 4746,
      "chandail": 4747,
      "abe": 4748,
      "basse": 4749,
      "censee": 4750,
      "foi": 4751,
      "rose": 4752,
      "ride": 4753,
      "rues": 4754,
      "tat": 4755,
      "##ia": 4756,
      "##iti": 4757,
      "##tais": 4758,
      "##entendu": 4759,
      "lampe": 4760,
      "etant": 4761,
      "envel": 4762,
      "##tine": 4763,
      "##orc": 4764,
      "choc": 4765,
      "auteur": 4766,
      "requ": 4767,
      "desac": 4768,
      "##uire": 4769,
      "prepar": 4770,
      "inconn": 4771,
      "##uels": 4772,
      "##sif": 4773,
      "manieres": 4774,
      "heur": 4775,
      "onze": 4776,
      "directeur": 4777,
      "ecart": 4778,
      "villes": 4779,
      "##olo": 4780,
      "malentendu": 4781,
      "reviendra": 4782,
      "epais": 4783,
      "proches": 4784,
      "inves": 4785,
      "chevaux": 4786,
      "prevoyez": 4787,
      "arriverait": 4788,
      "stri": 4789,
      "vivez": 4790,
      "excit": 4791,
      "planete": 4792,
      "crier": 4793,
      "sortons": 4794,
      "etrangeres": 4795,
      "cadeaux": 4796,
      "reflechi": 4797,
      "pleuvra": 4798,
      "math": 4799,
      "horloge": 4800,
      "romans": 4801,
      "blamer": 4802,
      "doigts": 4803,
      "arrivez": 4804,
      "ennuyer": 4805,
      "correct": 4806,
      "tromper": 4807,
      "baiser": 4808,
      "client": 4809,
      "perdue": 4810,
      "contrariee": 4811,
      "merveilleuse": 4812,
      "science": 4813,
      "descends": 4814,
      "effectue": 4815,
      "ameliorer": 4816,
      "quarante": 4817,
      "places": 4818,
      "consacre": 4819,
      "assieds": 4820,
      "obeir": 4821,
      "craign": 4822,
      "rob": 4823,
      "tapis": 4824,
      "poulet": 4825,
      "document": 4826,
      "negoci": 4827,
      "illegal": 4828,
      "ridicule": 4829,
      "soudainement": 4830,
      "coincidence": 4831,
      "patronne": 4832,
      "agent": 4833,
      "irons": 4834,
      "lou": 4835,
      "os": 4836,
      "ps": 4837,
      "scol": 4838,
      "##oler": 4839,
      "##offe": 4840,
      "##sants": 4841,
      "##lou": 4842,
      "##lau": 4843,
      "##ong": 4844,
      "jete": 4845,
      "espe": 4846,
      "##ombe": 4847,
      "unes": 4848,
      "etoffe": 4849,
      "##tim": 4850,
      "##ustr": 4851,
      "paroles": 4852,
      "comite": 4853,
      "##chent": 4854,
      "arr": 4855,
      "arran": 4856,
      "durer": 4857,
      "preuves": 4858,
      "diable": 4859,
      "##amb": 4860,
      "##chette": 4861,
      "savaient": 4862,
      "croir": 4863,
      "pensiez": 4864,
      "trouvent": 4865,
      "impli": 4866,
      "impots": 4867,
      "faisiez": 4868,
      "parties": 4869,
      "adorent": 4870,
      "vieill": 4871,
      "jouons": 4872,
      "##erez": 4873,
      "contents": 4874,
      "comprehen": 4875,
      "rencont": 4876,
      "##roche": 4877,
      "confortable": 4878,
      "venait": 4879,
      "corriger": 4880,
      "tableaux": 4881,
      "influ": 4882,
      "espace": 4883,
      "causer": 4884,
      "egois": 4885,
      "volonte": 4886,
      "attitude": 4887,
      "superbe": 4888,
      "matiere": 4889,
      "expert": 4890,
      "tenter": 4891,
      "pauvres": 4892,
      "menteuse": 4893,
      "transf": 4894,
      "naturel": 4895,
      "delicieux": 4896,
      "hein": 4897,
      "cherchais": 4898,
      "continua": 4899,
      "canadienne": 4900,
      "incroyablement": 4901,
      "prononcer": 4902,
      "gele": 4903,
      "scene": 4904,
      "miracle": 4905,
      "asseyez": 4906,
      "pointe": 4907,
      "hall": 4908,
      "agissait": 4909,
      "conditions": 4910,
      "operation": 4911,
      "italie": 4912,
      "figure": 4913,
      "logique": 4914,
      "locuteur": 4915,
      "effectuer": 4916,
      "ocean": 4917,
      "2013": 4918,
      "16": 4919,
      "bale": 4920,
      "cult": 4921,
      "lai": 4922,
      "osa": 4923,
      "sain": 4924,
      "vente": 4925,
      "##ronte": 4926,
      "##ow": 4927,
      "##naire": 4928,
      "##alle": 4929,
      "##bon": 4930,
      "##ctive": 4931,
      "##onf": 4932,
      "passage": 4933,
      "##iseur": 4934,
      "aine": 4935,
      "tomb": 4936,
      "##tiers": 4937,
      "##orite": 4938,
      "chirur": 4939,
      "##aute": 4940,
      "recol": 4941,
      "##choir": 4942,
      "plai": 4943,
      "##inaire": 4944,
      "##ries": 4945,
      "voter": 4946,
      "marteau": 4947,
      "demeure": 4948,
      "eteins": 4949,
      "exist": 4950,
      "acteur": 4951,
      "activ": 4952,
      "ferm": 4953,
      "##agers": 4954,
      "adres": 4955,
      "auto": 4956,
      "retenir": 4957,
      "essayais": 4958,
      "reviend": 4959,
      "lignes": 4960,
      "conser": 4961,
      "##rog": 4962,
      "attendent": 4963,
      "refriger": 4964,
      "confon": 4965,
      "brosse": 4966,
      "preferable": 4967,
      "alarme": 4968,
      "debat": 4969,
      "douce": 4970,
      "doulou": 4971,
      "eleph": 4972,
      "prevenir": 4973,
      "employer": 4974,
      "interdit": 4975,
      "supposee": 4976,
      "##illage": 4977,
      "espagne": 4978,
      "exact": 4979,
      "evene": 4980,
      "evidence": 4981,
      "changements": 4982,
      "moder": 4983,
      "solaire": 4984,
      "sourit": 4985,
      "rejete": 4986,
      "survecu": 4987,
      "creve": 4988,
      "options": 4989,
      "fleuve": 4990,
      "remettez": 4991,
      "endormir": 4992,
      "mordu": 4993,
      "blagues": 4994,
      "gentils": 4995,
      "satisfaits": 4996,
      "ressour": 4997,
      "convaincue": 4998,
      "afrique": 4999,
      "mouchoir": 5000,
      "demenager": 5001,
      "accorder": 5002,
      "talentu": 5003,
      "embarrasse": 5004,
      "intim": 5005,
      "miroir": 5006,
      "envisager": 5007,
      "detruit": 5008,
      "meubles": 5009,
      "mechant": 5010,
      "passagers": 5011,
      "adopte": 5012,
      "ceremonie": 5013,
      "interpre": 5014,
      "malchanc": 5015,
      "arranger": 5016,
      "refrigerateur": 5017,
      "bra": 5018,
      "cotes": 5019,
      "fri": 5020,
      "gants": 5021,
      "hais": 5022,
      "is": 5023,
      "miens": 5024,
      "##roi": 5025,
      "##rants": 5026,
      "##itions": 5027,
      "##ibles": 5028,
      "##miner": 5029,
      "##ese": 5030,
      "jeta": 5031,
      "##lettes": 5032,
      "metres": 5033,
      "##itent": 5034,
      "##ciers": 5035,
      "secours": 5036,
      "cond": 5037,
      "##uil": 5038,
      "mars": 5039,
      "##lic": 5040,
      "##sim": 5041,
      "##atis": 5042,
      "facons": 5043,
      "ferma": 5044,
      "justice": 5045,
      "entiere": 5046,
      "faisaient": 5047,
      "admis": 5048,
      "depasse": 5049,
      "appelles": 5050,
      "emis": 5051,
      "confir": 5052,
      "##ultes": 5053,
      "rendra": 5054,
      "forts": 5055,
      "etudes": 5056,
      "telephoner": 5057,
      "douze": 5058,
      "grossier": 5059,
      "adorerais": 5060,
      "etudies": 5061,
      "clot": 5062,
      "forcer": 5063,
      "mission": 5064,
      "partiel": 5065,
      "portent": 5066,
      "explications": 5067,
      "lang": 5068,
      "veget": 5069,
      "entendis": 5070,
      "rouges": 5071,
      "concours": 5072,
      "plaisante": 5073,
      "offrir": 5074,
      "ennuie": 5075,
      "foudre": 5076,
      "choisissez": 5077,
      "##ouverte": 5078,
      "disposais": 5079,
      "retira": 5080,
      "remplis": 5081,
      "posez": 5082,
      "menage": 5083,
      "impatience": 5084,
      "decev": 5085,
      "actuelle": 5086,
      "violence": 5087,
      "ennemis": 5088,
      "continuez": 5089,
      "impressionnee": 5090,
      "tickets": 5091,
      "diplom": 5092,
      "terriblement": 5093,
      "essaies": 5094,
      "ambul": 5095,
      "eclata": 5096,
      "commencez": 5097,
      "etoile": 5098,
      "adorable": 5099,
      "cousin": 5100,
      "coutera": 5101,
      "pleurait": 5102,
      "frequence": 5103,
      "sensible": 5104,
      "fournir": 5105,
      "amical": 5106,
      "##sionnant": 5107,
      "rattraper": 5108,
      "gorge": 5109,
      "methode": 5110,
      "douzaine": 5111,
      "vehicule": 5112,
      "injuste": 5113,
      "physique": 5114,
      "cambriole": 5115,
      "osaka": 5116,
      "ressources": 5117,
      "ber": 5118,
      "equ": 5119,
      "frai": 5120,
      "iss": 5121,
      "mout": 5122,
      "taux": 5123,
      "usine": 5124,
      "##ice": 5125,
      "##icile": 5126,
      "##nces": 5127,
      "##ych": 5128,
      "##h30": 5129,
      "##ju": 5130,
      "##reint": 5131,
      "quas": 5132,
      "pale": 5133,
      "##ana": 5134,
      "##anes": 5135,
      "etang": 5136,
      "encre": 5137,
      "##tivement": 5138,
      "teint": 5139,
      "prati": 5140,
      "assi": 5141,
      "arrange": 5142,
      "protes": 5143,
      "produi": 5144,
      "inse": 5145,
      "##ass": 5146,
      "##assa": 5147,
      "amener": 5148,
      "disais": 5149,
      "applau": 5150,
      "actrice": 5151,
      "vaches": 5152,
      "gro": 5153,
      "fab": 5154,
      "impri": 5155,
      "fausse": 5156,
      "arrivees": 5157,
      "##abilites": 5158,
      "acheve": 5159,
      "acheta": 5160,
      "retrouve": 5161,
      "entrez": 5162,
      "nomme": 5163,
      "etude": 5164,
      "pleuve": 5165,
      "souvenez": 5166,
      "occup": 5167,
      "assiste": 5168,
      "decour": 5169,
      "montrerai": 5170,
      "agres": 5171,
      "rendent": 5172,
      "incor": 5173,
      "secrets": 5174,
      "survivre": 5175,
      "humour": 5176,
      "appelee": 5177,
      "stupides": 5178,
      "juger": 5179,
      "forcee": 5180,
      "empeche": 5181,
      "ressenti": 5182,
      "virer": 5183,
      "excellente": 5184,
      "fantomes": 5185,
      "maig": 5186,
      "plafond": 5187,
      "ambition": 5188,
      "persuade": 5189,
      "domicile": 5190,
      "gratuit": 5191,
      "cigarette": 5192,
      "distinguer": 5193,
      "œuvre": 5194,
      "myste": 5195,
      "dessert": 5196,
      "alentours": 5197,
      "publie": 5198,
      "enverrai": 5199,
      "culture": 5200,
      "dor": 5201,
      "eb": 5202,
      "gou": 5203,
      "gagn": 5204,
      "glis": 5205,
      "hos": 5206,
      "lus": 5207,
      "mun": 5208,
      "miel": 5209,
      "nul": 5210,
      "oh": 5211,
      "sienne": 5212,
      "##riete": 5213,
      "##ias": 5214,
      "##cord": 5215,
      "##hous": 5216,
      "##lit": 5217,
      "##xion": 5218,
      "##va": 5219,
      "dete": 5220,
      "##erme": 5221,
      "##ousse": 5222,
      "lab": 5223,
      "aida": 5224,
      "##sement": 5225,
      "tues": 5226,
      "##ievement": 5227,
      "avancer": 5228,
      "rede": 5229,
      "reduire": 5230,
      "##ciens": 5231,
      "plomb": 5232,
      "##iendrez": 5233,
      "sonna": 5234,
      "conne": 5235,
      "concu": 5236,
      "arra": 5237,
      "dira": 5238,
      "diriez": 5239,
      "our": 5240,
      "marque": 5241,
      "##lide": 5242,
      "##ffer": 5243,
      "eteigne": 5244,
      "exces": 5245,
      "extra": 5246,
      "cruel": 5247,
      "vache": 5248,
      "impuis": 5249,
      "enthous": 5250,
      "taches": 5251,
      "##irez": 5252,
      "derobe": 5253,
      "verif": 5254,
      "connue": 5255,
      "adap": 5256,
      "souleve": 5257,
      "fetes": 5258,
      "pull": 5259,
      "reviendrai": 5260,
      "payee": 5261,
      "fiable": 5262,
      "mangeons": 5263,
      "prome": 5264,
      "bros": 5265,
      "regardait": 5266,
      "arretee": 5267,
      "interesses": 5268,
      "ecrite": 5269,
      "grossiere": 5270,
      "fum": 5271,
      "retourn": 5272,
      "espion": 5273,
      "discutons": 5274,
      "examiner": 5275,
      "surprises": 5276,
      "sortis": 5277,
      "signer": 5278,
      "obliges": 5279,
      "qualite": 5280,
      "humains": 5281,
      "casser": 5282,
      "papiers": 5283,
      "chanteuse": 5284,
      "pleuvait": 5285,
      "soign": 5286,
      "endormie": 5287,
      "indiff": 5288,
      "noirs": 5289,
      "metro": 5290,
      "medic": 5291,
      "depechez": 5292,
      "susp": 5293,
      "demissionne": 5294,
      "privee": 5295,
      "##ribu": 5296,
      "objection": 5297,
      "incapacite": 5298,
      "cuire": 5299,
      "millions": 5300,
      "lourde": 5301,
      "ballon": 5302,
      "envisage": 5303,
      "destination": 5304,
      "##pendant": 5305,
      "professionnel": 5306,
      "rechau": 5307,
      "suggestion": 5308,
      "gueule": 5309,
      "meteo": 5310,
      "desaccord": 5311,
      "psych": 5312,
      "egoiste": 5313,
      "cloture": 5314,
      "vegetar": 5315,
      "issue": 5316,
      "enthousias": 5317,
      "bol": 5318,
      "bœu": 5319,
      "civ": 5320,
      "cuit": 5321,
      "den": 5322,
      "gam": 5323,
      "ja": 5324,
      "jure": 5325,
      "lois": 5326,
      "ombre": 5327,
      "py": 5328,
      "peau": 5329,
      "pol": 5330,
      "pomp": 5331,
      "vir": 5332,
      "##riel": 5333,
      "##umes": 5334,
      "##cter": 5335,
      "##ctron": 5336,
      "##ket": 5337,
      "##enne": 5338,
      "patin": 5339,
      "##tere": 5340,
      "##aises": 5341,
      "eter": 5342,
      "enig": 5343,
      "park": 5344,
      "lesque": 5345,
      "##chon": 5346,
      "##char": 5347,
      "touchez": 5348,
      "sonner": 5349,
      "##endrier": 5350,
      "quelcon": 5351,
      "devenus": 5352,
      "##andes": 5353,
      "##ota": 5354,
      "demarre": 5355,
      "allumer": 5356,
      "existe": 5357,
      "manche": 5358,
      "manques": 5359,
      "##ditionne": 5360,
      "compli": 5361,
      "##oper": 5362,
      "action": 5363,
      "croient": 5364,
      "gram": 5365,
      "essent": 5366,
      "##abe": 5367,
      "verse": 5368,
      "verres": 5369,
      "ferez": 5370,
      "courriel": 5371,
      "aidera": 5372,
      "finit": 5373,
      "abatt": 5374,
      "mangea": 5375,
      "raf": 5376,
      "profite": 5377,
      "interesser": 5378,
      "cardia": 5379,
      "doux": 5380,
      "invent": 5381,
      "fuji": 5382,
      "echouer": 5383,
      "commences": 5384,
      "ouvri": 5385,
      "corresp": 5386,
      "passera": 5387,
      "etudiantes": 5388,
      "electron": 5389,
      "detestent": 5390,
      "remonte": 5391,
      "musicien": 5392,
      "endroits": 5393,
      "roug": 5394,
      "recuperer": 5395,
      "offense": 5396,
      "volant": 5397,
      "traduit": 5398,
      "traduction": 5399,
      "contraire": 5400,
      "defi": 5401,
      "defin": 5402,
      "niveau": 5403,
      "jupe": 5404,
      "degout": 5405,
      "moral": 5406,
      "batterie": 5407,
      "sugge": 5408,
      "salon": 5409,
      "correcte": 5410,
      "effrayee": 5411,
      "grimpe": 5412,
      "reproche": 5413,
      "levres": 5414,
      "pareil": 5415,
      "meurt": 5416,
      "prisonnier": 5417,
      "interrompre": 5418,
      "surprendre": 5419,
      "supplementaires": 5420,
      "materne": 5421,
      "naif": 5422,
      "jaune": 5423,
      "victime": 5424,
      "courageux": 5425,
      "blessure": 5426,
      "application": 5427,
      "periode": 5428,
      "similaire": 5429,
      "conducteur": 5430,
      "cuillere": 5431,
      "tatou": 5432,
      "quasiment": 5433,
      "quelconques": 5434,
      "bre": 5435,
      "bombe": 5436,
      "cot": 5437,
      "ciseau": 5438,
      "dres": 5439,
      "oses": 5440,
      "tendu": 5441,
      "##su": 5442,
      "##ym": 5443,
      "##his": 5444,
      "##vard": 5445,
      "lav": 5446,
      "aig": 5447,
      "avere": 5448,
      "##tible": 5449,
      "pourraient": 5450,
      "reag": 5451,
      "##demment": 5452,
      "cab": 5453,
      "camer": 5454,
      "seve": 5455,
      "argu": 5456,
      "arna": 5457,
      "outi": 5458,
      "surveille": 5459,
      "inatt": 5460,
      "##raich": 5461,
      "##oth": 5462,
      "##uellement": 5463,
      "sales": 5464,
      "sacre": 5465,
      "approp": 5466,
      "allergique": 5467,
      "personnelle": 5468,
      "personnellement": 5469,
      "entou": 5470,
      "presents": 5471,
      "passees": 5472,
      "adultes": 5473,
      "soucier": 5474,
      "depenser": 5475,
      "renverse": 5476,
      "##action": 5477,
      "jouent": 5478,
      "empire": 5479,
      "emplettes": 5480,
      "habiller": 5481,
      "revienne": 5482,
      "libres": 5483,
      "poll": 5484,
      "fixe": 5485,
      "promit": 5486,
      "agri": 5487,
      "trouverais": 5488,
      "profit": 5489,
      "couple": 5490,
      "fortes": 5491,
      "debrouiller": 5492,
      "doutes": 5493,
      "##iendrait": 5494,
      "rentres": 5495,
      "grosses": 5496,
      "litter": 5497,
      "voient": 5498,
      "agees": 5499,
      "cooper": 5500,
      "incons": 5501,
      "heureusement": 5502,
      "surement": 5503,
      "boissons": 5504,
      "classi": 5505,
      "detour": 5506,
      "suivez": 5507,
      "necessaires": 5508,
      "centaines": 5509,
      "absente": 5510,
      "voleurs": 5511,
      "horaire": 5512,
      "memor": 5513,
      "montagnes": 5514,
      "permett": 5515,
      "reussite": 5516,
      "arrivait": 5517,
      "publicite": 5518,
      "constru": 5519,
      "mouille": 5520,
      "reprocher": 5521,
      "navi": 5522,
      "industr": 5523,
      "croyait": 5524,
      "ajoute": 5525,
      "deprimee": 5526,
      "tendit": 5527,
      "divorcer": 5528,
      "epaules": 5529,
      "battu": 5530,
      "asseyons": 5531,
      "harvard": 5532,
      "origine": 5533,
      "signification": 5534,
      "mepris": 5535,
      "enfuir": 5536,
      "grimper": 5537,
      "ressemblent": 5538,
      "produise": 5539,
      "reservation": 5540,
      "serpents": 5541,
      "accueill": 5542,
      "marchandises": 5543,
      "enveloppe": 5544,
      "ambulance": 5545,
      "ours": 5546,
      "jazz": 5547,
      "ciseaux": 5548,
      "argument": 5549,
      "fan": 5550,
      "far": 5551,
      "fout": 5552,
      "fuite": 5553,
      "iras": 5554,
      "loue": 5555,
      "nana": 5556,
      "pur": 5557,
      "##ox": 5558,
      "##obile": 5559,
      "##sie": 5560,
      "##ules": 5561,
      "##maire": 5562,
      "##mos": 5563,
      "##fique": 5564,
      "dettes": 5565,
      "##let": 5566,
      "##ourdi": 5567,
      "etres": 5568,
      "ench": 5569,
      "##quent": 5570,
      "##itables": 5571,
      "reel": 5572,
      "ouest": 5573,
      "##line": 5574,
      "sacs": 5575,
      "exception": 5576,
      "serions": 5577,
      "saisi": 5578,
      "##oupes": 5579,
      "approuve": 5580,
      "compr": 5581,
      "commentaire": 5582,
      "actions": 5583,
      "pensons": 5584,
      "vague": 5585,
      "mesures": 5586,
      "repand": 5587,
      "mirent": 5588,
      "tape": 5589,
      "verrou": 5590,
      "huile": 5591,
      "##atives": 5592,
      "donnee": 5593,
      "prises": 5594,
      "##idemment": 5595,
      "##dule": 5596,
      "accent": 5597,
      "disput": 5598,
      "proprie": 5599,
      "longu": 5600,
      "visa": 5601,
      "reponds": 5602,
      "expose": 5603,
      "insiste": 5604,
      "promene": 5605,
      "carottes": 5606,
      "acheterais": 5607,
      "moto": 5608,
      "saurait": 5609,
      "embauche": 5610,
      "pretendu": 5611,
      "evidemment": 5612,
      "viendrait": 5613,
      "viendras": 5614,
      "banane": 5615,
      "ecoule": 5616,
      "magasins": 5617,
      "fasci": 5618,
      "folles": 5619,
      "rome": 5620,
      "invitees": 5621,
      "responsabilites": 5622,
      "princi": 5623,
      "coince": 5624,
      "bataille": 5625,
      "joie": 5626,
      "galer": 5627,
      "style": 5628,
      "tenta": 5629,
      "moyenne": 5630,
      "panier": 5631,
      "hautement": 5632,
      "pardon": 5633,
      "apprecies": 5634,
      "delic": 5635,
      "admir": 5636,
      "ramene": 5637,
      "innocence": 5638,
      "determiner": 5639,
      "eclate": 5640,
      "habillee": 5641,
      "plaintes": 5642,
      "poing": 5643,
      "participe": 5644,
      "voisinage": 5645,
      "choquee": 5646,
      "kilom": 5647,
      "origin": 5648,
      "sembla": 5649,
      "factures": 5650,
      "guide": 5651,
      "trompes": 5652,
      "linge": 5653,
      "epargne": 5654,
      "lapin": 5655,
      "favori": 5656,
      "etasuniens": 5657,
      "parcourir": 5658,
      "branche": 5659,
      "surveiller": 5660,
      "furieux": 5661,
      "ambitieux": 5662,
      "inhabituel": 5663,
      "detonation": 5664,
      "licencie": 5665,
      "excitant": 5666,
      "moderne": 5667,
      "condam": 5668,
      "langage": 5669,
      "dorment": 5670,
      "soigneusement": 5671,
      "rafraich": 5672,
      "cardiaque": 5673,
      "tatouage": 5674,
      "classique": 5675,
      "industrie": 5676,
      "18": 5677,
      "bel": 5678,
      "blo": 5679,
      "cran": 5680,
      "censes": 5681,
      "eche": 5682,
      "faine": 5683,
      "gau": 5684,
      "irre": 5685,
      "joy": 5686,
      "lent": 5687,
      "mention": 5688,
      "maitre": 5689,
      "mouve": 5690,
      "nue": 5691,
      "one": 5692,
      "pitie": 5693,
      "ralent": 5694,
      "ste": 5695,
      "sites": 5696,
      "saign": 5697,
      "##tation": 5698,
      "##nation": 5699,
      "##usez": 5700,
      "##ppe": 5701,
      "##louse": 5702,
      "##anite": 5703,
      "##aison": 5704,
      "etendu": 5705,
      "##tiend": 5706,
      "chaises": 5707,
      "med": 5708,
      "melan": 5709,
      "pourv": 5710,
      "requis": 5711,
      "tels": 5712,
      "contient": 5713,
      "condition": 5714,
      "astu": 5715,
      "diam": 5716,
      "dimin": 5717,
      "produ": 5718,
      "resol": 5719,
      "pelouse": 5720,
      "exage": 5721,
      "manuel": 5722,
      "##cope": 5723,
      "##oins": 5724,
      "aimee": 5725,
      "trouvais": 5726,
      "entres": 5727,
      "perple": 5728,
      "##agez": 5729,
      "bonde": 5730,
      "autrefois": 5731,
      "soutien": 5732,
      "depl": 5733,
      "deplace": 5734,
      "jouais": 5735,
      "##atifs": 5736,
      "contrai": 5737,
      "##rites": 5738,
      "termes": 5739,
      "lib": 5740,
      "abri": 5741,
      "consom": 5742,
      "poete": 5743,
      "attendit": 5744,
      "decrire": 5745,
      "poil": 5746,
      "eprouve": 5747,
      "insulte": 5748,
      "genoux": 5749,
      "bougies": 5750,
      "promet": 5751,
      "mince": 5752,
      "rendrait": 5753,
      "profiter": 5754,
      "consequ": 5755,
      "etudiez": 5756,
      "politi": 5757,
      "election": 5758,
      "code": 5759,
      "##ignons": 5760,
      "touristes": 5761,
      "##illon": 5762,
      "expliqua": 5763,
      "fermees": 5764,
      "lancer": 5765,
      "exacte": 5766,
      "recr": 5767,
      "servez": 5768,
      "modi": 5769,
      "gardes": 5770,
      "enseignants": 5771,
      "detendu": 5772,
      "calmes": 5773,
      "trahi": 5774,
      "aimable": 5775,
      "humide": 5776,
      "bananes": 5777,
      "secretaire": 5778,
      "fonctionn": 5779,
      "soins": 5780,
      "fourchette": 5781,
      "responsables": 5782,
      "nettoye": 5783,
      "remporte": 5784,
      "remplir": 5785,
      "barb": 5786,
      "attache": 5787,
      "realis": 5788,
      "miennes": 5789,
      "cherchait": 5790,
      "americains": 5791,
      "indis": 5792,
      "fantastique": 5793,
      "confection": 5794,
      "boites": 5795,
      "consacrer": 5796,
      "commencent": 5797,
      "intime": 5798,
      "modele": 5799,
      "appuyer": 5800,
      "adolescent": 5801,
      "scientifiques": 5802,
      "verrouillee": 5803,
      "conditionne": 5804,
      "escl": 5805,
      "brillant": 5806,
      "placard": 5807,
      "identite": 5808,
      "natale": 5809,
      "entraineur": 5810,
      "grenier": 5811,
      "opportunite": 5812,
      "milliers": 5813,
      "informer": 5814,
      "valentin": 5815,
      "represent": 5816,
      "fraiche": 5817,
      "maternelle": 5818,
      "propriet": 5819,
      "longueur": 5820,
      "kilometres": 5821,
      "50": 5822,
      "alite": 5823,
      "borde": 5824,
      "donnes": 5825,
      "ner": 5826,
      "ot": 5827,
      "pus": 5828,
      "pist": 5829,
      "rand": 5830,
      "taire": 5831,
      "##ionne": 5832,
      "##aces": 5833,
      "##do": 5834,
      "##cez": 5835,
      "##lin": 5836,
      "##xes": 5837,
      "##aill": 5838,
      "##enons": 5839,
      "dette": 5840,
      "pattes": 5841,
      "##entions": 5842,
      "##issant": 5843,
      "##issante": 5844,
      "lachez": 5845,
      "etonne": 5846,
      "etonn": 5847,
      "avise": 5848,
      "suit": 5849,
      "##tition": 5850,
      "reduit": 5851,
      "##cieuses": 5852,
      "desert": 5853,
      "montez": 5854,
      "##uitement": 5855,
      "diver": 5856,
      "##ecut": 5857,
      "proces": 5858,
      "deviens": 5859,
      "devras": 5860,
      "##site": 5861,
      "##mestre": 5862,
      "exh": 5863,
      "serrure": 5864,
      "dissim": 5865,
      "##dieux": 5866,
      "direct": 5867,
      "##aly": 5868,
      "croise": 5869,
      "besoins": 5870,
      "trouvons": 5871,
      "##olet": 5872,
      "laissons": 5873,
      "ecrase": 5874,
      "justes": 5875,
      "vict": 5876,
      "verrouiller": 5877,
      "autrement": 5878,
      "soucis": 5879,
      "depenses": 5880,
      "renf": 5881,
      "appela": 5882,
      "avantage": 5883,
      "accout": 5884,
      "payes": 5885,
      "nuits": 5886,
      "phar": 5887,
      "decor": 5888,
      "poignee": 5889,
      "demandai": 5890,
      "boutique": 5891,
      "brievement": 5892,
      "voisine": 5893,
      "faibles": 5894,
      "coo": 5895,
      "espagn": 5896,
      "veiller": 5897,
      "ecriture": 5898,
      "confiant": 5899,
      "medecine": 5900,
      "conclu": 5901,
      "utilisez": 5902,
      "source": 5903,
      "calin": 5904,
      "traduis": 5905,
      "preparee": 5906,
      "autorite": 5907,
      "types": 5908,
      "fonde": 5909,
      "poison": 5910,
      "preniez": 5911,
      "disposent": 5912,
      "retirez": 5913,
      "canada": 5914,
      "obligees": 5915,
      "poussiere": 5916,
      "secondes": 5917,
      "permet": 5918,
      "permettez": 5919,
      "menac": 5920,
      "amusees": 5921,
      "devenues": 5922,
      "distrait": 5923,
      "tentative": 5924,
      "approcher": 5925,
      "recommen": 5926,
      "mignons": 5927,
      "camper": 5928,
      "allumette": 5929,
      "siecle": 5930,
      "souvenirs": 5931,
      "communi": 5932,
      "sejourner": 5933,
      "patiente": 5934,
      "attirante": 5935,
      "fantome": 5936,
      "collier": 5937,
      "maigre": 5938,
      "soldat": 5939,
      "chinoise": 5940,
      "gaspiller": 5941,
      "commerce": 5942,
      "accroche": 5943,
      "cuisiniere": 5944,
      "plaisanterie": 5945,
      "candidat": 5946,
      "obscurite": 5947,
      "documents": 5948,
      "procure": 5949,
      "hesitez": 5950,
      "ponctuel": 5951,
      "petrin": 5952,
      "petrole": 5953,
      "reprendre": 5954,
      "rapporte": 5955,
      "delai": 5956,
      "frontiere": 5957,
      "criminel": 5958,
      "texte": 5959,
      "developpe": 5960,
      "gerant": 5961,
      "heurte": 5962,
      "maths": 5963,
      "douloureux": 5964,
      "evenement": 5965,
      "electronique": 5966,
      "comprom": 5967,
      "librai": 5968,
      "bav": 5969,
      "don": 5970,
      "eve": 5971,
      "hale": 5972,
      "murs": 5973,
      "nes": 5974,
      "not": 5975,
      "noire": 5976,
      "ora": 5977,
      "pin": 5978,
      "rock": 5979,
      "scep": 5980,
      "##ry": 5981,
      "##nie": 5982,
      "##bo": 5983,
      "##cts": 5984,
      "##vis": 5985,
      "##venir": 5986,
      "##ker": 5987,
      "quart": 5988,
      "pat": 5989,
      "##leure": 5990,
      "##leman": 5991,
      "lace": 5992,
      "ainee": 5993,
      "etab": 5994,
      "##quin": 5995,
      "##orce": 5996,
      "chasse": 5997,
      "traitement": 5998,
      "##ciation": 5999,
      "seau": 6000,
      "##cevoir": 6001,
      "songer": 6002,
      "##ril": 6003,
      "##ription": 6004,
      "mass": 6005,
      "##pet": 6006,
      "##uine": 6007,
      "siff": 6008,
      "##tern": 6009,
      "surm": 6010,
      "##orta": 6011,
      "allon": 6012,
      "extr": 6013,
      "mani": 6014,
      "pouvaient": 6015,
      "ongles": 6016,
      "##dies": 6017,
      "reporte": 6018,
      "##inet": 6019,
      "ecar": 6020,
      "parlerai": 6021,
      "tab": 6022,
      "aimerions": 6023,
      "vies": 6024,
      "vive": 6025,
      "parten": 6026,
      "adulte": 6027,
      "depit": 6028,
      "courus": 6029,
      "retenu": 6030,
      "retrouv": 6031,
      "jouets": 6032,
      "post": 6033,
      "appetit": 6034,
      "envoyez": 6035,
      "envoie": 6036,
      "envoya": 6037,
      "revient": 6038,
      "aboyer": 6039,
      "aboie": 6040,
      "consomm": 6041,
      "supposes": 6042,
      "repond": 6043,
      "repondez": 6044,
      "epi": 6045,
      "orte": 6046,
      "orth": 6047,
      "fiance": 6048,
      "regardais": 6049,
      "trouverai": 6050,
      "trouveras": 6051,
      "achetee": 6052,
      "utilite": 6053,
      "venais": 6054,
      "policiers": 6055,
      "sauta": 6056,
      "revele": 6057,
      "embau": 6058,
      "nourri": 6059,
      "bala": 6060,
      "balles": 6061,
      "prevoir": 6062,
      "emplois": 6063,
      "infec": 6064,
      "feuille": 6065,
      "basket": 6066,
      "stop": 6067,
      "veille": 6068,
      "recla": 6069,
      "ennui": 6070,
      "professeurs": 6071,
      "secrete": 6072,
      "calcu": 6073,
      "emploie": 6074,
      "gentleman": 6075,
      "respirer": 6076,
      "contentes": 6077,
      "oblig": 6078,
      "traversa": 6079,
      "humain": 6080,
      "autoriser": 6081,
      "optim": 6082,
      "journaliste": 6083,
      "satisfaire": 6084,
      "apparemment": 6085,
      "televiseur": 6086,
      "prennent": 6087,
      "garderai": 6088,
      "endormis": 6089,
      "descendu": 6090,
      "environnement": 6091,
      "salut": 6092,
      "regrett": 6093,
      "popul": 6094,
      "preterai": 6095,
      "camara": 6096,
      "tranquilles": 6097,
      "repete": 6098,
      "collection": 6099,
      "americaine": 6100,
      "engager": 6101,
      "objectifs": 6102,
      "descendit": 6103,
      "appelait": 6104,
      "##issement": 6105,
      "curieuse": 6106,
      "assurez": 6107,
      "essaierai": 6108,
      "desirez": 6109,
      "surprenant": 6110,
      "flic": 6111,
      "electrique": 6112,
      "assiette": 6113,
      "panneau": 6114,
      "assistant": 6115,
      "gratuitement": 6116,
      "##thme": 6117,
      "craint": 6118,
      "tracasse": 6119,
      "pese": 6120,
      "averti": 6121,
      "candidature": 6122,
      "pleura": 6123,
      "jumeaux": 6124,
      "sincerement": 6125,
      "hypoth": 6126,
      "recommanda": 6127,
      "russe": 6128,
      "reprises": 6129,
      "sympathique": 6130,
      "legerement": 6131,
      "chirurg": 6132,
      "fabrique": 6133,
      "incorre": 6134,
      "mystere": 6135,
      "eteignez": 6136,
      "pyj": 6137,
      "camera": 6138,
      "galerie": 6139,
      "steak": 6140,
      "promettre": 6141,
      "nerfs": 6142,
      "pistolet": 6143,
      "compromis": 6144,
      "optimiste": 6145,
      "fes": 6146,
      "gla": 6147,
      "gym": 6148,
      "iv": 6149,
      "irait": 6150,
      "nier": 6151,
      "noye": 6152,
      "ori": 6153,
      "ry": 6154,
      "rat": 6155,
      "ray": 6156,
      "sm": 6157,
      "tal": 6158,
      "##olique": 6159,
      "##sses": 6160,
      "##uch": 6161,
      "##page": 6162,
      "deces": 6163,
      "unif": 6164,
      "avril": 6165,
      "chim": 6166,
      "chuch": 6167,
      "##aud": 6168,
      "##chi": 6169,
      "plastique": 6170,
      "deser": 6171,
      "asp": 6172,
      "prece": 6173,
      "digne": 6174,
      "deviennent": 6175,
      "deviendra": 6176,
      "votres": 6177,
      "##cure": 6178,
      "initi": 6179,
      "##lifie": 6180,
      "##sionnes": 6181,
      "##ndrai": 6182,
      "resister": 6183,
      "##ortes": 6184,
      "excep": 6185,
      "execu": 6186,
      "discre": 6187,
      "comptes": 6188,
      "attente": 6189,
      "##utation": 6190,
      "##inee": 6191,
      "impru": 6192,
      "faisant": 6193,
      "enfreint": 6194,
      "pressee": 6195,
      "essuy": 6196,
      "##antee": 6197,
      "partirai": 6198,
      "deposer": 6199,
      "retab": 6200,
      "appreciez": 6201,
      "joueurs": 6202,
      "position": 6203,
      "portee": 6204,
      "cheque": 6205,
      "chaleure": 6206,
      "souvient": 6207,
      "propriete": 6208,
      "##phere": 6209,
      "poker": 6210,
      "epoux": 6211,
      "insu": 6212,
      "##tueux": 6213,
      "boue": 6214,
      "brul": 6215,
      "regardant": 6216,
      "rendiez": 6217,
      "rase": 6218,
      "altern": 6219,
      "telephonerai": 6220,
      "revela": 6221,
      "importants": 6222,
      "familles": 6223,
      "voies": 6224,
      "corrige": 6225,
      "chemises": 6226,
      "cible": 6227,
      "prevenue": 6228,
      "cook": 6229,
      "clar": 6230,
      "tourn": 6231,
      "tournez": 6232,
      "incom": 6233,
      "##illons": 6234,
      "fermement": 6235,
      "lanca": 6236,
      "quitta": 6237,
      "changea": 6238,
      "recouv": 6239,
      "entendus": 6240,
      "modes": 6241,
      "prudence": 6242,
      "disposee": 6243,
      "attrap": 6244,
      "visiteurs": 6245,
      "volon": 6246,
      "equipage": 6247,
      "habitudes": 6248,
      "parliez": 6249,
      "ouvertes": 6250,
      "survenir": 6251,
      "viendrais": 6252,
      "clefs": 6253,
      "humanite": 6254,
      "atmos": 6255,
      "prenne": 6256,
      "prennes": 6257,
      "absur": 6258,
      "fierte": 6259,
      "chargee": 6260,
      "bud": 6261,
      "nia": 6262,
      "levee": 6263,
      "juin": 6264,
      "descendez": 6265,
      "interessees": 6266,
      "remarqu": 6267,
      "remarquer": 6268,
      "dangereuse": 6269,
      "avocats": 6270,
      "esperait": 6271,
      "oublia": 6272,
      "neuve": 6273,
      "malheur": 6274,
      "travaillais": 6275,
      "tentation": 6276,
      "timbre": 6277,
      "decevoir": 6278,
      "panique": 6279,
      "construire": 6280,
      "protection": 6281,
      "arretons": 6282,
      "espoirs": 6283,
      "œuf": 6284,
      "sinon": 6285,
      "frappee": 6286,
      "economise": 6287,
      "economiser": 6288,
      "levez": 6289,
      "crayons": 6290,
      "patients": 6291,
      "attirer": 6292,
      "entrainement": 6293,
      "pronon": 6294,
      "prononce": 6295,
      "limites": 6296,
      "advenu": 6297,
      "couverture": 6298,
      "rumeurs": 6299,
      "exprime": 6300,
      "manquent": 6301,
      "manquez": 6302,
      "reserver": 6303,
      "ressembles": 6304,
      "volontaires": 6305,
      "rass": 6306,
      "adolescents": 6307,
      "dotee": 6308,
      "kilos": 6309,
      "couleurs": 6310,
      "procurer": 6311,
      "sembler": 6312,
      "profondeur": 6313,
      "renvoye": 6314,
      "local": 6315,
      "victimes": 6316,
      "recommander": 6317,
      "millionnaire": 6318,
      "fichier": 6319,
      "inev": 6320,
      "manifes": 6321,
      "apercu": 6322,
      "micro": 6323,
      "##ologue": 6324,
      "influence": 6325,
      "baleine": 6326,
      "interprete": 6327,
      "malchanceux": 6328,
      "moutons": 6329,
      "maigri": 6330,
      "hosp": 6331,
      "promettez": 6332,
      "agricul": 6333,
      "condamne": 6334,
      "espagnol": 6335,
      "librairie": 6336,
      "camarades": 6337,
      "orient": 6338,
      "rythme": 6339,
      "ane": 6340,
      "cd": 6341,
      "dau": 6342,
      "dus": 6343,
      "fide": 6344,
      "flan": 6345,
      "frig": 6346,
      "gosse": 6347,
      "lux": 6348,
      "menu": 6349,
      "nau": 6350,
      "oran": 6351,
      "oignons": 6352,
      "pure": 6353,
      "polie": 6354,
      "sien": 6355,
      "vet": 6356,
      "zer": 6357,
      "##od": 6358,
      "##ob": 6359,
      "##oter": 6360,
      "##ieuse": 6361,
      "##ieure": 6362,
      "##sais": 6363,
      "##ad": 6364,
      "##bone": 6365,
      "##ck": 6366,
      "##xy": 6367,
      "##ouee": 6368,
      "jetez": 6369,
      "##oids": 6370,
      "##ann": 6371,
      "passons": 6372,
      "cede": 6373,
      "cell": 6374,
      "legal": 6375,
      "enc": 6376,
      "enle": 6377,
      "##tile": 6378,
      "##orbe": 6379,
      "##orites": 6380,
      "mex": 6381,
      "reception": 6382,
      "##llon": 6383,
      "plats": 6384,
      "plonge": 6385,
      "##iente": 6386,
      "caches": 6387,
      "prier": 6388,
      "##ind": 6389,
      "mas": 6390,
      "predi": 6391,
      "dever": 6392,
      "devra": 6393,
      "##ligne": 6394,
      "sages": 6395,
      "allai": 6396,
      "amusez": 6397,
      "##ration": 6398,
      "##rages": 6399,
      "saisir": 6400,
      "comporter": 6401,
      "acces": 6402,
      "trouverez": 6403,
      "mess": 6404,
      "fachee": 6405,
      "reputation": 6406,
      "entendez": 6407,
      "perf": 6408,
      "perdez": 6409,
      "perman": 6410,
      "arriverent": 6411,
      "enfi": 6412,
      "verrais": 6413,
      "puisque": 6414,
      "soulever": 6415,
      "deplacer": 6416,
      "achever": 6417,
      "finie": 6418,
      "abat": 6419,
      "constitu": 6420,
      "changent": 6421,
      "supplie": 6422,
      "visible": 6423,
      "demandait": 6424,
      "bouill": 6425,
      "habiter": 6426,
      "affame": 6427,
      "ministre": 6428,
      "rendons": 6429,
      "raff": 6430,
      "chambres": 6431,
      "entendues": 6432,
      "surpoids": 6433,
      "imbe": 6434,
      "saurais": 6435,
      "saura": 6436,
      "retourna": 6437,
      "faille": 6438,
      "detester": 6439,
      "internation": 6440,
      "incl": 6441,
      "essayerai": 6442,
      "capture": 6443,
      "capacite": 6444,
      "stat": 6445,
      "quittez": 6446,
      "roule": 6447,
      "moquer": 6448,
      "cauche": 6449,
      "utilises": 6450,
      "attrapa": 6451,
      "vitre": 6452,
      "presenta": 6453,
      "serieuses": 6454,
      "calmer": 6455,
      "embrassee": 6456,
      "embrassa": 6457,
      "suivante": 6458,
      "changera": 6459,
      "absorbe": 6460,
      "defu": 6461,
      "##bilier": 6462,
      "fallut": 6463,
      "droits": 6464,
      "degage": 6465,
      "weekend": 6466,
      "souffrir": 6467,
      "entrepris": 6468,
      "recherches": 6469,
      "ouverture": 6470,
      "occuperai": 6471,
      "idiots": 6472,
      "possed": 6473,
      "jeunesse": 6474,
      "mentez": 6475,
      "paierai": 6476,
      "naturelle": 6477,
      "reproduis": 6478,
      "trico": 6479,
      "circons": 6480,
      "normale": 6481,
      "meritez": 6482,
      "indiv": 6483,
      "curiosite": 6484,
      "loge": 6485,
      "gravement": 6486,
      "advienne": 6487,
      "raccour": 6488,
      "domes": 6489,
      "bourre": 6490,
      "gaspille": 6491,
      "avertir": 6492,
      "##ophone": 6493,
      "survivants": 6494,
      "opera": 6495,
      "brillante": 6496,
      "temoi": 6497,
      "meprise": 6498,
      "pilote": 6499,
      "sincere": 6500,
      "craindre": 6501,
      "blessures": 6502,
      "observe": 6503,
      "consideration": 6504,
      "##ographe": 6505,
      "manifest": 6506,
      "epee": 6507,
      "inspiration": 6508,
      "charmant": 6509,
      "surface": 6510,
      "rideau": 6511,
      "recolte": 6512,
      "existence": 6513,
      "elephants": 6514,
      "intimite": 6515,
      "pratiquer": 6516,
      "bœuf": 6517,
      "enigme": 6518,
      "lesquelles": 6519,
      "grammaire": 6520,
      "outils": 6521,
      "inconsci": 6522,
      "construction": 6523,
      "echelle": 6524,
      "recrute": 6525,
      "indisp": 6526,
      "recommencer": 6527,
      "manip": 6528,
      "hypothese": 6529,
      "atmosphere": 6530,
      "budget": 6531,
      "brit": 6532,
      "bieres": 6533,
      "cord": 6534,
      "coc": 6535,
      "gateaux": 6536,
      "hi": 6537,
      "hil": 6538,
      "irais": 6539,
      "maux": 6540,
      "piste": 6541,
      "porc": 6542,
      "tint": 6543,
      "tiendra": 6544,
      "usa": 6545,
      "zone": 6546,
      "##ola": 6547,
      "##ape": 6548,
      "##mac": 6549,
      "##lait": 6550,
      "##ailler": 6551,
      "##ende": 6552,
      "dela": 6553,
      "pag": 6554,
      "paci": 6555,
      "passent": 6556,
      "leg": 6557,
      "avent": 6558,
      "##titue": 6559,
      "##neau": 6560,
      "chute": 6561,
      "chomage": 6562,
      "pourra": 6563,
      "##mettre": 6564,
      "##chite": 6565,
      "plaire": 6566,
      "##quemment": 6567,
      "##celle": 6568,
      "dessi": 6569,
      "arrog": 6570,
      "archite": 6571,
      "##uille": 6572,
      "precieux": 6573,
      "##lateur": 6574,
      "devrez": 6575,
      "peuple": 6576,
      "incident": 6577,
      "##libre": 6578,
      "voulions": 6579,
      "exig": 6580,
      "personna": 6581,
      "##iteur": 6582,
      "##atrice": 6583,
      "##app": 6584,
      "gris": 6585,
      "gras": 6586,
      "voulut": 6587,
      "reporter": 6588,
      "impoli": 6589,
      "feront": 6590,
      "taqu": 6591,
      "presser": 6592,
      "verte": 6593,
      "puissant": 6594,
      "soula": 6595,
      "##orer": 6596,
      "financ": 6597,
      "appels": 6598,
      "mariees": 6599,
      "telechar": 6600,
      "abas": 6601,
      "soirs": 6602,
      "intentions": 6603,
      "merites": 6604,
      "##ocra": 6605,
      "refroi": 6606,
      "decisions": 6607,
      "epre": 6608,
      "voyages": 6609,
      "jeudi": 6610,
      "habits": 6611,
      "affir": 6612,
      "agi": 6613,
      "agace": 6614,
      "garant": 6615,
      "alph": 6616,
      "conseiller": 6617,
      "carac": 6618,
      "venons": 6619,
      "etranges": 6620,
      "##ications": 6621,
      "sauce": 6622,
      "dormait": 6623,
      "travailleurs": 6624,
      "ignorez": 6625,
      "maladies": 6626,
      "faill": 6627,
      "detestes": 6628,
      "mises": 6629,
      "ordonne": 6630,
      "parvenue": 6631,
      "parvenus": 6632,
      "record": 6633,
      "rouler": 6634,
      "motive": 6635,
      "reconnus": 6636,
      "reconnue": 6637,
      "prudemment": 6638,
      "officie": 6639,
      "sourd": 6640,
      "acceptable": 6641,
      "restons": 6642,
      "equilibre": 6643,
      "ayant": 6644,
      "calendrier": 6645,
      "##ruption": 6646,
      "qualif": 6647,
      "connaissiez": 6648,
      "atro": 6649,
      "fonds": 6650,
      "gagnera": 6651,
      "mentent": 6652,
      "superieur": 6653,
      "tempor": 6654,
      "nettoie": 6655,
      "princes": 6656,
      "second": 6657,
      "expliquerai": 6658,
      "avocate": 6659,
      "##idable": 6660,
      "salue": 6661,
      "oublions": 6662,
      "satisfaites": 6663,
      "batiments": 6664,
      "travaillait": 6665,
      "atteignit": 6666,
      "ceris": 6667,
      "ther": 6668,
      "##jection": 6669,
      "alibi": 6670,
      "elevee": 6671,
      "conduisez": 6672,
      "delicieuse": 6673,
      "pauvrete": 6674,
      "attentif": 6675,
      "normalement": 6676,
      "jalous": 6677,
      "dingues": 6678,
      "formidable": 6679,
      "morceaux": 6680,
      "tira": 6681,
      "poemes": 6682,
      "augmenter": 6683,
      "rompre": 6684,
      "domaine": 6685,
      "mecan": 6686,
      "concernant": 6687,
      "ancienne": 6688,
      "depourvue": 6689,
      "eveillee": 6690,
      "poursuivre": 6691,
      "magazines": 6692,
      "precipite": 6693,
      "mettons": 6694,
      "declen": 6695,
      "declara": 6696,
      "meurent": 6697,
      "principal": 6698,
      "compet": 6699,
      "competition": 6700,
      "naive": 6701,
      "pneus": 6702,
      "ranger": 6703,
      "proceder": 6704,
      "natation": 6705,
      "lapins": 6706,
      "citoy": 6707,
      "enterrement": 6708,
      "commercial": 6709,
      "aidiez": 6710,
      "bruyant": 6711,
      "emotions": 6712,
      "abeille": 6713,
      "inconnu": 6714,
      "laid": 6715,
      "##onfle": 6716,
      "remplissez": 6717,
      "decevant": 6718,
      "indifferent": 6719,
      "essentiel": 6720,
      "approprie": 6721,
      "diamant": 6722,
      "contraint": 6723,
      "proprietaire": 6724,
      "pyjama": 6725,
      "volontiers": 6726,
      "prononciation": 6727,
      "oranges": 6728,
      "exigences": 6729,
      "personnalite": 6730,
      "ben": 6731,
      "bande": 6732,
      "eurent": 6733,
      "frites": 6734,
      "irez": 6735,
      "jur": 6736,
      "mand": 6737,
      "nou": 6738,
      "nus": 6739,
      "rang": 6740,
      "sers": 6741,
      "ti": 6742,
      "tais": 6743,
      "us": 6744,
      "var": 6745,
      "vecut": 6746,
      "##roite": 6747,
      "##ette": 6748,
      "##mie": 6749,
      "##fiee": 6750,
      "##pin": 6751,
      "##don": 6752,
      "##can": 6753,
      "##cent": 6754,
      "##ceur": 6755,
      "##ly": 6756,
      "##land": 6757,
      "##50": 6758,
      "decon": 6759,
      "jeans": 6760,
      "leves": 6761,
      "ence": 6762,
      "tomates": 6763,
      "auront": 6764,
      "metier": 6765,
      "##auts": 6766,
      "##dette": 6767,
      "tristes": 6768,
      "partes": 6769,
      "plie": 6770,
      "cah": 6771,
      "pros": 6772,
      "priv": 6773,
      "desas": 6774,
      "desag": 6775,
      "##rigez": 6776,
      "arm": 6777,
      "dut": 6778,
      "danseur": 6779,
      "##las": 6780,
      "prob": 6781,
      "prover": 6782,
      "##sibles": 6783,
      "pensees": 6784,
      "salu": 6785,
      "reside": 6786,
      "allant": 6787,
      "allum": 6788,
      "serrer": 6789,
      "disant": 6790,
      "saisis": 6791,
      "ange": 6792,
      "appuie": 6793,
      "##ierent": 6794,
      "attribue": 6795,
      "##aliste": 6796,
      "##atoire": 6797,
      "crue": 6798,
      "valable": 6799,
      "grav": 6800,
      "repri": 6801,
      "ecras": 6802,
      "region": 6803,
      "justif": 6804,
      "commett": 6805,
      "enfuit": 6806,
      "trainer": 6807,
      "##ago": 6808,
      "verriez": 6809,
      "partiez": 6810,
      "soutiens": 6811,
      "felic": 6812,
      "depose": 6813,
      "courts": 6814,
      "rense": 6815,
      "aiderait": 6816,
      "essayes": 6817,
      "eumes": 6818,
      "finan": 6819,
      "finissons": 6820,
      "aidee": 6821,
      "laissees": 6822,
      "simples": 6823,
      "revenez": 6824,
      "revenus": 6825,
      "intri": 6826,
      "merde": 6827,
      "attendant": 6828,
      "endomm": 6829,
      "phares": 6830,
      "genou": 6831,
      "##tude": 6832,
      "mangee": 6833,
      "promo": 6834,
      "brave": 6835,
      "bruler": 6836,
      "frus": 6837,
      "regardent": 6838,
      "regardons": 6839,
      "frequemment": 6840,
      "utiles": 6841,
      "retournez": 6842,
      "malad": 6843,
      "commencerent": 6844,
      "chevre": 6845,
      "embar": 6846,
      "prirent": 6847,
      "prevoit": 6848,
      "interro": 6849,
      "remue": 6850,
      "nucle": 6851,
      "capte": 6852,
      "demanderai": 6853,
      "vivants": 6854,
      "eva": 6855,
      "evoque": 6856,
      "dessiner": 6857,
      "recente": 6858,
      "recomp": 6859,
      "bebes": 6860,
      "reconnaitre": 6861,
      "comptez": 6862,
      "pige": 6863,
      "presentes": 6864,
      "offrit": 6865,
      "restait": 6866,
      "volume": 6867,
      "impressionner": 6868,
      "impressionnant": 6869,
      "ouverts": 6870,
      "necessite": 6871,
      "reflexion": 6872,
      "stupe": 6873,
      "version": 6874,
      "option": 6875,
      "symb": 6876,
      "typhon": 6877,
      "fondu": 6878,
      "volee": 6879,
      "defauts": 6880,
      "##cteurs": 6881,
      "fourni": 6882,
      "raconta": 6883,
      "prince": 6884,
      "degote": 6885,
      "conscien": 6886,
      "empecha": 6887,
      "remarques": 6888,
      "valait": 6889,
      "souhaitons": 6890,
      "distribu": 6891,
      "publique": 6892,
      "experiences": 6893,
      "opinions": 6894,
      "gache": 6895,
      "gacher": 6896,
      "largue": 6897,
      "intelligents": 6898,
      "cerf": 6899,
      "construis": 6900,
      "vends": 6901,
      "ecrivit": 6902,
      "allumee": 6903,
      "alice": 6904,
      "oreiller": 6905,
      "trib": 6906,
      "organisee": 6907,
      "debarrasse": 6908,
      "fortement": 6909,
      "admin": 6910,
      "##ribuer": 6911,
      "sauvee": 6912,
      "concentre": 6913,
      "##rontes": 6914,
      "ramener": 6915,
      "impliquee": 6916,
      "rejoint": 6917,
      "pierres": 6918,
      "ambassa": 6919,
      "##coln": 6920,
      "scand": 6921,
      "surprend": 6922,
      "embarrassant": 6923,
      "detruis": 6924,
      "cultive": 6925,
      "horriblement": 6926,
      "bienvenus": 6927,
      "decedee": 6928,
      "chauffage": 6929,
      "suicider": 6930,
      "principale": 6931,
      "shir": 6932,
      "ressentir": 6933,
      "cigarettes": 6934,
      "apprendrai": 6935,
      "hypn": 6936,
      "lincoln": 6937,
      "commander": 6938,
      "##ographie": 6939,
      "introduit": 6940,
      "elegant": 6941,
      "sangl": 6942,
      "micr": 6943,
      "genereux": 6944,
      "conclusion": 6945,
      "religion": 6946,
      "titre": 6947,
      "scolaire": 6948,
      "##ambur": 6949,
      "rencontriez": 6950,
      "conserver": 6951,
      "talentueux": 6952,
      "plombier": 6953,
      "etern": 6954,
      "compliment": 6955,
      "abattu": 6956,
      "ouvriers": 6957,
      "arnaque": 6958,
      "inattendu": 6959,
      "pollution": 6960,
      "disputent": 6961,
      "joyeux": 6962,
      "mouvement": 6963,
      "perplexe": 6964,
      "esclav": 6965,
      "pharmac": 6966,
      "orteils": 6967,
      "orthographe": 6968,
      "dauph": 6969,
      "frigo": 6970,
      "luxe": 6971,
      "zero": 6972,
      "circonst": 6973,
      "britann": 6974,
      "cordes": 6975,
      "pagaille": 6976,
      "atroce": 6977,
      "princesse": 6978,
      "pharmacie": 6979,
      "500": 6980,
      "ach": 6981,
      "bres": 6982,
      "barre": 6983,
      "bottes": 6984,
      "cue": 6985,
      "centi": 6986,
      "dresse": 6987,
      "er": 6988,
      "fui": 6989,
      "fiez": 6990,
      "flu": 6991,
      "fieres": 6992,
      "gobe": 6993,
      "hambur": 6994,
      "lie": 6995,
      "lion": 6996,
      "oly": 6997,
      "pic": 6998,
      "rag": 6999,
      "ruine": 7000,
      "scie": 7001,
      "tiers": 7002,
      "tiennent": 7003,
      "van": 7004,
      "viendrez": 7005,
      "##iff": 7006,
      "##itif": 7007,
      "##itive": 7008,
      "##tenue": 7009,
      "##aque": 7010,
      "##mbl": 7011,
      "##ctionne": 7012,
      "##ctif": 7013,
      "##lant": 7014,
      "##los": 7015,
      "##vier": 7016,
      "##wa": 7017,
      "##ky": 7018,
      "##oua": 7019,
      "##ouff": 7020,
      "##enable": 7021,
      "##ondre": 7022,
      "decore": 7023,
      "jet": 7024,
      "##omie": 7025,
      "cependant": 7026,
      "latin": 7027,
      "tuy": 7028,
      "tombes": 7029,
      "##quit": 7030,
      "##ori": 7031,
      "chers": 7032,
      "audit": 7033,
      "mele": 7034,
      "pourras": 7035,
      "reine": 7036,
      "##usion": 7037,
      "cad": 7038,
      "suisse": 7039,
      "seize": 7040,
      "##inmes": 7041,
      "pensions": 7042,
      "contes": 7043,
      "asie": 7044,
      "arche": 7045,
      "artif": 7046,
      "##osses": 7047,
      "dura": 7048,
      "prepa": 7049,
      "devis": 7050,
      "surmon": 7051,
      "##ash": 7052,
      "##assion": 7053,
      "marron": 7054,
      "extir": 7055,
      "seraient": 7056,
      "mang": 7057,
      "anxi": 7058,
      "anciens": 7059,
      "##dirent": 7060,
      "compar": 7061,
      "comptable": 7062,
      "compassion": 7063,
      "acce": 7064,
      "##ensable": 7065,
      "gron": 7066,
      "fabri": 7067,
      "justement": 7068,
      "fauche": 7069,
      "vides": 7070,
      "derou": 7071,
      "partent": 7072,
      "souciez": 7073,
      "renom": 7074,
      "aiderais": 7075,
      "##act": 7076,
      "##acites": 7077,
      "jouet": 7078,
      "essayait": 7079,
      "finis": 7080,
      "revue": 7081,
      "revint": 7082,
      "consomme": 7083,
      "merit": 7084,
      "endur": 7085,
      "refer": 7086,
      "decus": 7087,
      "couler": 7088,
      "coudre": 7089,
      "ignores": 7090,
      "fianc": 7091,
      "affreuse": 7092,
      "bron": 7093,
      "coupa": 7094,
      "croissance": 7095,
      "effronte": 7096,
      "reveler": 7097,
      "reveil": 7098,
      "durs": 7099,
      "commencais": 7100,
      "ouvrages": 7101,
      "sentent": 7102,
      "etudions": 7103,
      "emboute": 7104,
      "parfum": 7105,
      "clo": 7106,
      "arriverai": 7107,
      "tourna": 7108,
      "##tache": 7109,
      "capacites": 7110,
      "dangers": 7111,
      "portail": 7112,
      "ordonna": 7113,
      "annoncer": 7114,
      "entendimes": 7115,
      "pile": 7116,
      "egare": 7117,
      "cria": 7118,
      "choisit": 7119,
      "suivie": 7120,
      "suivrai": 7121,
      "japonaises": 7122,
      "disposition": 7123,
      "defaut": 7124,
      "horri": 7125,
      "interessantes": 7126,
      "sacri": 7127,
      "fourmis": 7128,
      "epousa": 7129,
      "racontez": 7130,
      "judi": 7131,
      "ignorance": 7132,
      "degats": 7133,
      "sugger": 7134,
      "decouvri": 7135,
      "blancs": 7136,
      "fauteuil": 7137,
      "pianiste": 7138,
      "arrivames": 7139,
      "gratte": 7140,
      "depeches": 7141,
      "rechercher": 7142,
      "ennuye": 7143,
      "distribue": 7144,
      "facebo": 7145,
      "effrayes": 7146,
      "effrayant": 7147,
      "romantique": 7148,
      "faciles": 7149,
      "debutant": 7150,
      "huitres": 7151,
      "arretiez": 7152,
      "censees": 7153,
      "considerer": 7154,
      "perdus": 7155,
      "bouteilles": 7156,
      "triche": 7157,
      "college": 7158,
      "collectionner": 7159,
      "solide": 7160,
      "greve": 7161,
      "possibles": 7162,
      "canadiens": 7163,
      "lyce": 7164,
      "attirant": 7165,
      "paraitre": 7166,
      "coutent": 7167,
      "marchant": 7168,
      "escalade": 7169,
      "dommages": 7170,
      "geniale": 7171,
      "relations": 7172,
      "plaisanteries": 7173,
      "rug": 7174,
      "avera": 7175,
      "sachant": 7176,
      "serviettes": 7177,
      "drapeau": 7178,
      "hurle": 7179,
      "frequente": 7180,
      "pardonnerai": 7181,
      "mechante": 7182,
      "disponibles": 7183,
      "donnent": 7184,
      "sauves": 7185,
      "crainte": 7186,
      "contemp": 7187,
      "eclairci": 7188,
      "negligent": 7189,
      "poursuivi": 7190,
      "torche": 7191,
      "objets": 7192,
      "chicago": 7193,
      "moustiques": 7194,
      "rembourserai": 7195,
      "benev": 7196,
      "baignoire": 7197,
      "libere": 7198,
      "photographie": 7199,
      "plaignent": 7200,
      "vertige": 7201,
      "fermier": 7202,
      "confirmer": 7203,
      "insectes": 7204,
      "decourage": 7205,
      "munitions": 7206,
      "enthousiasme": 7207,
      "gamin": 7208,
      "litterature": 7209,
      "cooperation": 7210,
      "semblables": 7211,
      "melange": 7212,
      "consommer": 7213,
      "consequences": 7214,
      "bordel": 7215,
      "randonnee": 7216,
      "cooperer": 7217,
      "postale": 7218,
      "manifestement": 7219,
      "enceinte": 7220,
      "scandale": 7221,
      "bresil": 7222,
      "olymp": 7223,
      "surmonter": 7224,
      "fiancailles": 7225,
      "facebook": 7226,
      "200": 7227,
      "300": 7228,
      "aci": 7229,
      "bet": 7230,
      "bagn": 7231,
      "blu": 7232,
      "cy": 7233,
      "elo": 7234,
      "ecure": 7235,
      "feux": 7236,
      "gosses": 7237,
      "lien": 7238,
      "miles": 7239,
      "ok": 7240,
      "pue": 7241,
      "vom": 7242,
      "vrais": 7243,
      "yen": 7244,
      "##iche": 7245,
      "##idite": 7246,
      "##taient": 7247,
      "##tames": 7248,
      "##ster": 7249,
      "##say": 7250,
      "##saient": 7251,
      "##bons": 7252,
      "##hle": 7253,
      "##lons": 7254,
      "##xis": 7255,
      "##ouiller": 7256,
      "##essay": 7257,
      "quat": 7258,
      "jean": 7259,
      "pal": 7260,
      "##anche": 7261,
      "quere": 7262,
      "##issait": 7263,
      "ailes": 7264,
      "enlever": 7265,
      "##quant": 7266,
      "##tic": 7267,
      "##ormes": 7268,
      "chantes": 7269,
      "##itations": 7270,
      "##arres": 7271,
      "##arant": 7272,
      "##ariste": 7273,
      "repere": 7274,
      "reessay": 7275,
      "para": 7276,
      "##llent": 7277,
      "##cieusement": 7278,
      "##cidente": 7279,
      "pluv": 7280,
      "cat": 7281,
      "cacha": 7282,
      "##mponne": 7283,
      "##ouvant": 7284,
      "semestre": 7285,
      "##rimin": 7286,
      "astron": 7287,
      "araigne": 7288,
      "##osoph": 7289,
      "##uies": 7290,
      "precieuse": 7291,
      "devrons": 7292,
      "devenait": 7293,
      "##licite": 7294,
      "pensee": 7295,
      "democra": 7296,
      "allames": 7297,
      "peinte": 7298,
      "serra": 7299,
      "servent": 7300,
      "disque": 7301,
      "##diction": 7302,
      "##opp": 7303,
      "##ilosoph": 7304,
      "attent": 7305,
      "biens": 7306,
      "acte": 7307,
      "##appe": 7308,
      "crut": 7309,
      "trouvaient": 7310,
      "laissent": 7311,
      "impre": 7312,
      "jusque": 7313,
      "commets": 7314,
      "taxis": 7315,
      "vimes": 7316,
      "virent": 7317,
      "veritables": 7318,
      "noter": 7319,
      "renard": 7320,
      "entretien": 7321,
      "jouions": 7322,
      "postu": 7323,
      "##ationne": 7324,
      "contag": 7325,
      "empirer": 7326,
      "enva": 7327,
      "habile": 7328,
      "##rases": 7329,
      "punis": 7330,
      "ecoles": 7331,
      "reviennes": 7332,
      "assas": 7333,
      "terres": 7334,
      "terrain": 7335,
      "ideal": 7336,
      "##ordinaire": 7337,
      "mercre": 7338,
      "restees": 7339,
      "suppli": 7340,
      "moments": 7341,
      "attendiez": 7342,
      "attendra": 7343,
      "philosoph": 7344,
      "phrases": 7345,
      "decri": 7346,
      "confus": 7347,
      "expul": 7348,
      "exposition": 7349,
      "epin": 7350,
      "sensation": 7351,
      "voyiez": 7352,
      "restera": 7353,
      "insist": 7354,
      "chauve": 7355,
      "dernierement": 7356,
      "habitent": 7357,
      "trouverons": 7358,
      "arretees": 7359,
      "coupez": 7360,
      "carriere": 7361,
      "telephonique": 7362,
      "reveilles": 7363,
      "gross": 7364,
      "rappeller": 7365,
      "passerai": 7366,
      "priorites": 7367,
      "detestait": 7368,
      "##onca": 7369,
      "garee": 7370,
      "vivaient": 7371,
      "prendrais": 7372,
      "trembler": 7373,
      "vein": 7374,
      "dessin": 7375,
      "maria": 7376,
      "serveur": 7377,
      "cinquie": 7378,
      "offensee": 7379,
      "accepta": 7380,
      "criti": 7381,
      "crimes": 7382,
      "inquiets": 7383,
      "inquietez": 7384,
      "impressionnes": 7385,
      "parlaient": 7386,
      "respiration": 7387,
      "obligez": 7388,
      "immedi": 7389,
      "creuse": 7390,
      "casquette": 7391,
      "chaussure": 7392,
      "athle": 7393,
      "fleche": 7394,
      "flexi": 7395,
      "satisfais": 7396,
      "defense": 7397,
      "bulle": 7398,
      "dollar": 7399,
      "nettoya": 7400,
      "coincee": 7401,
      "degres": 7402,
      "degoute": 7403,
      "indice": 7404,
      "remplace": 7405,
      "remarqua": 7406,
      "souhaites": 7407,
      "arrivons": 7408,
      "recherchent": 7409,
      "ennuyeuse": 7410,
      "distances": 7411,
      "stylos": 7412,
      "imaginee": 7413,
      "suspend": 7414,
      "sentiras": 7415,
      "reussira": 7416,
      "ressemblez": 7417,
      "grippe": 7418,
      "dossier": 7419,
      "comprendrais": 7420,
      "apprecions": 7421,
      "recev": 7422,
      "etatsun": 7423,
      "precis": 7424,
      "singe": 7425,
      "reproduire": 7426,
      "viree": 7427,
      "economique": 7428,
      "organisation": 7429,
      "glacee": 7430,
      "trompette": 7431,
      "navig": 7432,
      "##ometre": 7433,
      "cherchent": 7434,
      "exercer": 7435,
      "compagnon": 7436,
      "ramasse": 7437,
      "marchait": 7438,
      "##mbla": 7439,
      "cuir": 7440,
      "excur": 7441,
      "exempl": 7442,
      "subir": 7443,
      "automatique": 7444,
      "automobile": 7445,
      "compreniez": 7446,
      "compliquee": 7447,
      "cousine": 7448,
      "conduirai": 7449,
      "taper": 7450,
      "instrument": 7451,
      "majeure": 7452,
      "majorite": 7453,
      "exigea": 7454,
      "jugement": 7455,
      "competent": 7456,
      "irresp": 7457,
      "cramponne": 7458,
      "particuliere": 7459,
      "annulee": 7460,
      "jaunes": 7461,
      "ponctuelle": 7462,
      "ressemblait": 7463,
      "redire": 7464,
      "redige": 7465,
      "maitriser": 7466,
      "embete": 7467,
      "observ": 7468,
      "raccomp": 7469,
      "inex": 7470,
      "decolle": 7471,
      "commerciale": 7472,
      "desoriente": 7473,
      "amende": 7474,
      "accusa": 7475,
      "abeilles": 7476,
      "investis": 7477,
      "espece": 7478,
      "activite": 7479,
      "confondu": 7480,
      "doucement": 7481,
      "menageres": 7482,
      "cambrioleur": 7483,
      "grotte": 7484,
      "labeur": 7485,
      "extraordinaire": 7486,
      "impuissant": 7487,
      "brosser": 7488,
      "parking": 7489,
      "degoutant": 7490,
      "entoure": 7491,
      "faineant": 7492,
      "otages": 7493,
      "victoire": 7494,
      "sceptique": 7495,
      "siffler": 7496,
      "chirurgien": 7497,
      "talents": 7498,
      "uniforme": 7499,
      "absurde": 7500,
      "messages": 7501,
      "imbecile": 7502,
      "statue": 7503,
      "cauchemar": 7504,
      "entreprises": 7505,
      "architecte": 7506,
      "desastre": 7507,
      "intrigue": 7508,
      "shirt": 7509,
      "hypnot": 7510,
      "olympiques": 7511,
      "araignees": 7512,
      "mercredi": 7513,
      "cinquieme": 7514,
      "irrespons": 7515,
      "cramponnerent": 7516,
      "17": 7517,
      "adieux": 7518,
      "briser": 7519,
      "bandes": 7520,
      "cend": 7521,
      "cite": 7522,
      "core": 7523,
      "cic": 7524,
      "couver": 7525,
      "erige": 7526,
      "fal": 7527,
      "foyer": 7528,
      "ho": 7529,
      "loy": 7530,
      "mil": 7531,
      "meurs": 7532,
      "ote": 7533,
      "rai": 7534,
      "ruse": 7535,
      "saine": 7536,
      "sta": 7537,
      "to": 7538,
      "tis": 7539,
      "tiendrai": 7540,
      "ul": 7541,
      "vap": 7542,
      "##icier": 7543,
      "##tout": 7544,
      "##nante": 7545,
      "##sus": 7546,
      "##main": 7547,
      "##mande": 7548,
      "##matique": 7549,
      "##fait": 7550,
      "##by": 7551,
      "##vez": 7552,
      "##tembre": 7553,
      "illus": 7554,
      "##istique": 7555,
      "enr": 7556,
      "tua": 7557,
      "sueur": 7558,
      "subi": 7559,
      "##time": 7560,
      "chaine": 7561,
      "meler": 7562,
      "##arpe": 7563,
      "traine": 7564,
      "pari": 7565,
      "pluies": 7566,
      "toux": 7567,
      "toubi": 7568,
      "desobe": 7569,
      "destinee": 7570,
      "##ingue": 7571,
      "monta": 7572,
      "##aver": 7573,
      "maligne": 7574,
      "pretre": 7575,
      "##onnette": 7576,
      "production": 7577,
      "devrai": 7578,
      "devions": 7579,
      "vola": 7580,
      "##tteur": 7581,
      "surtout": 7582,
      "##ura": 7583,
      "##raine": 7584,
      "marchez": 7585,
      "eteignit": 7586,
      "peigne": 7587,
      "serie": 7588,
      "manuels": 7589,
      "##cop": 7590,
      "analy": 7591,
      "approuv": 7592,
      "comprise": 7593,
      "compatis": 7594,
      "savon": 7595,
      "savions": 7596,
      "accidente": 7597,
      "##oyait": 7598,
      "pensa": 7599,
      "repu": 7600,
      "regul": 7601,
      "ferie": 7602,
      "perde": 7603,
      "perdant": 7604,
      "enfer": 7605,
      "trains": 7606,
      "presses": 7607,
      "bonbons": 7608,
      "particip": 7609,
      "additionne": 7610,
      "##belles": 7611,
      "entrees": 7612,
      "malins": 7613,
      "nombres": 7614,
      "##erer": 7615,
      "envoyee": 7616,
      "champs": 7617,
      "trouverent": 7618,
      "revenue": 7619,
      "terr": 7620,
      "rencontra": 7621,
      "constitue": 7622,
      "meritent": 7623,
      "bij": 7624,
      "suppos": 7625,
      "attendue": 7626,
      "attendaient": 7627,
      "chienne": 7628,
      "partirons": 7629,
      "decroche": 7630,
      "decouverte": 7631,
      "poivre": 7632,
      "confes": 7633,
      "confronte": 7634,
      "expire": 7635,
      "epouvant": 7636,
      "insense": 7637,
      "bouchon": 7638,
      "sorties": 7639,
      "habitait": 7640,
      "affreux": 7641,
      "##duira": 7642,
      "##troph": 7643,
      "regardiez": 7644,
      "rendes": 7645,
      "rendus": 7646,
      "trouvera": 7647,
      "raquette": 7648,
      "rirent": 7649,
      "poliment": 7650,
      "debrou": 7651,
      "effets": 7652,
      "effondre": 7653,
      "##iendront": 7654,
      "echanti": 7655,
      "echarpe": 7656,
      "commencement": 7657,
      "detestais": 7658,
      "cool": 7659,
      "cuisines": 7660,
      "stock": 7661,
      "vivais": 7662,
      "prendrait": 7663,
      "recons": 7664,
      "moques": 7665,
      "solitaire": 7666,
      "plaisantes": 7667,
      "officier": 7668,
      "sourn": 7669,
      "sourci": 7670,
      "tombees": 7671,
      "complete": 7672,
      "claque": 7673,
      "detaille": 7674,
      "decidee": 7675,
      "appartiens": 7676,
      "calcule": 7677,
      "embrasses": 7678,
      "survenait": 7679,
      "signes": 7680,
      "connaissances": 7681,
      "humaine": 7682,
      "guerir": 7683,
      "chantez": 7684,
      "lundis": 7685,
      "amoureuses": 7686,
      "remett": 7687,
      "disposait": 7688,
      "mentalement": 7689,
      "reconnaissez": 7690,
      "situations": 7691,
      "niche": 7692,
      "falloir": 7693,
      "restaurants": 7694,
      "endormit": 7695,
      "mordre": 7696,
      "selfie": 7697,
      "blame": 7698,
      "poussa": 7699,
      "remplacer": 7700,
      "souffert": 7701,
      "fusil": 7702,
      "blanches": 7703,
      "permets": 7704,
      "generale": 7705,
      "esperant": 7706,
      "bizarres": 7707,
      "occasions": 7708,
      "sucreries": 7709,
      "separes": 7710,
      "septembre": 7711,
      "effrayer": 7712,
      "guitariste": 7713,
      "divers": 7714,
      "herbes": 7715,
      "vendent": 7716,
      "speciale": 7717,
      "specialite": 7718,
      "envoyees": 7719,
      "coupee": 7720,
      "demission": 7721,
      "contraries": 7722,
      "disparut": 7723,
      "disparaitre": 7724,
      "couvre": 7725,
      "ventre": 7726,
      "violent": 7727,
      "attire": 7728,
      "articles": 7729,
      "ajus": 7730,
      "effectivement": 7731,
      "coutume": 7732,
      "soupc": 7733,
      "rejoindrai": 7734,
      "accuserent": 7735,
      "escalier": 7736,
      "197": 7737,
      "ecouta": 7738,
      "imaginais": 7739,
      "interromps": 7740,
      "interrompu": 7741,
      "bonhomme": 7742,
      "assiettes": 7743,
      "relativement": 7744,
      "comprennes": 7745,
      "gentiment": 7746,
      "chiff": 7747,
      "richesse": 7748,
      "accusee": 7749,
      "fisc": 7750,
      "adolescente": 7751,
      "majeur": 7752,
      "principalement": 7753,
      "contrariees": 7754,
      "enormement": 7755,
      "materi": 7756,
      "materiel": 7757,
      "trahie": 7758,
      "separer": 7759,
      "separees": 7760,
      "paresseuse": 7761,
      "neigera": 7762,
      "rattrape": 7763,
      "accorderent": 7764,
      "parvenues": 7765,
      "œuvres": 7766,
      "negocier": 7767,
      "maitresse": 7768,
      "terrifie": 7769,
      "fichiers": 7770,
      "decoller": 7771,
      "fixa": 7772,
      "reconf": 7773,
      "regretteras": 7774,
      "installer": 7775,
      "ampoule": 7776,
      "rassemble": 7777,
      "alimentation": 7778,
      "ingenieur": 7779,
      "vertiges": 7780,
      "strict": 7781,
      "robinet": 7782,
      "impliques": 7783,
      "adresser": 7784,
      "produira": 7785,
      "imprim": 7786,
      "goutte": 7787,
      "detective": 7788,
      "adapter": 7789,
      "retournons": 7790,
      "interesserait": 7791,
      "suggerer": 7792,
      "meurtrier": 7793,
      "onereux": 7794,
      "ralentir": 7795,
      "diminue": 7796,
      "etonnant": 7797,
      "justesse": 7798,
      "bavard": 7799,
      "notres": 7800,
      "balay": 7801,
      "populaires": 7802,
      "essuya": 7803,
      "alternative": 7804,
      "modeste": 7805,
      "inevitable": 7806,
      "deverrouille": 7807,
      "defunt": 7808,
      "possedait": 7809,
      "abasourdi": 7810,
      "garantie": 7811,
      "faillite": 7812,
      "mandat": 7813,
      "proverbe": 7814,
      "administ": 7815,
      "ambassade": 7816,
      "circonstances": 7817,
      "bagnole": 7818,
      "assassine": 7819,
      "rappellerai": 7820,
      "irresponsable": 7821,
      "stade": 7822,
      "toubib": 7823,
      "regulierement": 7824,
      "25": 7825,
      "ant": 7826,
      "bab": 7827,
      "bris": 7828,
      "cur": 7829,
      "dentif": 7830,
      "eli": 7831,
      "eue": 7832,
      "event": 7833,
      "gl": 7834,
      "gate": 7835,
      "guise": 7836,
      "hantee": 7837,
      "jan": 7838,
      "jong": 7839,
      "lut": 7840,
      "mine": 7841,
      "nœu": 7842,
      "ov": 7843,
      "orage": 7844,
      "oxy": 7845,
      "poit": 7846,
      "puit": 7847,
      "pick": 7848,
      "roy": 7849,
      "sar": 7850,
      "trent": 7851,
      "##odes": 7852,
      "##iz": 7853,
      "##tro": 7854,
      "##tenez": 7855,
      "##mm": 7856,
      "##pte": 7857,
      "##gres": 7858,
      "##gene": 7859,
      "##lers": 7860,
      "##wai": 7861,
      "##ony": 7862,
      "degu": 7863,
      "detient": 7864,
      "jetons": 7865,
      "##oine": 7866,
      "##omique": 7867,
      "passionnant": 7868,
      "##eures": 7869,
      "##ourdie": 7870,
      "encais": 7871,
      "##seau": 7872,
      "##ielle": 7873,
      "##ties": 7874,
      "##tirent": 7875,
      "chas": 7876,
      "pourb": 7877,
      "pourpar": 7878,
      "##iture": 7879,
      "##arg": 7880,
      "##demain": 7881,
      "trous": 7882,
      "truite": 7883,
      "tetu": 7884,
      "##cions": 7885,
      "plier": 7886,
      "cath": 7887,
      "prouve": 7888,
      "touch": 7889,
      "##quee": 7890,
      "seisme": 7891,
      "##celet": 7892,
      "desoles": 7893,
      "deshab": 7894,
      "##inrent": 7895,
      "montes": 7896,
      "##avre": 7897,
      "##rices": 7898,
      "massi": 7899,
      "##peaux": 7900,
      "##uils": 7901,
      "##endi": 7902,
      "ouie": 7903,
      "outre": 7904,
      "vols": 7905,
      "marches": 7906,
      "marient": 7907,
      "marcha": 7908,
      "##sivement": 7909,
      "##ttent": 7910,
      "resist": 7911,
      "tresor": 7912,
      "pete": 7913,
      "disons": 7914,
      "##dio": 7915,
      "composite": 7916,
      "personn": 7917,
      "commentaires": 7918,
      "##alise": 7919,
      "actes": 7920,
      "actif": 7921,
      "##oyables": 7922,
      "cruelle": 7923,
      "gronde": 7924,
      "groupes": 7925,
      "repous": 7926,
      "impit": 7927,
      "parlerons": 7928,
      "enferme": 7929,
      "preser": 7930,
      "##abet": 7931,
      "verrons": 7932,
      "combatt": 7933,
      "soul": 7934,
      "soutenir": 7935,
      "##usement": 7936,
      "depouille": 7937,
      "renouve": 7938,
      "##olue": 7939,
      "contribue": 7940,
      "contribuer": 7941,
      "envole": 7942,
      "grandir": 7943,
      "souviendrai": 7944,
      "accuser": 7945,
      "revolu": 7946,
      "rencontr": 7947,
      "consiste": 7948,
      "emu": 7949,
      "##entionne": 7950,
      "vision": 7951,
      "attendions": 7952,
      "obtiens": 7953,
      "refu": 7954,
      "totale": 7955,
      "totalite": 7956,
      "confrontes": 7957,
      "insin": 7958,
      "instin": 7959,
      "chauds": 7960,
      "demandons": 7961,
      "bougez": 7962,
      "bougie": 7963,
      "rencontrez": 7964,
      "bru": 7965,
      "agite": 7966,
      "minim": 7967,
      "raci": 7968,
      "achetez": 7969,
      "garanti": 7970,
      "carre": 7971,
      "acheterai": 7972,
      "vendez": 7973,
      "douceur": 7974,
      "ecrive": 7975,
      "tarder": 7976,
      "saumon": 7977,
      "rentra": 7978,
      "travaillerai": 7979,
      "rappele": 7980,
      "ouvris": 7981,
      "corne": 7982,
      "sentirez": 7983,
      "emba": 7984,
      "elections": 7985,
      "convenable": 7986,
      "prevenus": 7987,
      "grandement": 7988,
      "coqu": 7989,
      "clin": 7990,
      "arriverons": 7991,
      "proposer": 7992,
      "##guin": 7993,
      "##gueur": 7994,
      "##illai": 7995,
      "laissera": 7996,
      "stres": 7997,
      "vivante": 7998,
      "trembl": 7999,
      "veine": 8000,
      "canon": 8001,
      "canne": 8002,
      "excites": 8003,
      "utilisant": 8004,
      "plaisant": 8005,
      "paysage": 8006,
      "images": 8007,
      "recut": 8008,
      "recue": 8009,
      "couteux": 8010,
      "complexe": 8011,
      "critiques": 8012,
      "gardons": 8013,
      "inquietes": 8014,
      "apparition": 8015,
      "moururent": 8016,
      "tradition": 8017,
      "pretez": 8018,
      "viendriez": 8019,
      "aimiez": 8020,
      "suivit": 8021,
      "qualifie": 8022,
      "humil": 8023,
      "changerai": 8024,
      "convaincus": 8025,
      "amusante": 8026,
      "reparee": 8027,
      "differemment": 8028,
      "differences": 8029,
      "copies": 8030,
      "absents": 8031,
      "defait": 8032,
      "lisait": 8033,
      "charbon": 8034,
      "intelligence": 8035,
      "fourrure": 8036,
      "racontes": 8037,
      "ignora": 8038,
      "ignorait": 8039,
      "deguise": 8040,
      "finira": 8041,
      "dimanches": 8042,
      "remporter": 8043,
      "accompagn": 8044,
      "##idente": 8045,
      "saluer": 8046,
      "metal": 8047,
      "honnetement": 8048,
      "impatients": 8049,
      "serviable": 8050,
      "approchez": 8051,
      "atteign": 8052,
      "tranche": 8053,
      "tuees": 8054,
      "decedes": 8055,
      "autorisees": 8056,
      "hauts": 8057,
      "parfaits": 8058,
      "celebres": 8059,
      "comprendriez": 8060,
      "lavee": 8061,
      "traites": 8062,
      "precises": 8063,
      "duree": 8064,
      "reproduira": 8065,
      "conduise": 8066,
      "perdons": 8067,
      "tricher": 8068,
      "organis": 8069,
      "lendemain": 8070,
      "cherchiez": 8071,
      "continuons": 8072,
      "champion": 8073,
      "champagne": 8074,
      "contracte": 8075,
      "brille": 8076,
      "refusait": 8077,
      "ecoutons": 8078,
      "advenir": 8079,
      "epuisee": 8080,
      "tardi": 8081,
      "salee": 8082,
      "bourg": 8083,
      "bourse": 8084,
      "suspecte": 8085,
      "##anement": 8086,
      "chiot": 8087,
      "appuye": 8088,
      "appuya": 8089,
      "hawai": 8090,
      "combattre": 8091,
      "candidats": 8092,
      "harce": 8093,
      "declarez": 8094,
      "pouls": 8095,
      "potable": 8096,
      "tremblements": 8097,
      "baguettes": 8098,
      "jumeau": 8099,
      "comparee": 8100,
      "fonctionnera": 8101,
      "fournit": 8102,
      "placa": 8103,
      "flatte": 8104,
      "proced": 8105,
      "procede": 8106,
      "trompez": 8107,
      "courageuse": 8108,
      "embeter": 8109,
      "commandes": 8110,
      "soulagement": 8111,
      "rigole": 8112,
      "rigoler": 8113,
      "russie": 8114,
      "blonde": 8115,
      "baigner": 8116,
      "develop": 8117,
      "photographe": 8118,
      "coiffeur": 8119,
      "technique": 8120,
      "atterri": 8121,
      "transporte": 8122,
      "rideaux": 8123,
      "negociations": 8124,
      "croira": 8125,
      "transforme": 8126,
      "laide": 8127,
      "bracelet": 8128,
      "fric": 8129,
      "plaisantez": 8130,
      "equitable": 8131,
      "medicale": 8132,
      "patiner": 8133,
      "##abetique": 8134,
      "inventa": 8135,
      "definitive": 8136,
      "severe": 8137,
      "principe": 8138,
      "delicate": 8139,
      "original": 8140,
      "medaille": 8141,
      "confectionna": 8142,
      "accoutume": 8143,
      "allonger": 8144,
      "tabac": 8145,
      "consommation": 8146,
      "fiancee": 8147,
      "deserte": 8148,
      "executer": 8149,
      "imprudent": 8150,
      "cookies": 8151,
      "clarifier": 8152,
      "fidele": 8153,
      "mexique": 8154,
      "tricote": 8155,
      "logement": 8156,
      "raccourci": 8157,
      "manifestation": 8158,
      "epreuve": 8159,
      "temporaire": 8160,
      "cerisiers": 8161,
      "declenche": 8162,
      "jury": 8163,
      "probabilite": 8164,
      "promotion": 8165,
      "embarque": 8166,
      "nucleaire": 8167,
      "evacu": 8168,
      "cueill": 8169,
      "cadavre": 8170,
      "prepares": 8171,
      "renommee": 8172,
      "embouteillage": 8173,
      "suggera": 8174,
      "vomir": 8175,
      "astronomie": 8176,
      "falaise": 8177,
      "epouvantable": 8178,
      "dentifrice": 8179,
      "janvier": 8180,
      "oxygene": 8181,
      "poitrine": 8182,
      "puits": 8183,
      "degueu": 8184,
      "pourparlers": 8185,
      "12": 8186,
      "2h30": 8187,
      "cais": 8188,
      "denue": 8189,
      "dorme": 8190,
      "fuit": 8191,
      "fine": 8192,
      "flot": 8193,
      "gal": 8194,
      "gif": 8195,
      "hon": 8196,
      "hand": 8197,
      "juille": 8198,
      "kar": 8199,
      "noyer": 8200,
      "natifs": 8201,
      "otez": 8202,
      "pais": 8203,
      "paient": 8204,
      "paires": 8205,
      "pair": 8206,
      "ronde": 8207,
      "rationne": 8208,
      "sense": 8209,
      "saigne": 8210,
      "tendre": 8211,
      "tolere": 8212,
      "whis": 8213,
      "ya": 8214,
      "##otte": 8215,
      "##oquer": 8216,
      "##ober": 8217,
      "##ires": 8218,
      "##irine": 8219,
      "##tat": 8220,
      "##zar": 8221,
      "##mit": 8222,
      "##fies": 8223,
      "##pock": 8224,
      "##bu": 8225,
      "##cable": 8226,
      "##comm": 8227,
      "##gil": 8228,
      "##xophone": 8229,
      "##joi": 8230,
      "##leurs": 8231,
      "union": 8232,
      "ceder": 8233,
      "##llee": 8234,
      "averse": 8235,
      "##nel": 8236,
      "##ora": 8237,
      "##orique": 8238,
      "##ornie": 8239,
      "chop": 8240,
      "mecon": 8241,
      "pourrons": 8242,
      "##arade": 8243,
      "requi": 8244,
      "requerir": 8245,
      "trace": 8246,
      "parier": 8247,
      "casier": 8248,
      "calif": 8249,
      "sele": 8250,
      "seduis": 8251,
      "dessine": 8252,
      "conco": 8253,
      "arb": 8254,
      "##oscope": 8255,
      "##pect": 8256,
      "##petent": 8257,
      "side": 8258,
      "preju": 8259,
      "##lader": 8260,
      "##lasse": 8261,
      "##teries": 8262,
      "##andit": 8263,
      "saxophone": 8264,
      "##ral": 8265,
      "pein": 8266,
      "serm": 8267,
      "manuelle": 8268,
      "anneau": 8269,
      "comport": 8270,
      "##gna": 8271,
      "tond": 8272,
      "croi": 8273,
      "allergie": 8274,
      "trouvai": 8275,
      "trouviez": 8276,
      "facul": 8277,
      "##lements": 8278,
      "regu": 8279,
      "mig": 8280,
      "commet": 8281,
      "##ageux": 8282,
      "aimera": 8283,
      "puissent": 8284,
      "puissance": 8285,
      "partira": 8286,
      "soule": 8287,
      "soumis": 8288,
      "soutenu": 8289,
      "depar": 8290,
      "depla": 8291,
      "achetes": 8292,
      "courait": 8293,
      "retent": 8294,
      "cessa": 8295,
      "apprenez": 8296,
      "posons": 8297,
      "contenir": 8298,
      "telecomm": 8299,
      "souvienne": 8300,
      "##pportable": 8301,
      "puer": 8302,
      "##dures": 8303,
      "assass": 8304,
      "abais": 8305,
      "bio": 8306,
      "bible": 8307,
      "obse": 8308,
      "obtient": 8309,
      "obtiend": 8310,
      "ends": 8311,
      "refait": 8312,
      "decrit": 8313,
      "confier": 8314,
      "conflit": 8315,
      "voyait": 8316,
      "orph": 8317,
      "coul": 8318,
      "courez": 8319,
      "ignorent": 8320,
      "demandent": 8321,
      "bouc": 8322,
      "boucle": 8323,
      "boulan": 8324,
      "bouchee": 8325,
      "mangeant": 8326,
      "brav": 8327,
      "brut": 8328,
      "ages": 8329,
      "agisse": 8330,
      "##duite": 8331,
      "premiers": 8332,
      "interessants": 8333,
      "anglaise": 8334,
      "effrai": 8335,
      "voile": 8336,
      "travaillerons": 8337,
      "decid": 8338,
      "sujets": 8339,
      "bazar": 8340,
      "prevenant": 8341,
      "tension": 8342,
      "##guez": 8343,
      "porta": 8344,
      "portrait": 8345,
      "expliquez": 8346,
      "pouvoirs": 8347,
      "stra": 8348,
      "parvienne": 8349,
      "parvenez": 8350,
      "entendent": 8351,
      "serviteur": 8352,
      "##seurs": 8353,
      "excus": 8354,
      "exclu": 8355,
      "recupere": 8356,
      "offenser": 8357,
      "sourde": 8358,
      "couteaux": 8359,
      "restais": 8360,
      "volent": 8361,
      "volcan": 8362,
      "inquietude": 8363,
      "apparait": 8364,
      "apparue": 8365,
      "traditionne": 8366,
      "cree": 8367,
      "credule": 8368,
      "casque": 8369,
      "ecoutee": 8370,
      "abandonna": 8371,
      "prenais": 8372,
      "prenant": 8373,
      "tortues": 8374,
      "defaite": 8375,
      "soie": 8376,
      "ressembler": 8377,
      "fournis": 8378,
      "jules": 8379,
      "consciente": 8380,
      "baton": 8381,
      "forcees": 8382,
      "informatique": 8383,
      "emmenez": 8384,
      "honnetes": 8385,
      "entrepre": 8386,
      "derangee": 8387,
      "arrivais": 8388,
      "joignez": 8389,
      "depechons": 8390,
      "urb": 8391,
      "repasser": 8392,
      "enerver": 8393,
      "tentons": 8394,
      "habitez": 8395,
      "job": 8396,
      "attacha": 8397,
      "bleus": 8398,
      "suscep": 8399,
      "cerveau": 8400,
      "cachee": 8401,
      "contentez": 8402,
      "reussiras": 8403,
      "camarade": 8404,
      "menteurs": 8405,
      "machines": 8406,
      "campus": 8407,
      "chanceuses": 8408,
      "mouches": 8409,
      "singes": 8410,
      "montee": 8411,
      "naturellement": 8412,
      "delibe": 8413,
      "sied": 8414,
      "abandonnez": 8415,
      "abandonnerent": 8416,
      "attentive": 8417,
      "traitez": 8418,
      "trompee": 8419,
      "immense": 8420,
      "admet": 8421,
      "cherchons": 8422,
      "euros": 8423,
      "fraises": 8424,
      "communaute": 8425,
      "exploser": 8426,
      "sports": 8427,
      "silencieuse": 8428,
      "##ramme": 8429,
      "dortoir": 8430,
      "sejourn": 8431,
      "entraider": 8432,
      "entrainee": 8433,
      "deprim": 8434,
      "regretterez": 8435,
      "innocente": 8436,
      "escalader": 8437,
      "consideree": 8438,
      "prisonnieres": 8439,
      "eclater": 8440,
      "embarrassee": 8441,
      "subs": 8442,
      "subvenir": 8443,
      "intimi": 8444,
      "relache": 8445,
      "comprenons": 8446,
      "eclaire": 8447,
      "adorait": 8448,
      "gratuite": 8449,
      "balai": 8450,
      "balance": 8451,
      "cultures": 8452,
      "anciennes": 8453,
      "tracer": 8454,
      "dirigea": 8455,
      "dirigeons": 8456,
      "appuyez": 8457,
      "effrayees": 8458,
      "trouble": 8459,
      "independ": 8460,
      "independant": 8461,
      "peser": 8462,
      "difficilement": 8463,
      "spont": 8464,
      "spati": 8465,
      "##tiennent": 8466,
      "sensibles": 8467,
      "celibataires": 8468,
      "irrit": 8469,
      "trahis": 8470,
      "##fiant": 8471,
      "rangee": 8472,
      "dechar": 8473,
      "dechire": 8474,
      "renvers": 8475,
      "echanger": 8476,
      "italien": 8477,
      "etasunien": 8478,
      "maitrise": 8479,
      "illeg": 8480,
      "prevenues": 8481,
      "logicie": 8482,
      "raccro": 8483,
      "jolies": 8484,
      "poursuivit": 8485,
      "gorgee": 8486,
      "emmenage": 8487,
      "criminels": 8488,
      "desesperee": 8489,
      "vaincre": 8490,
      "alentour": 8491,
      "bienvenues": 8492,
      "secoue": 8493,
      "largement": 8494,
      "tasses": 8495,
      "inspire": 8496,
      "accueil": 8497,
      "flor": 8498,
      "desordre": 8499,
      "religieux": 8500,
      "coiffure": 8501,
      "charmante": 8502,
      "avertissement": 8503,
      "inscrit": 8504,
      "atterris": 8505,
      "inconnue": 8506,
      "conserve": 8507,
      "elephant": 8508,
      "isole": 8509,
      "emission": 8510,
      "confirme": 8511,
      "diplomee": 8512,
      "agressif": 8513,
      "gouttes": 8514,
      "lustres": 8515,
      "arrache": 8516,
      "arracher": 8517,
      "fumeur": 8518,
      "rechauffe": 8519,
      "rechauffer": 8520,
      "pompier": 8521,
      "virus": 8522,
      "inventer": 8523,
      "correspon": 8524,
      "correspond": 8525,
      "sacree": 8526,
      "mouillee": 8527,
      "enchante": 8528,
      "principes": 8529,
      "crane": 8530,
      "gaucher": 8531,
      "exagerer": 8532,
      "politicien": 8533,
      "politiciens": 8534,
      "divertis": 8535,
      "eveilles": 8536,
      "orateur": 8537,
      "pince": 8538,
      "lacets": 8539,
      "massage": 8540,
      "obligation": 8541,
      "aspirine": 8542,
      "insupportable": 8543,
      "incompetent": 8544,
      "remarquable": 8545,
      "rassas": 8546,
      "semblerait": 8547,
      "sagesse": 8548,
      "perform": 8549,
      "bouillir": 8550,
      "inconscient": 8551,
      "pacifique": 8552,
      "aventure": 8553,
      "dessinees": 8554,
      "taquine": 8555,
      "affirme": 8556,
      "alphabet": 8557,
      "jalouses": 8558,
      "mecanicien": 8559,
      "cahier": 8560,
      "desagreable": 8561,
      "salua": 8562,
      "renseigne": 8563,
      "endommage": 8564,
      "recompense": 8565,
      "distributeur": 8566,
      "esclavage": 8567,
      "dauphin": 8568,
      "centime": 8569,
      "tuyau": 8570,
      "rugby": 8571,
      "bluff": 8572,
      "pluvieux": 8573,
      "bulletin": 8574,
      "excursion": 8575,
      "cendres": 8576,
      "terror": 8577,
      "sourcils": 8578,
      "soupconne": 8579,
      "nœud": 8580,
      "pickpock": 8581,
      "sarcas": 8582,
      "developper": 8583,
      "degueulasse": 8584,
      "juillet": 8585,
      "whisky": 8586,
      "requiers": 8587,
      "californie": 8588,
      "telecommande": 8589,
      "00": 8590,
      "15": 8591,
      "11": 8592,
      "40": 8593,
      "bac": 8594,
      "bro": 8595,
      "cier": 8596,
      "dore": 8597,
      "edi": 8598,
      "eiff": 8599,
      "fris": 8600,
      "gagnes": 8601,
      "hok": 8602,
      "mul": 8603,
      "na": 8604,
      "oli": 8605,
      "pir": 8606,
      "pomm": 8607,
      "roup": 8608,
      "rab": 8609,
      "rout": 8610,
      "scul": 8611,
      "sains": 8612,
      "spl": 8613,
      "ves": 8614,
      "wash": 8615,
      "##ieuses": 8616,
      "##toir": 8617,
      "##tiez": 8618,
      "##trait": 8619,
      "##sai": 8620,
      "##mand": 8621,
      "##fle": 8622,
      "##pabilite": 8623,
      "##dir": 8624,
      "##bur": 8625,
      "##bation": 8626,
      "##cant": 8627,
      "##ciere": 8628,
      "##cab": 8629,
      "##crit": 8630,
      "##hu": 8631,
      "##hue": 8632,
      "##het": 8633,
      "##lon": 8634,
      "##xte": 8635,
      "##ke": 8636,
      "##kai": 8637,
      "##ouilles": 8638,
      "##enes": 8639,
      "##eniez": 8640,
      "##ension": 8641,
      "##erons": 8642,
      "pates": 8643,
      "pages": 8644,
      "##ombre": 8645,
      "passionne": 8646,
      "##issage": 8647,
      "lacher": 8648,
      "nees": 8649,
      "levent": 8650,
      "lecons": 8651,
      "etroit": 8652,
      "etape": 8653,
      "ente": 8654,
      "tur": 8655,
      "tuerai": 8656,
      "##lley": 8657,
      "avoue": 8658,
      "avouer": 8659,
      "sup": 8660,
      "##tint": 8661,
      "##tives": 8662,
      "##ney": 8663,
      "##orze": 8664,
      "chre": 8665,
      "chasser": 8666,
      "aube": 8667,
      "##itu": 8668,
      "##itaires": 8669,
      "##arite": 8670,
      "##aration": 8671,
      "##auter": 8672,
      "reduis": 8673,
      "reaction": 8674,
      "##usque": 8675,
      "tric": 8676,
      "troupes": 8677,
      "paran": 8678,
      "teles": 8679,
      "##llons": 8680,
      "##llic": 8681,
      "caca": 8682,
      "##ntry": 8683,
      "seme": 8684,
      "sein": 8685,
      "seance": 8686,
      "separ": 8687,
      "design": 8688,
      "##gea": 8689,
      "pendule": 8690,
      "conter": 8691,
      "congres": 8692,
      "asi": 8693,
      "mah": 8694,
      "male": 8695,
      "##osa": 8696,
      "##osau": 8697,
      "diront": 8698,
      "proven": 8699,
      "oura": 8700,
      "volley": 8701,
      "inond": 8702,
      "##urne": 8703,
      "mardi": 8704,
      "marine": 8705,
      "##uelles": 8706,
      "resident": 8707,
      "demode": 8708,
      "##raison": 8709,
      "amenez": 8710,
      "##rables": 8711,
      "pelle": 8712,
      "peign": 8713,
      "exister": 8714,
      "manne": 8715,
      "disser": 8716,
      "anony": 8717,
      "apprent": 8718,
      "##aliser": 8719,
      "acquit": 8720,
      "croix": 8721,
      "croche": 8722,
      "personnelles": 8723,
      "pensaient": 8724,
      "trouvions": 8725,
      "reglement": 8726,
      "fausses": 8727,
      "perc": 8728,
      "pressa": 8729,
      "essuie": 8730,
      "viole": 8731,
      "vigil": 8732,
      "puissante": 8733,
      "felicite": 8734,
      "courtes": 8735,
      "##acer": 8736,
      "cheres": 8737,
      "cheques": 8738,
      "empois": 8739,
      "empris": 8740,
      "livrer": 8741,
      "pleins": 8742,
      "chame": 8743,
      "connaisses": 8744,
      "revu": 8745,
      "revol": 8746,
      "assoup": 8747,
      "mangerai": 8748,
      "abuse": 8749,
      "abond": 8750,
      "payez": 8751,
      "intentionne": 8752,
      "##rogne": 8753,
      "suppri": 8754,
      "refais": 8755,
      "deconne": 8756,
      "decap": 8757,
      "confort": 8758,
      "eplu": 8759,
      "voudra": 8760,
      "voudront": 8761,
      "country": 8762,
      "fimes": 8763,
      "boucles": 8764,
      "habites": 8765,
      "rendait": 8766,
      "rad": 8767,
      "achetees": 8768,
      "carbone": 8769,
      "##rrence": 8770,
      "immis": 8771,
      "invention": 8772,
      "##icale": 8773,
      "funer": 8774,
      "travailleur": 8775,
      "cheville": 8776,
      "conviendrait": 8777,
      "donnera": 8778,
      "cochons": 8779,
      "nuageux": 8780,
      "##illade": 8781,
      "livraison": 8782,
      "portu": 8783,
      "laisserais": 8784,
      "laisseront": 8785,
      "arretera": 8786,
      "##cade": 8787,
      "vivrai": 8788,
      "prendrons": 8789,
      "trempe": 8790,
      "quittes": 8791,
      "muscles": 8792,
      "confiante": 8793,
      "roue": 8794,
      "routes": 8795,
      "serveuse": 8796,
      "detestez": 8797,
      "mobile": 8798,
      "mobilier": 8799,
      "causee": 8800,
      "disposees": 8801,
      "utilisent": 8802,
      "utilisation": 8803,
      "magie": 8804,
      "magicien": 8805,
      "complets": 8806,
      "restiez": 8807,
      "fouille": 8808,
      "equipes": 8809,
      "apparut": 8810,
      "##rup": 8811,
      "suivrait": 8812,
      "preparez": 8813,
      "creer": 8814,
      "manquerez": 8815,
      "autoris": 8816,
      "papillons": 8817,
      "fonda": 8818,
      "amusons": 8819,
      "apparences": 8820,
      "necessairement": 8821,
      "remem": 8822,
      "prenait": 8823,
      "torture": 8824,
      "defendre": 8825,
      "lisent": 8826,
      "lisant": 8827,
      "pleuvrait": 8828,
      "horiz": 8829,
      "fourre": 8830,
      "jugez": 8831,
      "rempla": 8832,
      "fusillade": 8833,
      "metaux": 8834,
      "souhaitais": 8835,
      "malhonne": 8836,
      "recherchons": 8837,
      "occupera": 8838,
      "barriere": 8839,
      "travailla": 8840,
      "universitaire": 8841,
      "contacte": 8842,
      "bizarrement": 8843,
      "decues": 8844,
      "bleues": 8845,
      "decembre": 8846,
      "pani": 8847,
      "divis": 8848,
      "realiste": 8849,
      "ressentez": 8850,
      "celeb": 8851,
      "vendus": 8852,
      "grille": 8853,
      "arretait": 8854,
      "allumez": 8855,
      "appreciais": 8856,
      "recette": 8857,
      "traitent": 8858,
      "mouilles": 8859,
      "gouts": 8860,
      "perdis": 8861,
      "organises": 8862,
      "organiser": 8863,
      "pareilles": 8864,
      "dinosau": 8865,
      "sollic": 8866,
      "innomb": 8867,
      "musees": 8868,
      "formation": 8869,
      "impressionnees": 8870,
      "##ronter": 8871,
      "##ington": 8872,
      "manquera": 8873,
      "##issements": 8874,
      "loterie": 8875,
      "199": 8876,
      "ecoutais": 8877,
      "ecoutait": 8878,
      "commission": 8879,
      "hyd": 8880,
      "advers": 8881,
      "eloignes": 8882,
      "eloignez": 8883,
      "subite": 8884,
      "specialise": 8885,
      "##ologique": 8886,
      "##ologiques": 8887,
      "brulee": 8888,
      "comprennent": 8889,
      "battent": 8890,
      "reserves": 8891,
      "partageons": 8892,
      "gaspillez": 8893,
      "culpabilite": 8894,
      "##ctives": 8895,
      "raser": 8896,
      "precipita": 8897,
      "inutiles": 8898,
      "declaration": 8899,
      "affection": 8900,
      "potent": 8901,
      "spag": 8902,
      "shopp": 8903,
      "semblable": 8904,
      "jumelles": 8905,
      "escorte": 8906,
      "crache": 8907,
      "signific": 8908,
      "amicale": 8909,
      "nationale": 8910,
      "excitee": 8911,
      "poupees": 8912,
      "adopter": 8913,
      "epargner": 8914,
      "rappro": 8915,
      "citron": 8916,
      "expression": 8917,
      "professionnelle": 8918,
      "locuteurs": 8919,
      "parcourut": 8920,
      "elegante": 8921,
      "sanguin": 8922,
      "moustache": 8923,
      "apercevoir": 8924,
      "proposez": 8925,
      "genereuse": 8926,
      "enregistrer": 8927,
      "rassembla": 8928,
      "conclusions": 8929,
      "alimentaire": 8930,
      "alimentaires": 8931,
      "foirer": 8932,
      "technologie": 8933,
      "etendue": 8934,
      "avertis": 8935,
      "requise": 8936,
      "investi": 8937,
      "especes": 8938,
      "impliquer": 8939,
      "baleines": 8940,
      "activites": 8941,
      "debattre": 8942,
      "intimide": 8943,
      "assirent": 8944,
      "applaudi": 8945,
      "muni": 8946,
      "redemar": 8947,
      "connexion": 8948,
      "verifiez": 8949,
      "civil": 8950,
      "breve": 8951,
      "foutu": 8952,
      "fascinant": 8953,
      "poings": 8954,
      "mentionner": 8955,
      "saigner": 8956,
      "productif": 8957,
      "fonctionnent": 8958,
      "fondee": 8959,
      "communiquer": 8960,
      "haleine": 8961,
      "ecarte": 8962,
      "partenaire": 8963,
      "partenaires": 8964,
      "incorrect": 8965,
      "ivrogne": 8966,
      "nausee": 8967,
      "predire": 8968,
      "internationale": 8969,
      "reproduise": 8970,
      "domestiques": 8971,
      "indispensable": 8972,
      "therm": 8973,
      "tigre": 8974,
      "alluma": 8975,
      "symbole": 8976,
      "sanglots": 8977,
      "britannique": 8978,
      "erron": 8979,
      "flute": 8980,
      "affreusement": 8981,
      "ecureuil": 8982,
      "quatorze": 8983,
      "philosophie": 8984,
      "expulse": 8985,
      "epinards": 8986,
      "cicatrice": 8987,
      "raide": 8988,
      "tissu": 8989,
      "reconside": 8990,
      "detaillee": 8991,
      "chiffres": 8992,
      "trentaine": 8993,
      "pourboire": 8994,
      "catholique": 8995,
      "preserver": 8996,
      "minimum": 8997,
      "procedure": 8998,
      "evacuer": 8999,
      "caisses": 9000,
      "prejuges": 9001,
      "peintre": 9002,
      "departement": 9003,
      "boulanger": 9004,
      "strate": 9005,
      "performance": 9006,
[...]
