{
  "version": "1.0",
  "truncation": null,
  "padding": null,
  "added_tokens": [
    {
      "id": 0,
      "content": "[UNK]",
      "single_word": false,
      "lstrip": false,
      "rstrip": false,
      "normalized": false,
      "special": true
    },
    {
      "id": 1,
      "content": "[CLS]",
      "single_word": false,
      "lstrip": false,
      "rstrip": false,
      "normalized": false,
      "special": true
    },
    {
      "id": 2,
      "content": "[SEP]",
      "single_word": false,
      "lstrip": false,
      "rstrip": false,
      "normalized": false,
      "special": true
    },
    {
      "id": 3,
      "content": "[PAD]",
      "single_word": false,
      "lstrip": false,
      "rstrip": false,
      "normalized": false,
      "special": true
    },
    {
      "id": 4,
      "content": "[MASK]",
      "single_word": false,
      "lstrip": false,
      "rstrip": false,
      "normalized": false,
      "special": true
    }
  ],
  "normalizer": {
    "type": "Sequence",
    "normalizers": [
      {
        "type": "NFD"
      },
      {
        "type": "Lowercase"
      },
      {
        "type": "StripAccents"
      }
    ]
  },
  "pre_tokenizer": {
    "type": "BertPreTokenizer"
  },
  "post_processor": null,
  "decoder": {
    "type": "WordPiece",
    "prefix": "##",
    "cleanup": true
  },
  "model": {
    "type": "WordPiece",
    "unk_token": "[UNK]",
    "continuing_subword_prefix": "##",
    "max_input_chars_per_word": 100,
    "vocab": {
      "[UNK]": 0,
      "[CLS]": 1,
      "[SEP]": 2,
      "[PAD]": 3,
      "[MASK]": 4,
      "!": 5,
      "\"": 6,
      "&": 7,
      "'": 8,
      "(": 9,
      ")": 10,
      "*": 11,
      ",": 12,
      "-": 13,
      ".": 14,
      "/": 15,
      "0": 16,
      "1": 17,
      "2": 18,
      "3": 19,
      "4": 20,
      "5": 21,
      "6": 22,
      "7": 23,
      "8": 24,
      "9": 25,
      ":": 26,
      ";": 27,
      "?": 28,
      "[": 29,
      "a": 30,
      "b": 31,
      "c": 32,
      "d": 33,
      "e": 34,
      "f": 35,
      "g": 36,
      "h": 37,
      "i": 38,
      "j": 39,
      "k": 40,
      "l": 41,
      "m": 42,
      "n": 43,
      "o": 44,
      "p": 45,
      "q": 46,
      "r": 47,
      "s": 48,
      "t": 49,
      "u": 50,
      "v": 51,
      "w": 52,
      "x": 53,
      "y": 54,
      "z": 55,
      "е": 56,
      "​": 57,
      "–": 58,
      "—": 59,
      "‘": 60,
      "’": 61,
      "“": 62,
      "”": 63,
      "…": 64,
      "##a": 65,
      "##y": 66,
      "##g": 67,
      "##e": 68,
      "##t": 69,
      "##w": 70,
      "##s": 71,
      "##q": 72,
      "##u": 73,
      "##r": 74,
      "##d": 75,
      "##h": 76,
      "##i": 77,
      "##v": 78,
      "##o": 79,
      "##n": 80,
      "##c": 81,
      "##k": 82,
      "##m": 83,
      "##b": 84,
      "##l": 85,
      "##0": 86,
      "##1": 87,
      "##8": 88,
      "##p": 89,
      "##f": 90,
      "##е": 91,
      "##x": 92,
      "##z": 93,
      "##5": 94,
      "##j": 95,
      "##2": 96,
      "##6": 97,
      "##4": 98,
      "##3": 99,
      "##9": 100,
      "##7": 101,
      "##ou": 102,
      "th": 103,
      "you": 104,
      "##in": 105,
      "##er": 106,
      "##nd": 107,
      "the": 108,
      "##ing": 109,
      "and": 110,
      "##at": 111,
      "##on": 112,
      "##ll": 113,
      "##ow": 114,
      "to": 115,
      "##ea": 116,
      "##es": 117,
      "##or": 118,
      "##en": 119,
      "##an": 120,
      "me": 121,
      "it": 122,
      "wh": 123,
      "##ed": 124,
      "##ay": 125,
      "##me": 126,
      "be": 127,
      "in": 128,
      "##ut": 129,
      "##st": 130,
      "##gh": 131,
      "my": 132,
      "li": 133,
      "##ver": 134,
      "on": 135,
      "##ve": 136,
      "##ke": 137,
      "##th": 138,
      "##is": 139,
      "##ld": 140,
      "lo": 141,
      "that": 142,
      "of": 143,
      "##ght": 144,
      "##ere": 145,
      "st": 146,
      "##ee": 147,
      "wa": 148,
      "so": 149,
      "we": 150,
      "##ar": 151,
      "go": 152,
      "##se": 153,
      "kn": 154,
      "your": 155,
      "ba": 156,
      "ha": 157,
      "##et": 158,
      "##id": 159,
      "sh": 160,
      "re": 161,
      "oh": 162,
      "but": 163,
      "##ight": 164,
      "ne": 165,
      "know": 166,
      "all": 167,
      "no": 168,
      "##le": 169,
      "##ck": 170,
      "for": 171,
      "wi": 172,
      "##re": 173,
      "##ould": 174,
      "like": 175,
      "is": 176,
      "was": 177,
      "##ust": 178,
      "this": 179,
      "ca": 180,
      "##it": 181,
      "##ear": 182,
      "don": 183,
      "##ce": 184,
      "##ir": 185,
      "ever": 186,
      "##om": 187,
      "just": 188,
      "he": 189,
      "when": 190,
      "ti": 191,
      "do": 192,
      "can": 193,
      "##ake": 194,
      "love": 195,
      "ll": 196,
      "##ch": 197,
      "with": 198,
      "##ur": 199,
      "what": 200,
      "never": 201,
      "now": 202,
      "wan": 203,
      "sa": 204,
      "##ome": 205,
      "##od": 206,
      "##thing": 207,
      "say": 208,
      "##ess": 209,
      "##rou": 210,
      "out": 211,
      "##own": 212,
      "##ly": 213,
      "there": 214,
      "##ong": 215,
      "up": 216,
      "##ra": 217,
      "##ok": 218,
      "##by": 219,
      "##one": 220,
      "ve": 221,
      "if": 222,
      "##ink": 223,
      "time": 224,
      "##ri": 225,
      "##use": 226,
      "at": 227,
      "##ind": 228,
      "an": 229,
      "##ad": 230,
      "some": 231,
      "##un": 232,
      "baby": 233,
      "see": 234,
      "every": 235,
      "think": 236,
      "##rea": 237,
      "##oh": 238,
      "back": 239,
      "##tt": 240,
      "##out": 241,
      "##na": 242,
      "ooh": 243,
      "fa": 244,
      "al": 245,
      "cause": 246,
      "they": 247,
      "one": 248,
      "are": 249,
      "##ry": 250,
      "ch": 251,
      "##ic": 252,
      "look": 253,
      "##way": 254,
      "##ain": 255,
      "pl": 256,
      "could": 257,
      "down": 258,
      "hear": 259,
      "want": 260,
      "##ent": 261,
      "got": 262,
      "she": 263,
      "##op": 264,
      "not": 265,
      "get": 266,
      "la": 267,
      "did": 268,
      "who": 269,
      "ab": 270,
      "fr": 271,
      "as": 272,
      "have": 273,
      "##lk": 274,
      "wor": 275,
      "were": 276,
      "##ge": 277,
      "rea": 278,
      "would": 279,
      "##est": 280,
      "about": 281,
      "##ell": 282,
      "been": 283,
      "##ill": 284,
      "thing": 285,
      "take": 286,
      "come": 287,
      "pr": 288,
      "bl": 289,
      "ta": 290,
      "fee": 291,
      "##ion": 292,
      "##ore": 293,
      "##round": 294,
      "##ine": 295,
      "##li": 296,
      "night": 297,
      "day": 298,
      "let": 299,
      "said": 300,
      "##eep": 301,
      "##fe": 302,
      "here": 303,
      "cl": 304,
      "right": 305,
      "##ream": 306,
      "how": 307,
      "way": 308,
      "##im": 309,
      "##ther": 310,
      "feel": 311,
      "sp": 312,
      "tell": 313,
      "yea": 314,
      "yeah": 315,
      "##as": 316,
      "will": 317,
      "mad": 318,
      "heart": 319,
      "##nds": 320,
      "had": 321,
      "ey": 322,
      "##mb": 323,
      "##ven": 324,
      "from": 325,
      "around": 326,
      "man": 327,
      "##nder": 328,
      "##ate": 329,
      "##ew": 330,
      "##ish": 331,
      "ho": 332,
      "##and": 333,
      "##iss": 334,
      "na": 335,
      "##urn": 336,
      "why": 337,
      "di": 338,
      "should": 339,
      "se": 340,
      "wanna": 341,
      "any": 342,
      "away": 343,
      "ro": 344,
      "##mber": 345,
      "only": 346,
      "gon": 347,
      "us": 348,
      "##ct": 349,
      "##ol": 350,
      "bett": 351,
      "##ide": 352,
      "ah": 353,
      "stay": 354,
      "her": 355,
      "##ue": 356,
      "##irl": 357,
      "girl": 358,
      "wish": 359,
      "good": 360,
      "str": 361,
      "##ody": 362,
      "##ead": 363,
      "com": 364,
      "gonna": 365,
      "wr": 366,
      "##lly": 367,
      "too": 368,
      "need": 369,
      "ag": 370,
      "##pp": 371,
      "bo": 372,
      "wo": 373,
      "still": 374,
      "ma": 375,
      "eyes": 376,
      "car": 377,
      "call": 378,
      "light": 379,
      "star": 380,
      "everything": 381,
      "##ter": 382,
      "##ul": 383,
      "##us": 384,
      "better": 385,
      "by": 386,
      "make": 387,
      "##ath": 388,
      "where": 389,
      "sw": 390,
      "off": 391,
      "##ttle": 392,
      "run": 393,
      "long": 394,
      "##ot": 395,
      "wait": 396,
      "our": 397,
      "dr": 398,
      "or": 399,
      "##atch": 400,
      "##um": 401,
      "dream": 402,
      "home": 403,
      "again": 404,
      "throu": 405,
      "##reak": 406,
      "through": 407,
      "##ig": 408,
      "little": 409,
      "##il": 410,
      "keep": 411,
      "didn": 412,
      "thou": 413,
      "knew": 414,
      "sc": 415,
      "walk": 416,
      "sm": 417,
      "try": 418,
      "##ever": 419,
      "things": 420,
      "##ting": 421,
      "last": 422,
      "br": 423,
      "##ose": 424,
      "##ean": 425,
      "bad": 426,
      "co": 427,
      "##ving": 428,
      "made": 429,
      "tr": 430,
      "##to": 431,
      "mo": 432,
      "life": 433,
      "gu": 434,
      "##ile": 435,
      "##ble": 436,
      "##rie": 437,
      "##body": 438,
      "##el": 439,
      "##ark": 440,
      "##ite": 441,
      "lea": 442,
      "then": 443,
      "nothing": 444,
      "pa": 445,
      "##ard": 446,
      "ga": 447,
      "song": 448,
      "fl": 449,
      "him": 450,
      "new": 451,
      "something": 452,
      "##ers": 453,
      "##eet": 454,
      "##ies": 455,
      "mind": 456,
      "##king": 457,
      "talk": 458,
      "##irst": 459,
      "##ways": 460,
      "hold": 461,
      "always": 462,
      "break": 463,
      "##ning": 464,
      "##member": 465,
      "remember": 466,
      "am": 467,
      "frie": 468,
      "##ist": 469,
      "dan": 470,
      "hop": 471,
      "##row": 472,
      "first": 473,
      "hey": 474,
      "cra": 475,
      "his": 476,
      "##ive": 477,
      "##ick": 478,
      "miss": 479,
      "##al": 480,
      "##if": 481,
      "##ved": 482,
      "chan": 483,
      "thought": 484,
      "fo": 485,
      "into": 486,
      "de": 487,
      "en": 488,
      "hand": 489,
      "fall": 490,
      "##ure": 491,
      "##be": 492,
      "than": 493,
      "forever": 494,
      "old": 495,
      "##lf": 496,
      "well": 497,
      "play": 498,
      "watch": 499,
      "##ca": 500,
      "find": 501,
      "turn": 502,
      "##ice": 503,
      "won": 504,
      "##ound": 505,
      "stand": 506,
      "wonder": 507,
      "even": 508,
      "##light": 509,
      "sing": 510,
      "##os": 511,
      "##mes": 512,
      "face": 513,
      "ar": 514,
      "tw": 515,
      "alone": 516,
      "name": 517,
      "them": 518,
      "over": 519,
      "##ty": 520,
      "##ous": 521,
      "really": 522,
      "mine": 523,
      "##ef": 524,
      "shake": 525,
      "##kes": 526,
      "red": 527,
      "dri": 528,
      "tra": 529,
      "##ling": 530,
      "##less": 531,
      "end": 532,
      "sl": 533,
      "ex": 534,
      "more": 535,
      "beg": 536,
      "##ood": 537,
      "stor": 538,
      "world": 539,
      "best": 540,
      "head": 541,
      "##ough": 542,
      "##ears": 543,
      "pla": 544,
      "waiting": 545,
      "leave": 546,
      "hope": 547,
      "##ves": 548,
      "##fore": 549,
      "before": 550,
      "bea": 551,
      "rain": 552,
      "##uck": 553,
      "show": 554,
      "ain": 555,
      "da": 556,
      "put": 557,
      "per": 558,
      "##uch": 559,
      "forg": 560,
      "friends": 561,
      "gone": 562,
      "wind": 563,
      "af": 564,
      "##ation": 565,
      "beaut": 566,
      "burn": 567,
      "##ng": 568,
      "young": 569,
      "smile": 570,
      "pe": 571,
      "##ging": 572,
      "##llow": 573,
      "##idd": 574,
      "lights": 575,
      "##nt": 576,
      "bre": 577,
      "mean": 578,
      "wrong": 579,
      "may": 580,
      "these": 581,
      "live": 582,
      "##self": 583,
      "under": 584,
      "their": 585,
      "##ity": 586,
      "##lie": 587,
      "##ds": 588,
      "fun": 589,
      "kiss": 590,
      "##here": 591,
      "##iful": 592,
      "beautiful": 593,
      "cr": 594,
      "par": 595,
      "meet": 596,
      "lef": 597,
      "##pt": 598,
      "has": 599,
      "happ": 600,
      "door": 601,
      "plan": 602,
      "left": 603,
      "con": 604,
      "##ms": 605,
      "danc": 606,
      "town": 607,
      "##other": 608,
      "someone": 609,
      "pret": 610,
      "anything": 611,
      "boy": 612,
      "enough": 613,
      "mess": 614,
      "trying": 615,
      "##sh": 616,
      "##dy": 617,
      "belie": 618,
      "lost": 619,
      "gave": 620,
      "drive": 621,
      "give": 622,
      "sor": 623,
      "hands": 624,
      "dreams": 625,
      "eh": 626,
      "##ople": 627,
      "craz": 628,
      "people": 629,
      "fi": 630,
      "qu": 631,
      "sk": 632,
      "lau": 633,
      "street": 634,
      "scar": 635,
      "breath": 636,
      "much": 637,
      "yet": 638,
      "##lse": 639,
      "##ze": 640,
      "those": 641,
      "saw": 642,
      "##fect": 643,
      "other": 644,
      "ph": 645,
      "##mor": 646,
      "##ant": 647,
      "once": 648,
      "##ict": 649,
      "looking": 650,
      "##ass": 651,
      "laugh": 652,
      "dark": 653,
      "hate": 654,
      "##day": 655,
      "going": 656,
      "sorry": 657,
      "fly": 658,
      "sun": 659,
      "another": 660,
      "fight": 661,
      "ton": 662,
      "same": 663,
      "##age": 664,
      "goes": 665,
      "hard": 666,
      "##ally": 667,
      "##les": 668,
      "dress": 669,
      "perfect": 670,
      "tonight": 671,
      "else": 672,
      "mom": 673,
      "##up": 674,
      "##ces": 675,
      "##ease": 676,
      "guess": 677,
      "cou": 678,
      "op": 679,
      "##where": 680,
      "##ull": 681,
      "known": 682,
      "story": 683,
      "##igh": 684,
      "stop": 685,
      "wanted": 686,
      "room": 687,
      "used": 688,
      "please": 689,
      "blue": 690,
      "coming": 691,
      "follow": 692,
      "standing": 693,
      "cry": 694,
      "kind": 695,
      "po": 696,
      "##ne": 697,
      "##ps": 698,
      "gre": 699,
      "nice": 700,
      "thinking": 701,
      "getting": 702,
      "20": 703,
      "##mer": 704,
      "bet": 705,
      "beca": 706,
      "##oney": 707,
      "comes": 708,
      "start": 709,
      "##ff": 710,
      "memor": 711,
      "knows": 712,
      "whoa": 713,
      "daylight": 714,
      "side": 715,
      "##ery": 716,
      "##eak": 717,
      "loved": 718,
      "begging": 719,
      "believe": 720,
      "crazy": 721,
      "toge": 722,
      "##ang": 723,
      "without": 724,
      "place": 725,
      "together": 726,
      "##een": 727,
      "##son": 728,
      "##mp": 729,
      "##ise": 730,
      "isn": 731,
      "does": 732,
      "open": 733,
      "pict": 734,
      "##ack": 735,
      "##med": 736,
      "everybody": 737,
      "close": 738,
      "##ush": 739,
      "moment": 740,
      "big": 741,
      "dar": 742,
      "yes": 743,
      "##end": 744,
      "sha": 745,
      "##oss": 746,
      "high": 747,
      "pain": 748,
      "##xt": 749,
      "##our": 750,
      "blood": 751,
      "forget": 752,
      "maybe": 753,
      "sum": 754,
      "##pe": 755,
      "lose": 756,
      "heard": 757,
      "feeling": 758,
      "seen": 759,
      "change": 760,
      "because": 761,
      "might": 762,
      "win": 763,
      "##cr": 764,
      "took": 765,
      "ins": 766,
      "came": 767,
      "gl": 768,
      "pick": 769,
      "sit": 770,
      "trou": 771,
      "##ince": 772,
      "##ence": 773,
      "words": 774,
      "pro": 775,
      "far": 776,
      "##all": 777,
      "##ug": 778,
      "##ie": 779,
      "prom": 780,
      "dancing": 781,
      "mus": 782,
      "bel": 783,
      "myself": 784,
      "save": 785,
      "work": 786,
      "after": 787,
      "plans": 788,
      "bout": 789,
      "late": 790,
      "wild": 791,
      "saying": 792,
      "phone": 793,
      "trouble": 794,
      "music": 795,
      "ground": 796,
      "##ater": 797,
      "lover": 798,
      "next": 799,
      "whole": 800,
      "mag": 801,
      "summer": 802,
      "cut": 803,
      "sou": 804,
      "years": 805,
      "##come": 806,
      "met": 807,
      "##reck": 808,
      "##rist": 809,
      "christ": 810,
      "sweet": 811,
      "scream": 812,
      "true": 813,
      "sleep": 814,
      "##ged": 815,
      "##ned": 816,
      "##mas": 817,
      "days": 818,
      "darling": 819,
      "fine": 820,
      "##ught": 821,
      "##ost": 822,
      "##iddle": 823,
      "mm": 824,
      "middle": 825,
      "sig": 826,
      "##more": 827,
      "##ouch": 828,
      "times": 829,
      "##ather": 830,
      "found": 831,
      "gra": 832,
      "honey": 833,
      "went": 834,
      "##ying": 835,
      "##og": 836,
      "##oke": 837,
      "list": 838,
      "til": 839,
      "clear": 840,
      "fire": 841,
      "christmas": 842,
      "##wn": 843,
      "wall": 844,
      "shin": 845,
      "##ump": 846,
      "hur": 847,
      "mar": 848,
      "pass": 849,
      "tri": 850,
      "uh": 851,
      "##ma": 852,
      "##per": 853,
      "god": 854,
      "nobody": 855,
      "##irt": 856,
      "says": 857,
      "read": 858,
      "dance": 859,
      "window": 860,
      "bed": 861,
      "##ont": 862,
      "##ork": 863,
      "while": 864,
      "war": 865,
      "hel": 866,
      "##ade": 867,
      "reason": 868,
      "wishing": 869,
      "##elt": 870,
      "dad": 871,
      "very": 872,
      "told": 873,
      "somed": 874,
      "couldn": 875,
      "real": 876,
      "many": 877,
      "road": 878,
      "cold": 879,
      "someday": 880,
      "bra": 881,
      "fin": 882,
      "wreck": 883,
      "##ah": 884,
      "living": 885,
      "front": 886,
      "feet": 887,
      "##ash": 888,
      "wood": 889,
      "picture": 890,
      "ea": 891,
      "hu": 892,
      "mon": 893,
      "ste": 894,
      "babe": 895,
      "##raw": 896,
      "looks": 897,
      "ask": 898,
      "message": 899,
      "belong": 900,
      "cor": 901,
      "king": 902,
      "must": 903,
      "ok": 904,
      "un": 905,
      "##vor": 906,
      "##ment": 907,
      "hair": 908,
      "comp": 909,
      "two": 910,
      "201": 911,
      "help": 912,
      "bar": 913,
      "grow": 914,
      "less": 915,
      "tea": 916,
      "touch": 917,
      "##air": 918,
      "##sing": 919,
      "##lor": 920,
      "##int": 921,
      "soon": 922,
      "sign": 923,
      "fear": 924,
      "felt": 925,
      "gr": 926,
      "lear": 927,
      "pull": 928,
      "ring": 929,
      "tay": 930,
      "year": 931,
      "today": 932,
      "lot": 933,
      "##itch": 934,
      "hell": 935,
      "somebody": 936,
      "running": 937,
      "past": 938,
      "flo": 939,
      "body": 940,
      "cur": 941,
      "crow": 942,
      "em": 943,
      "hea": 944,
      "kill": 945,
      "sn": 946,
      "##ors": 947,
      "favor": 948,
      "along": 949,
      "songs": 950,
      "friend": 951,
      "hurt": 952,
      "taylor": 953,
      "lead": 954,
      "mist": 955,
      "york": 956,
      "##ud": 957,
      "##right": 958,
      "thr": 959,
      "gott": 960,
      "##ired": 961,
      "alright": 962,
      "writ": 963,
      "wondering": 964,
      "party": 965,
      "breathe": 966,
      "soul": 967,
      "favorite": 968,
      "fake": 969,
      "mor": 970,
      "own": 971,
      "##ip": 972,
      "##ny": 973,
      "##land": 974,
      "##ated": 975,
      "##ens": 976,
      "gold": 977,
      "##rew": 978,
      "wasn": 979,
      "doing": 980,
      "free": 981,
      "bright": 982,
      "cool": 983,
      "memories": 984,
      "act": 985,
      "deep": 986,
      "hidd": 987,
      "##eek": 988,
      "##bye": 989,
      "reali": 990,
      "goodbye": 991,
      "game": 992,
      "train": 993,
      "woods": 994,
      "okay": 995,
      "gotta": 996,
      "hidden": 997,
      "ap": 998,
      "sil": 999,
      "since": 1000,
      "tears": 1001,
      "##ace": 1002,
      "##led": 1003,
      "wel": 1004,
      "##oman": 1005,
      "##cho": 1006,
      "sad": 1007,
      "##unt": 1008,
      "write": 1009,
      "both": 1010,
      "stars": 1011,
      "fla": 1012,
      "showed": 1013,
      "hit": 1014,
      "jump": 1015,
      "luck": 1016,
      "##vin": 1017,
      "##ord": 1018,
      "##itar": 1019,
      "anymore": 1020,
      "guitar": 1021,
      "finally": 1022,
      "each": 1023,
      "##ress": 1024,
      "##ness": 1025,
      "##bb": 1026,
      "loving": 1027,
      "nights": 1028,
      "##imes": 1029,
      "spark": 1030,
      "##asy": 1031,
      "guy": 1032,
      "art": 1033,
      "count": 1034,
      "city": 1035,
      "dead": 1036,
      "line": 1037,
      "white": 1038,
      "somet": 1039,
      "spin": 1040,
      "anywhere": 1041,
      "walked": 1042,
      "crash": 1043,
      "singing": 1044,
      "pretty": 1045,
      "sky": 1046,
      "magic": 1047,
      "daddy": 1048,
      "morning": 1049,
      "welcome": 1050,
      "cri": 1051,
      "##art": 1052,
      "making": 1053,
      "makes": 1054,
      "changed": 1055,
      "single": 1056,
      "places": 1057,
      "floor": 1058,
      "mir": 1059,
      "pour": 1060,
      "tired": 1061,
      "##oth": 1062,
      "##ple": 1063,
      "##eric": 1064,
      "being": 1065,
      "beat": 1066,
      "##ster": 1067,
      "wake": 1068,
      "haunt": 1069,
      "shine": 1070,
      "rec": 1071,
      "cha": 1072,
      "girls": 1073,
      "called": 1074,
      "americ": 1075,
      "dece": 1076,
      "begin": 1077,
      "inside": 1078,
      "sometimes": 1079,
      "lou": 1080,
      "rome": 1081,
      "water": 1082,
      "##am": 1083,
      "##ious": 1084,
      "##co": 1085,
      "##ouse": 1086,
      "whis": 1087,
      "die": 1088,
      "##ote": 1089,
      "burning": 1090,
      "cross": 1091,
      "pretend": 1092,
      "huh": 1093,
      "2015": 1094,
      "romeo": 1095,
      "fig": 1096,
      "unt": 1097,
      "woman": 1098,
      "ya": 1099,
      "##ible": 1100,
      "##lm": 1101,
      "lips": 1102,
      "haven": 1103,
      "held": 1104,
      "somewhere": 1105,
      "asking": 1106,
      "black": 1107,
      "clean": 1108,
      "trust": 1109,
      "laughing": 1110,
      "lucky": 1111,
      "des": 1112,
      "ee": 1113,
      "fell": 1114,
      "gi": 1115,
      "ra": 1116,
      "sure": 1117,
      "##qu": 1118,
      "##ock": 1119,
      "##break": 1120,
      "throw": 1121,
      "##atter": 1122,
      "strong": 1123,
      "wrote": 1124,
      "##pped": 1125,
      "drop": 1126,
      "flash": 1127,
      "doesn": 1128,
      "promise": 1129,
      "screaming": 1130,
      "step": 1131,
      "heaven": 1132,
      "pouring": 1133,
      "american": 1134,
      "december": 1135,
      "eeh": 1136,
      "easy": 1137,
      "ke": 1138,
      "ru": 1139,
      "round": 1140,
      "sur": 1141,
      "##ial": 1142,
      "##ize": 1143,
      "##att": 1144,
      "##ones": 1145,
      "yours": 1146,
      "yourself": 1147,
      "speak": 1148,
      "heartbreak": 1149,
      "eye": 1150,
      "most": 1151,
      "arms": 1152,
      "happen": 1153,
      "learned": 1154,
      "aw": 1155,
      "dra": 1156,
      "ju": 1157,
      "vers": 1158,
      "##able": 1159,
      "##ild": 1160,
      "##oc": 1161,
      "##cy": 1162,
      "##ings": 1163,
      "stood": 1164,
      "##eel": 1165,
      "rep": 1166,
      "##oken": 1167,
      "##unk": 1168,
      "diff": 1169,
      "funny": 1170,
      "scared": 1171,
      "shame": 1172,
      "silence": 1173,
      "version": 1174,
      "house": 1175,
      "su": 1176,
      "wear": 1177,
      "##ons": 1178,
      "##ort": 1179,
      "##ids": 1180,
      "case": 1181,
      "fair": 1182,
      "gets": 1183,
      "swear": 1184,
      "drunk": 1185,
      "walking": 1186,
      "wildest": 1187,
      "crowd": 1188,
      "three": 1189,
      "air": 1190,
      "bu": 1191,
      "fan": 1192,
      "sim": 1193,
      "sick": 1194,
      "vi": 1195,
      "##vity": 1196,
      "##ner": 1197,
      "lie": 1198,
      "##ket": 1199,
      "stri": 1200,
      "##are": 1201,
      "hall": 1202,
      "word": 1203,
      "worst": 1204,
      "ready": 1205,
      "##lia": 1206,
      "roll": 1207,
      "move": 1208,
      "missing": 1209,
      "watching": 1210,
      "slow": 1211,
      "##cret": 1212,
      "sitting": 1213,
      "month": 1214,
      "apart": 1215,
      "spinning": 1216,
      "loud": 1217,
      "dis": 1218,
      "pea": 1219,
      "que": 1220,
      "ran": 1221,
      "ten": 1222,
      "##akes": 1223,
      "##ta": 1224,
      "##ith": 1225,
      "##oice": 1226,
      "##cc": 1227,
      "ones": 1228,
      "rem": 1229,
      "tim": 1230,
      "che": 1231,
      "worth": 1232,
      "blow": 1233,
      "tak": 1234,
      "##iles": 1235,
      "broken": 1236,
      "truck": 1237,
      "turned": 1238,
      "part": 1239,
      "happy": 1240,
      "crying": 1241,
      "##nelia": 1242,
      "cornelia": 1243,
      "peace": 1244,
      "catch": 1245,
      "mill": 1246,
      "si": 1247,
      "sound": 1248,
      "##su": 1249,
      "##ro": 1250,
      "##ror": 1251,
      "##bum": 1252,
      "##lous": 1253,
      "##uth": 1254,
      "stup": 1255,
      "caught": 1256,
      "album": 1257,
      "wouldn": 1258,
      "pray": 1259,
      "##ions": 1260,
      "cloth": 1261,
      "feels": 1262,
      "secret": 1263,
      "walls": 1264,
      "fearless": 1265,
      "pulled": 1266,
      "stupid": 1267,
      "bit": 1268,
      "gard": 1269,
      "lying": 1270,
      "mr": 1271,
      "mark": 1272,
      "##ful": 1273,
      "wast": 1274,
      "tied": 1275,
      "everyone": 1276,
      "looked": 1277,
      "tall": 1278,
      "taking": 1279,
      "care": 1280,
      "bye": 1281,
      "small": 1282,
      "moon": 1283,
      "page": 1284,
      "games": 1285,
      "##ift": 1286,
      "great": 1287,
      "green": 1288,
      "mmm": 1289,
      "listen": 1290,
      "mirror": 1291,
      "million": 1292,
      "ble": 1293,
      "col": 1294,
      "del": 1295,
      "##yle": 1296,
      "##vis": 1297,
      "##back": 1298,
      "##ount": 1299,
      "##orn": 1300,
      "##ute": 1301,
      "losing": 1302,
      "style": 1303,
      "##cks": 1304,
      "calm": 1305,
      "done": 1306,
      "##cher": 1307,
      "##raid": 1308,
      "ange": 1309,
      "alive": 1310,
      "clos": 1311,
      "##olog": 1312,
      "string": 1313,
      "aren": 1314,
      "ending": 1315,
      "afraid": 1316,
      "paint": 1317,
      "team": 1318,
      "writing": 1319,
      "until": 1320,
      "clothes": 1321,
      "app": 1322,
      "aug": 1323,
      "drew": 1324,
      "ends": 1325,
      "id": 1326,
      "pie": 1327,
      "set": 1328,
      "tre": 1329,
      "##ger": 1330,
      "##ss": 1331,
      "##ier": 1332,
      "##cket": 1333,
      "##ming": 1334,
      "##man": 1335,
      "##most": 1336,
      "##bo": 1337,
      "##inc": 1338,
      "##erent": 1339,
      "beh": 1340,
      "shot": 1341,
      "faith": 1342,
      "almost": 1343,
      "bla": 1344,
      "spe": 1345,
      "##ult": 1346,
      "talking": 1347,
      "##isted": 1348,
      "perfectly": 1349,
      "starts": 1350,
      "tried": 1351,
      "garden": 1352,
      "august": 1353,
      "dear": 1354,
      "gh": 1355,
      "gor": 1356,
      "ind": 1357,
      "mc": 1358,
      "mer": 1359,
      "rid": 1360,
      "tear": 1361,
      "##graw": 1362,
      "##ween": 1363,
      "##ove": 1364,
      "##night": 1365,
      "##zed": 1366,
      "##ines": 1367,
      "##iness": 1368,
      "##ises": 1369,
      "stair": 1370,
      "whenever": 1371,
      "fast": 1372,
      "##geous": 1373,
      "letter": 1374,
      "died": 1375,
      "stray": 1376,
      "strang": 1377,
      "wherever": 1378,
      "bring": 1379,
      "broke": 1380,
      "##eless": 1381,
      "chance": 1382,
      "dec": 1383,
      "twent": 1384,
      "dam": 1385,
      "underst": 1386,
      "quite": 1387,
      "between": 1388,
      "proble": 1389,
      "signs": 1390,
      "golden": 1391,
      "artist": 1392,
      "different": 1393,
      "simple": 1394,
      "ghost": 1395,
      "gorgeous": 1396,
      "mcgraw": 1397,
      "ad": 1398,
      "hang": 1399,
      "rest": 1400,
      "scho": 1401,
      "##side": 1402,
      "##net": 1403,
      "##mi": 1404,
      "##ste": 1405,
      "##ured": 1406,
      "child": 1407,
      "takes": 1408,
      "seco": 1409,
      "starlight": 1410,
      "truth": 1411,
      "moved": 1412,
      "ench": 1413,
      "##eeks": 1414,
      "sparks": 1415,
      "view": 1416,
      "behind": 1417,
      "school": 1418,
      "ri": 1419,
      "sli": 1420,
      "wine": 1421,
      "##away": 1422,
      "##sand": 1423,
      "##rop": 1424,
      "##pr": 1425,
      "##ane": 1426,
      "lives": 1427,
      "##thin": 1428,
      "##rought": 1429,
      "spell": 1430,
      "spot": 1431,
      "spend": 1432,
      "seat": 1433,
      "anyone": 1434,
      "ahh": 1435,
      "maca": 1436,
      "card": 1437,
      "##pect": 1438,
      "mistakes": 1439,
      "key": 1440,
      "ruin": 1441,
      "fairy": 1442,
      "taken": 1443,
      "problems": 1444,
      "macavity": 1445,
      "fad": 1446,
      "fade": 1447,
      "ima": 1448,
      "le": 1449,
      "mid": 1450,
      "pri": 1451,
      "rul": 1452,
      "sea": 1453,
      "##ia": 1454,
      "##ied": 1455,
      "##iet": 1456,
      "##of": 1457,
      "##cial": 1458,
      "##ene": 1459,
      "band": 1460,
      "half": 1461,
      "##ures": 1462,
      "seems": 1463,
      "fami": 1464,
      "##ents": 1465,
      "getaway": 1466,
      "prince": 1467,
      "stayed": 1468,
      "keeps": 1469,
      "holding": 1470,
      "watched": 1471,
      "boys": 1472,
      "scars": 1473,
      "promises": 1474,
      "sleeping": 1475,
      "passed": 1476,
      "hello": 1477,
      "figured": 1478,
      "giving": 1479,
      "strike": 1480,
      "queen": 1481,
      "##tale": 1482,
      "blame": 1483,
      "merry": 1484,
      "damn": 1485,
      "fairytale": 1486,
      "imag": 1487,
      "bus": 1488,
      "hide": 1489,
      "ja": 1490,
      "jean": 1491,
      "match": 1492,
      "pol": 1493,
      "##ember": 1494,
      "##ti": 1495,
      "##tin": 1496,
      "##umber": 1497,
      "##how": 1498,
      "##ought": 1499,
      "##vers": 1500,
      "stra": 1501,
      "##ary": 1502,
      "##ars": 1503,
      "thinkin": 1504,
      "princ": 1505,
      "shouldn": 1506,
      "sept": 1507,
      "needed": 1508,
      "woah": 1509,
      "though": 1510,
      "thousand": 1511,
      "foot": 1512,
      "exp": 1513,
      "forgot": 1514,
      "happiness": 1515,
      "conf": 1516,
      "quiet": 1517,
      "fighting": 1518,
      "killing": 1519,
      "flaw": 1520,
      "flashback": 1521,
      "months": 1522,
      "remind": 1523,
      "angel": 1524,
      "twenty": 1525,
      "midnight": 1526,
      "september": 1527,
      "batt": 1528,
      "brought": 1529,
      "joh": 1530,
      "min": 1531,
      "pre": 1532,
      "push": 1533,
      "such": 1534,
      "und": 1535,
      "wer": 1536,
      "##vent": 1537,
      "##erve": 1538,
      "##ense": 1539,
      "become": 1540,
      "##utation": 1541,
      "ball": 1542,
      "sho": 1543,
      "doll": 1544,
      "##reacher": 1545,
      "##ics": 1546,
      "##icate": 1547,
      "space": 1548,
      "dist": 1549,
      "thank": 1550,
      "kinda": 1551,
      "point": 1552,
      "started": 1553,
      "memory": 1554,
      "warm": 1555,
      "##eels": 1556,
      "reputation": 1557,
      "jeans": 1558,
      "straight": 1559,
      "princess": 1560,
      "john": 1561,
      "undone": 1562,
      "22": 1563,
      "ai": 1564,
      "cli": 1565,
      "dying": 1566,
      "few": 1567,
      "gown": 1568,
      "hon": 1569,
      "imp": 1570,
      "lone": 1571,
      "pers": 1572,
      "rather": 1573,
      "sat": 1574,
      "##ub": 1575,
      "##dream": 1576,
      "##bel": 1577,
      "##ball": 1578,
      "##ph": 1579,
      "##ating": 1580,
      "##ank": 1581,
      "inn": 1582,
      "inter": 1583,
      "sol": 1584,
      "shirt": 1585,
      "somehow": 1586,
      "##ope": 1587,
      "above": 1588,
      "assu": 1589,
      "daydream": 1590,
      "##uel": 1591,
      "switch": 1592,
      "mov": 1593,
      "least": 1594,
      "paper": 1595,
      "falling": 1596,
      "playing": 1597,
      "wonderland": 1598,
      "cruel": 1599,
      "quick": 1600,
      "skin": 1601,
      "coun": 1602,
      "pickup": 1603,
      "realize": 1604,
      "champ": 1605,
      "whisper": 1606,
      "drag": 1607,
      "wasted": 1608,
      "delicate": 1609,
      "idea": 1610,
      "weren": 1611,
      "assume": 1612,
      "acr": 1613,
      "bent": 1614,
      "bought": 1615,
      "dou": 1616,
      "fil": 1617,
      "heels": 1618,
      "lad": 1619,
      "pay": 1620,
      "res": 1621,
      "sid": 1622,
      "treacher": 1623,
      "##ast": 1624,
      "##em": 1625,
      "##eld": 1626,
      "##sy": 1627,
      "##ues": 1628,
      "##ich": 1629,
      "##iven": 1630,
      "##ips": 1631,
      "##ance": 1632,
      "inst": 1633,
      "invis": 1634,
      "loves": 1635,
      "##set": 1636,
      "knock": 1637,
      "##ches": 1638,
      "sal": 1639,
      "##adi": 1640,
      "class": 1641,
      "##ction": 1642,
      "dreaming": 1643,
      "tryin": 1644,
      "leaving": 1645,
      "breaking": 1646,
      "fool": 1647,
      "dev": 1648,
      "death": 1649,
      "turns": 1650,
      "##eful": 1651,
      "storm": 1652,
      "burned": 1653,
      "##anted": 1654,
      "cried": 1655,
      "haunted": 1656,
      "surpr": 1657,
      "pieces": 1658,
      "stranger": 1659,
      "rules": 1660,
      "solve": 1661,
      "across": 1662,
      "treacherous": 1663,
      "invisible": 1664,
      "born": 1665,
      "es": 1666,
      "fra": 1667,
      "father": 1668,
      "kids": 1669,
      "matter": 1670,
      "number": 1671,
      "rough": 1672,
      "sink": 1673,
      "ter": 1674,
      "tight": 1675,
      "voice": 1676,
      "##ac": 1677,
      "##ab": 1678,
      "##gr": 1679,
      "##uj": 1680,
      "##lic": 1681,
      "##ped": 1682,
      "##ined": 1683,
      "##ats": 1684,
      "lip": 1685,
      "##vered": 1686,
      "##velous": 1687,
      "outside": 1688,
      "##ung": 1689,
      "##ical": 1690,
      "blind": 1691,
      "willow": 1692,
      "hollow": 1693,
      "betty": 1694,
      "##igan": 1695,
      "keeping": 1696,
      "smoke": 1697,
      "##eluj": 1698,
      "flow": 1699,
      "folk": 1700,
      "daught": 1701,
      "crazier": 1702,
      "field": 1703,
      "sunset": 1704,
      "pictures": 1705,
      "shaking": 1706,
      "works": 1707,
      "grace": 1708,
      "shining": 1709,
      "marvelous": 1710,
      "##ude": 1711,
      "guys": 1712,
      "fancy": 1713,
      "halleluj": 1714,
      "special": 1715,
      "understand": 1716,
      "enchanted": 1717,
      "lonely": 1718,
      "hallelujah": 1719,
      "bir": 1720,
      "dirt": 1721,
      "jo": 1722,
      "money": 1723,
      "ob": 1724,
      "rum": 1725,
      "sup": 1726,
      "wide": 1727,
      "##ag": 1728,
      "##ender": 1729,
      "##drop": 1730,
      "##ian": 1731,
      "##cing": 1732,
      "##let": 1733,
      "##zz": 1734,
      "##zing": 1735,
      "##nding": 1736,
      "##ndon": 1737,
      "##ates": 1738,
      "##cked": 1739,
      "doin": 1740,
      "worse": 1741,
      "##liet": 1742,
      "holy": 1743,
      "self": 1744,
      "ago": 1745,
      "##pping": 1746,
      "book": 1747,
      "mama": 1748,
      "staring": 1749,
      "swe": 1750,
      "drink": 1751,
      "smiles": 1752,
      "hoping": 1753,
      "craw": 1754,
      "older": 1755,
      "##ations": 1756,
      "winter": 1757,
      "sneak": 1758,
      "realized": 1759,
      "crashing": 1760,
      "juliet": 1761,
      "teardrop": 1762,
      "cardigan": 1763,
      "flawless": 1764,
      "innoc": 1765,
      "daughter": 1766,
      "rumors": 1767,
      "super": 1768,
      "teardrops": 1769,
      "draw": 1770,
      "ear": 1771,
      "fit": 1772,
      "fate": 1773,
      "fift": 1774,
      "han": 1775,
      "later": 1776,
      "mis": 1777,
      "por": 1778,
      "rom": 1779,
      "radi": 1780,
      "use": 1781,
      "wra": 1782,
      "##ands": 1783,
      "##ges": 1784,
      "##ten": 1785,
      "##red": 1786,
      "##dom": 1787,
      "##vi": 1788,
      "threw": 1789,
      "##ory": 1790,
      "which": 1791,
      "int": 1792,
      "lies": 1793,
      "livin": 1794,
      "kni": 1795,
      "##ets": 1796,
      "shut": 1797,
      "shad": 1798,
      "knowing": 1799,
      "##une": 1800,
      "thinks": 1801,
      "cheeks": 1802,
      "whose": 1803,
      "reach": 1804,
      "##ester": 1805,
      "pride": 1806,
      "bless": 1807,
      "##venge": 1808,
      "sevent": 1809,
      "rose": 1810,
      "hero": 1811,
      "careless": 1812,
      "careful": 1813,
      "talks": 1814,
      "missed": 1815,
      "def": 1816,
      "plays": 1817,
      "played": 1818,
      "trave": 1819,
      "perman": 1820,
      "forgiven": 1821,
      "quest": 1822,
      "##anta": 1823,
      "flying": 1824,
      "shined": 1825,
      "brand": 1826,
      "july": 1827,
      "supp": 1828,
      "wearing": 1829,
      "artists": 1830,
      "second": 1831,
      "family": 1832,
      "battle": 1833,
      "surprise": 1834,
      "esca": 1835,
      "##enders": 1836,
      "fifteen": 1837,
      "hanging": 1838,
      "porch": 1839,
      "romant": 1840,
      "seventeen": 1841,
      "permanent": 1842,
      "16": 1843,
      "acc": 1844,
      "cre": 1845,
      "fre": 1846,
      "kitch": 1847,
      "low": 1848,
      "mot": 1849,
      "near": 1850,
      "none": 1851,
      "park": 1852,
      "sme": 1853,
      "##app": 1854,
      "##rated": 1855,
      "##con": 1856,
      "##frie": 1857,
      "##enn": 1858,
      "myst": 1859,
      "london": 1860,
      "bal": 1861,
      "reck": 1862,
      "regr": 1863,
      "revenge": 1864,
      "##lew": 1865,
      "##ition": 1866,
      "##cept": 1867,
      "cho": 1868,
      "blank": 1869,
      "names": 1870,
      "##olin": 1871,
      "swing": 1872,
      "drown": 1873,
      "talked": 1874,
      "twice": 1875,
      "cont": 1876,
      "convers": 1877,
      "dancin": 1878,
      "pretenders": 1879,
      "##shine": 1880,
      "others": 1881,
      "sunshine": 1882,
      "pocket": 1883,
      "moments": 1884,
      "##cred": 1885,
      "insane": 1886,
      "magnet": 1887,
      "cuts": 1888,
      "##ogn": 1889,
      "firef": 1890,
      "marry": 1891,
      "windows": 1892,
      "brave": 1893,
      "corner": 1894,
      "kingdom": 1895,
      "crowds": 1896,
      "flames": 1897,
      "crashed": 1898,
      "record": 1899,
      "recogn": 1900,
      "throwing": 1901,
      "color": 1902,
      "##ologue": 1903,
      "spelling": 1904,
      "honest": 1905,
      "person": 1906,
      "film": 1907,
      "terri": 1908,
      "kitchen": 1909,
      "##friend": 1910,
      "reckless": 1911,
      "magnetic": 1912,
      "19": 1913,
      "ed": 1914,
      "emp": 1915,
      "echo": 1916,
      "flew": 1917,
      "hor": 1918,
      "jok": 1919,
      "kid": 1920,
      "lord": 1921,
      "lines": 1922,
      "ride": 1923,
      "rush": 1924,
      "sight": 1925,
      "um": 1926,
      "week": 1927,
      "yester": 1928,
      "##gn": 1929,
      "##ees": 1930,
      "##cer": 1931,
      "##kin": 1932,
      "##pers": 1933,
      "##ati": 1934,
      "##lla": 1935,
      "its": 1936,
      "##edom": 1937,
      "##str": 1938,
      "knees": 1939,
      "shit": 1940,
      "ref": 1941,
      "island": 1942,
      "cand": 1943,
      "##itt": 1944,
      "whatever": 1945,
      "att": 1946,
      "sees": 1947,
      "##ppin": 1948,
      "bott": 1949,
      "calling": 1950,
      "waited": 1951,
      "##ils": 1952,
      "coll": 1953,
      "tree": 1954,
      "mother": 1955,
      "pack": 1956,
      "driving": 1957,
      "existed": 1958,
      "except": 1959,
      "stories": 1960,
      "rains": 1961,
      "shiny": 1962,
      "warning": 1963,
      "gray": 1964,
      "snow": 1965,
      "actress": 1966,
      "sparkling": 1967,
      "stronger": 1968,
      "disapp": 1969,
      "stairs": 1970,
      "busy": 1971,
      "movie": 1972,
      "counting": 1973,
      "instead": 1974,
      "innocent": 1975,
      "radio": 1976,
      "question": 1977,
      "freedom": 1978,
      "smell": 1979,
      "conversation": 1980,
      "recognize": 1981,
      "empty": 1982,
      "yesterday": 1983,
      "10": 1984,
      "age": 1985,
      "bull": 1986,
      "fli": 1987,
      "hush": 1988,
      "lay": 1989,
      "miles": 1990,
      "oc": 1991,
      "peak": 1992,
      "rare": 1993,
      "santa": 1994,
      "ty": 1995,
      "vow": 1996,
      "##alk": 1997,
      "##iest": 1998,
      "##ither": 1999,
      "##vol": 2000,
      "##com": 2001,
      "##ked": 2002,
      "##bt": 2003,
      "##ping": 2004,
      "##fair": 2005,
      "##nda": 2006,
      "top": 2007,
      "##ange": 2008,
      "rel": 2009,
      "rebel": 2010,
      "##lect": 2011,
      "nowhere": 2012,
      "##ready": 2013,
      "fault": 2014,
      "already": 2015,
      "choice": 2016,
      "##ices": 2017,
      "worry": 2018,
      "##lier": 2019,
      "##liar": 2020,
      "##liment": 2021,
      "clou": 2022,
      "telling": 2023,
      "heartbe": 2024,
      "nah": 2025,
      "##oted": 2026,
      "ours": 2027,
      "drug": 2028,
      "scene": 2029,
      "tryna": 2030,
      "lasts": 2031,
      "##case": 2032,
      "turning": 2033,
      "standin": 2034,
      "##osed": 2035,
      "twist": 2036,
      "twisted": 2037,
      "meant": 2038,
      "danced": 2039,
      "fix": 2040,
      "pool": 2041,
      "glow": 2042,
      "monologue": 2043,
      "asked": 2044,
      "compliment": 2045,
      "growing": 2046,
      "written": 2047,
      "crime": 2048,
      "happened": 2049,
      "blew": 2050,
      "bleed": 2051,
      "##ountain": 2052,
      "ghosts": 2053,
      "price": 2054,
      "shoes": 2055,
      "birth": 2056,
      "supposed": 2057,
      "bullet": 2058,
      "ocean": 2059,
      "13": 2060,
      "bur": 2061,
      "dust": 2062,
      "fill": 2063,
      "five": 2064,
      "fears": 2065,
      "hist": 2066,
      "jea": 2067,
      "mand": 2068,
      "nash": 2069,
      "prou": 2070,
      "sug": 2071,
      "tang": 2072,
      "##town": 2073,
      "##ward": 2074,
      "##wood": 2075,
      "##sed": 2076,
      "##uff": 2077,
      "##ring": 2078,
      "##den": 2079,
      "##vill": 2080,
      "##ber": 2081,
      "##lace": 2082,
      "##ering": 2083,
      "##atic": 2084,
      "##ealing": 2085,
      "##esh": 2086,
      "##esome": 2087,
      "##any": 2088,
      "lif": 2089,
      "waking": 2090,
      "waves": 2091,
      "bait": 2092,
      "shatter": 2093,
      "short": 2094,
      "revol": 2095,
      "butt": 2096,
      "fore": 2097,
      "cast": 2098,
      "capt": 2099,
      "##irty": 2100,
      "till": 2101,
      "safe": 2102,
      "saint": 2103,
      "##ric": 2104,
      "seem": 2105,
      "fact": 2106,
      "faster": 2107,
      "wants": 2108,
      "lakes": 2109,
      "table": 2110,
      "club": 2111,
      "hearts": 2112,
      "rocks": 2113,
      "usin": 2114,
      "swift": 2115,
      "walks": 2116,
      "covered": 2117,
      "wonderstr": 2118,
      "redne": 2119,
      "track": 2120,
      "affair": 2121,
      "brenda": 2122,
      "breathless": 2123,
      "harder": 2124,
      "##ney": 2125,
      "shape": 2126,
      "glass": 2127,
      "farm": 2128,
      "lately": 2129,
      "leads": 2130,
      "apolog": 2131,
      "chase": 2132,
      "whispers": 2133,
      "awesome": 2134,
      "buy": 2135,
      "six": 2136,
      "secrets": 2137,
      "bitter": 2138,
      "##boy": 2139,
      "faded": 2140,
      "season": 2141,
      "james": 2142,
      "minute": 2143,
      "champag": 2144,
      "doubt": 2145,
      "ladies": 2146,
      "crawling": 2147,
      "knife": 2148,
      "forgiveness": 2149,
      "escape": 2150,
      "jokes": 2151,
      "heartbeat": 2152,
      "jealous": 2153,
      "mandolin": 2154,
      "nashvill": 2155,
      "proud": 2156,
      "sugar": 2157,
      "tangled": 2158,
      "wonderstruck": 2159,
      "redneck": 2160,
      "champagne": 2161,
      "nashville": 2162,
      "11": 2163,
      "15": 2164,
      "12": 2165,
      "14": 2166,
      "aut": 2167,
      "bones": 2168,
      "din": 2169,
      "eight": 2170,
      "full": 2171,
      "gun": 2172,
      "gli": 2173,
      "har": 2174,
      "hour": 2175,
      "joke": 2176,
      "lee": 2177,
      "mountain": 2178,
      "sle": 2179,
      "wee": 2180,
      "wings": 2181,
      "##ele": 2182,
      "##tain": 2183,
      "##ually": 2184,
      "##ren": 2185,
      "##ond": 2186,
      "##oved": 2187,
      "##ced": 2188,
      "##la": 2189,
      "##fied": 2190,
      "##erm": 2191,
      "##ndred": 2192,
      "toy": 2193,
      "##eaking": 2194,
      "##stic": 2195,
      "##stick": 2196,
      "liked": 2197,
      "onto": 2198,
      "stream": 2199,
      "##eeze": 2200,
      "weather": 2201,
      "having": 2202,
      "##iday": 2203,
      "shade": 2204,
      "nothin": 2205,
      "##iting": 2206,
      "evermore": 2207,
      "sayin": 2208,
      "chain": 2209,
      "chas": 2210,
      "##ention": 2211,
      "blush": 2212,
      "strange": 2213,
      "bottle": 2214,
      "cars": 2215,
      "##used": 2216,
      "swee": 2217,
      "smil": 2218,
      "leaves": 2219,
      "amount": 2220,
      "enem": 2221,
      "players": 2222,
      "traged": 2223,
      "happens": 2224,
      "##ship": 2225,
      "believed": 2226,
      "dressed": 2227,
      "highest": 2228,
      "worked": 2229,
      "lovers": 2230,
      "hundred": 2231,
      "complic": 2232,
      "learn": 2233,
      "rings": 2234,
      "cursing": 2235,
      "##nessee": 2236,
      "country": 2237,
      "given": 2238,
      "awake": 2239,
      "rolled": 2240,
      "tennessee": 2241,
      "check": 2242,
      "##room": 2243,
      "colors": 2244,
      "setting": 2245,
      "riding": 2246,
      "spotlight": 2247,
      "keys": 2248,
      "ruining": 2249,
      "expl": 2250,
      "midnights": 2251,
      "dollars": 2252,
      "gowns": 2253,
      "salute": 2254,
      "lipstick": 2255,
      "dirtiest": 2256,
      "obs": 2257,
      "regret": 2258,
      "contr": 2259,
      "bottles": 2260,
      "history": 2261,
      "weeke": 2262,
      "18": 2263,
      "17": 2264,
      "bath": 2265,
      "bene": 2266,
      "cat": 2267,
      "cow": 2268,
      "dy": 2269,
      "dor": 2270,
      "dirty": 2271,
      "fut": 2272,
      "fuck": 2273,
      "gen": 2274,
      "ly": 2275,
      "mi": 2276,
      "muse": 2277,
      "path": 2278,
      "penn": 2279,
      "sent": 2280,
      "sist": 2281,
      "sud": 2282,
      "sense": 2283,
      "tee": 2284,
      "wound": 2285,
      "weak": 2286,
      "##gic": 2287,
      "##ses": 2288,
      "##hy": 2289,
      "##iv": 2290,
      "##vy": 2291,
      "##oz": 2292,
      "##matic": 2293,
      "##bor": 2294,
      "##lves": 2295,
      "##0s": 2296,
      "##inger": 2297,
      "##aters": 2298,
      "##ows": 2299,
      "lived": 2300,
      "likes": 2301,
      "##isk": 2302,
      "##ison": 2303,
      "lock": 2304,
      "stick": 2305,
      "straw": 2306,
      "stands": 2307,
      "stealing": 2308,
      "##aring": 2309,
      "##sequ": 2310,
      "##iding": 2311,
      "neck": 2312,
      "neither": 2313,
      "##lem": 2314,
      "wit": 2315,
      "##itter": 2316,
      "tip": 2317,
      "##che": 2318,
      "##urch": 2319,
      "ang": 2320,
      "##unch": 2321,
      "chick": 2322,
      "church": 2323,
      "note": 2324,
      "froz": 2325,
      "worship": 2326,
      "pres": 2327,
      "block": 2328,
      "taught": 2329,
      "##ewalk": 2330,
      "rosy": 2331,
      "wishin": 2332,
      "comb": 2333,
      "carry": 2334,
      "stare": 2335,
      "##ots": 2336,
      "brid": 2337,
      "moves": 2338,
      "guard": 2339,
      "minds": 2340,
      "remembered": 2341,
      "hopeless": 2342,
      "finding": 2343,
      "##lights": 2344,
      "tragic": 2345,
      "slee": 2346,
      "slope": 2347,
      "headlights": 2348,
      "putting": 2349,
      "winderm": 2350,
      "pebb": 2351,
      "plane": 2352,
      "concer": 2353,
      "consequ": 2354,
      "boyfriend": 2355,
      "messed": 2356,
      "skies": 2357,
      "phot": 2358,
      "poets": 2359,
      "grew": 2360,
      "prove": 2361,
      "beloved": 2362,
      "sleepless": 2363,
      "roads": 2364,
      "2018": 2365,
      "grown": 2366,
      "mistake": 2367,
      "brighter": 2368,
      "figure": 2369,
      "cleaning": 2370,
      "deserve": 2371,
      "kept": 2372,
      "crowded": 2373,
      "fans": 2374,
      "disco": 2375,
      "prayer": 2376,
      "closure": 2377,
      "apple": 2378,
      "##board": 2379,
      "ridin": 2380,
      "staircase": 2381,
      "pushed": 2382,
      "whispered": 2383,
      "sidewalk": 2384,
      "accid": 2385,
      "##cony": 2386,
      "balcony": 2387,
      "firefly": 2388,
      "flick": 2389,
      "peaks": 2390,
      "birthday": 2391,
      "##denly": 2392,
      "buttons": 2393,
      "beneath": 2394,
      "cowboy": 2395,
      "future": 2396,
      "sister": 2397,
      "suddenly": 2398,
      "frozen": 2399,
      "windermere": 2400,
      "pebbles": 2401,
      "consequence": 2402,
      "bor": 2403,
      "bone": 2404,
      "dim": 2405,
      "four": 2406,
      "hung": 2407,
      "ign": 2408,
      "lull": 2409,
      "men": 2410,
      "mas": 2411,
      "oct": 2412,
      "occ": 2413,
      "pin": 2414,
      "pet": 2415,
      "pill": 2416,
      "rust": 2417,
      "sear": 2418,
      "sna": 2419,
      "sens": 2420,
      "tat": 2421,
      "weeks": 2422,
      "##allow": 2423,
      "##ez": 2424,
      "##elier": 2425,
      "##tra": 2426,
      "##sw": 2427,
      "##ssing": 2428,
      "##umb": 2429,
      "##ual": 2430,
      "##ire": 2431,
      "##oe": 2432,
      "##ole": 2433,
      "##ober": 2434,
      "##cus": 2435,
      "##lest": 2436,
      "##liday": 2437,
      "thin": 2438,
      "##erv": 2439,
      "##nday": 2440,
      "##atur": 2441,
      "tor": 2442,
      "toast": 2443,
      "tossing": 2444,
      "##ences": 2445,
      "bein": 2446,
      "state": 2447,
      "##aries": 2448,
      "##etti": 2449,
      "##ider": 2450,
      "share": 2451,
      "reca": 2452,
      "forth": 2453,
      "force": 2454,
      "forward": 2455,
      "##reen": 2456,
      "casu": 2457,
      "cance": 2458,
      "##ode": 2459,
      "somethin": 2460,
      "seeing": 2461,
      "char": 2462,
      "chand": 2463,
      "##ico": 2464,
      "##ently": 2465,
      "land": 2466,
      "##fending": 2467,
      "hadn": 2468,
      "holiday": 2469,
      "diam": 2470,
      "##ctor": 2471,
      "ahead": 2472,
      "wished": 2473,
      "board": 2474,
      "swore": 2475,
      "swallow": 2476,
      "##umn": 2477,
      "dreamed": 2478,
      "cobb": 2479,
      "moving": 2480,
      "palm": 2481,
      "flight": 2482,
      "news": 2483,
      "##rowed": 2484,
      "chances": 2485,
      "falls": 2486,
      "expect": 2487,
      "dazz": 2488,
      "beauty": 2489,
      "crown": 2490,
      "streets": 2491,
      "streetlight": 2492,
      "breathing": 2493,
      "##iction": 2494,
      "closet": 2495,
      "proof": 2496,
      "sounds": 2497,
      "##perate": 2498,
      "reasons": 2499,
      "colder": 2500,
      "hurts": 2501,
      "##othea": 2502,
      "pretending": 2503,
      "desperate": 2504,
      "hallway": 2505,
      "marker": 2506,
      "greatest": 2507,
      "appla": 2508,
      "trend": 2509,
      "add": 2510,
      "seconds": 2511,
      "slipped": 2512,
      "leg": 2513,
      "reminds": 2514,
      "distance": 2515,
      "sneakin": 2516,
      "drawer": 2517,
      "misery": 2518,
      "wrapped": 2519,
      "shadows": 2520,
      "romantics": 2521,
      "choose": 2522,
      "honestly": 2523,
      "horse": 2524,
      "enemies": 2525,
      "tragedy": 2526,
      "obsess": 2527,
      "control": 2528,
      "dorothea": 2529,
      "angry": 2530,
      "hopelessly": 2531,
      "concerned": 2532,
      "october": 2533,
      "search": 2534,
      "tatto": 2535,
      "##lestones": 2536,
      "recall": 2537,
      "casually": 2538,
      "chandelier": 2539,
      "cobblestones": 2540,
      "aven": 2541,
      "bill": 2542,
      "cir": 2543,
      "cent": 2544,
      "det": 2545,
      "dest": 2546,
      "ella": 2547,
      "fur": 2548,
      "fant": 2549,
      "gent": 2550,
      "gather": 2551,
      "hun": 2552,
      "june": 2553,
      "pow": 2554,
      "patch": 2555,
      "pati": 2556,
      "ret": 2557,
      "rude": 2558,
      "risk": 2559,
      "rico": 2560,
      "sy": 2561,
      "sin": 2562,
      "sir": 2563,
      "sus": 2564,
      "vo": 2565,
      "wed": 2566,
      "west": 2567,
      "##az": 2568,
      "##act": 2569,
      "##gin": 2570,
      "##ey": 2571,
      "##ton": 2572,
      "##we": 2573,
      "##so": 2574,
      "##mers": 2575,
      "##bly": 2576,
      "##bby": 2577,
      "##lo": 2578,
      "##ler": 2579,
      "##line": 2580,
      "tomor": 2581,
      "##anting": 2582,
      "inez": 2583,
      "##utes": 2584,
      "##ution": 2585,
      "##sty": 2586,
      "##vement": 2587,
      "##ised": 2588,
      "los": 2589,
      "lovin": 2590,
      "stage": 2591,
      "##aro": 2592,
      "##selves": 2593,
      "ship": 2594,
      "reli": 2595,
      "ohh": 2596,
      "cab": 2597,
      "##ities": 2598,
      "##itude": 2599,
      "##ird": 2600,
      "##chet": 2601,
      "sacred": 2602,
      "##raph": 2603,
      "##rill": 2604,
      "##nal": 2605,
      "##ically": 2606,
      "law": 2607,
      "abs": 2608,
      "frust": 2609,
      "fresh": 2610,
      "blues": 2611,
      "##lies": 2612,
      "ways": 2613,
      "spite": 2614,
      "speaking": 2615,
      "tells": 2616,
      "tellin": 2617,
      "holes": 2618,
      "named": 2619,
      "rock": 2620,
      "comin": 2621,
      "needing": 2622,
      "boat": 2623,
      "woke": 2624,
      "mall": 2625,
      "master": 2626,
      "makin": 2627,
      "calls": 2628,
      "score": 2629,
      "brother": 2630,
      "breeze": 2631,
      "coat": 2632,
      "trop": 2633,
      "##toes": 2634,
      "paid": 2635,
      "hopes": 2636,
      "##ified": 2637,
      "thoughts": 2638,
      "arm": 2639,
      "overd": 2640,
      "exc": 2641,
      "##ational": 2642,
      "kissed": 2643,
      "planned": 2644,
      "ski": 2645,
      "couple": 2646,
      "stopped": 2647,
      "became": 2648,
      "forgetting": 2649,
      "glitter": 2650,
      "picking": 2651,
      "picked": 2652,
      "sweetest": 2653,
      "screams": 2654,
      "signal": 2655,
      "##ouchable": 2656,
      "##ograph": 2657,
      "teach": 2658,
      "mistlet": 2659,
      "hits": 2660,
      "mirac": 2661,
      "untouchable": 2662,
      "deser": 2663,
      "rule": 2664,
      "happening": 2665,
      "queens": 2666,
      "sipped": 2667,
      "tallest": 2668,
      "mirrorball": 2669,
      "closer": 2670,
      "closest": 2671,
      "painted": 2672,
      "piece": 2673,
      "trees": 2674,
      "letters": 2675,
      "fading": 2676,
      "imagined": 2677,
      "matches": 2678,
      "polaro": 2679,
      "minutes": 2680,
      "cliff": 2681,
      "internet": 2682,
      "quicker": 2683,
      "respect": 2684,
      "knocked": 2685,
      "salt": 2686,
      "devoted": 2687,
      "flowers": 2688,
      "sweat": 2689,
      "drowning": 2690,
      "terribly": 2691,
      "candle": 2692,
      "colle": 2693,
      "disappear": 2694,
      "lifet": 2695,
      "shattered": 2696,
      "apologize": 2697,
      "autumn": 2698,
      "weekend": 2699,
      "##lemen": 2700,
      "witches": 2701,
      "tiptoes": 2702,
      "combat": 2703,
      "sleeve": 2704,
      "accidents": 2705,
      "dazzling": 2706,
      "applause": 2707,
      "gentlemen": 2708,
      "ricochet": 2709,
      "voices": 2710,
      "tomorrow": 2711,
      "mistletoe": 2712,
      "90s": 2713,
      "aim": 2714,
      "aah": 2715,
      "bound": 2716,
      "cy": 2717,
      "cele": 2718,
      "era": 2719,
      "freck": 2720,
      "fiction": 2721,
      "gate": 2722,
      "hum": 2723,
      "haters": 2724,
      "hiding": 2725,
      "jan": 2726,
      "lake": 2727,
      "linger": 2728,
      "matt": 2729,
      "owe": 2730,
      "pur": 2731,
      "pitt": 2732,
      "roman": 2733,
      "sell": 2734,
      "squ": 2735,
      "vall": 2736,
      "vint": 2737,
      "yo": 2738,
      "yard": 2739,
      "##ak": 2740,
      "##gs": 2741,
      "##ground": 2742,
      "##gue": 2743,
      "##ux": 2744,
      "##uary": 2745,
      "##down": 2746,
      "##ha": 2747,
      "##hen": 2748,
      "##ime": 2749,
      "##oat": 2750,
      "##oon": 2751,
      "##ott": 2752,
      "##mo": 2753,
      "##mm": 2754,
      "##bles": 2755,
      "##bab": 2756,
      "##face": 2757,
      "##atin": 2758,
      "##enger": 2759,
      "mel": 2760,
      "mend": 2761,
      "incred": 2762,
      "myth": 2763,
      "load": 2764,
      "stone": 2765,
      "stones": 2766,
      "stole": 2767,
      "wander": 2768,
      "haze": 2769,
      "##ided": 2770,
      "##lex": 2771,
      "camer": 2772,
      "doctor": 2773,
      "outs": 2774,
      "##ramatic": 2775,
      "answ": 2776,
      "false": 2777,
      "chair": 2778,
      "##icult": 2779,
      "lookin": 2780,
      "hears": 2781,
      "wanting": 2782,
      "prod": 2783,
      "tax": 2784,
      "taste": 2785,
      "letting": 2786,
      "cla": 2787,
      "hot": 2788,
      "holly": 2789,
      "dies": 2790,
      "seven": 2791,
      "roof": 2792,
      "needs": 2793,
      "box": 2794,
      "##ters": 2795,
      "swim": 2796,
      "against": 2797,
      "screen": 2798,
      "coff": 2799,
      "leavin": 2800,
      "pacing": 2801,
      "pavement": 2802,
      "##eets": 2803,
      "holds": 2804,
      "breaks": 2805,
      "danger": 2806,
      "changing": 2807,
      "dep": 2808,
      "defending": 2809,
      "archer": 2810,
      "traff": 2811,
      "endless": 2812,
      "beach": 2813,
      "perf": 2814,
      "kissing": 2815,
      "parents": 2816,
      "meetings": 2817,
      "##ptions": 2818,
      "contin": 2819,
      "##sheets": 2820,
      "handsome": 2821,
      "opin": 2822,
      "bigger": 2823,
      "##ossible": 2824,
      "gla": 2825,
      "glad": 2826,
      "probab": 2827,
      "musical": 2828,
      "grab": 2829,
      "grass": 2830,
      "christmases": 2831,
      "shines": 2832,
      "passenger": 2833,
      "##irts": 2834,
      "bedsheets": 2835,
      "complex": 2836,
      "bars": 2837,
      "lesson": 2838,
      "groc": 2839,
      "curr": 2840,
      "curious": 2841,
      "throat": 2842,
      "jumping": 2843,
      "##bbit": 2844,
      "beating": 2845,
      "rabbit": 2846,
      "##quest": 2847,
      "stephen": 2848,
      "surface": 2849,
      "replace": 2850,
      "difficult": 2851,
      "sunday": 2852,
      "build": 2853,
      "blows": 2854,
      "parties": 2855,
      "catching": 2856,
      "##roy": 2857,
      "sett": 2858,
      "shots": 2859,
      "strangers": 2860,
      "decide": 2861,
      "enchanting": 2862,
      "familiar": 2863,
      "imagine": 2864,
      "##time": 2865,
      "football": 2866,
      "confetti": 2867,
      "angels": 2868,
      "distra": 2869,
      "climb": 2870,
      "impress": 2871,
      "impossible": 2872,
      "dragons": 2873,
      "double": 2874,
      "lady": 2875,
      "sides": 2876,
      "classic": 2877,
      "devil": 2878,
      "smokey": 2879,
      "superman": 2880,
      "wrap": 2881,
      "romantic": 2882,
      "edge": 2883,
      "echoes": 2884,
      "attitude": 2885,
      "type": 2886,
      "priceless": 2887,
      "filled": 2888,
      "revolution": 2889,
      "castle": 2890,
      "dinner": 2891,
      "hours": 2892,
      "blushing": 2893,
      "smiled": 2894,
      "gener": 2895,
      "pennies": 2896,
      "chicks": 2897,
      "borrowed": 2898,
      "peter": 2899,
      "pillow": 2900,
      "boarded": 2901,
      "tattoo": 2902,
      "avenue": 2903,
      "deta": 2904,
      "destroy": 2905,
      "fantasy": 2906,
      "power": 2907,
      "frustrated": 2908,
      "overdramatic": 2909,
      "miracle": 2910,
      "cliffside": 2911,
      "celeb": 2912,
      "january": 2913,
      "valley": 2914,
      "vintage": 2915,
      "incredible": 2916,
      "answer": 2917,
      "coffee": 2918,
      "traffic": 2919,
      "probably": 2920,
      "25": 2921,
      "ay": 2922,
      "aids": 2923,
      "ben": 2924,
      "bri": 2925,
      "bitch": 2926,
      "dea": 2927,
      "den": 2928,
      "date": 2929,
      "dean": 2930,
      "ep": 2931,
      "ele": 2932,
      "elect": 2933,
      "fing": 2934,
      "fri": 2935,
      "hind": 2936,
      "hmm": 2937,
      "icy": 2938,
      "jes": 2939,
      "jew": 2940,
      "lump": 2941,
      "natur": 2942,
      "pink": 2943,
      "pian": 2944,
      "rage": 2945,
      "rode": 2946,
      "son": 2947,
      "serve": 2948,
      "te": 2949,
      "tying": 2950,
      "tune": 2951,
      "umb": 2952,
      "vis": 2953,
      "vide": 2954,
      "voc": 2955,
      "vac": 2956,
      "wom": 2957,
      "##ax": 2958,
      "##sa": 2959,
      "##sc": 2960,
      "##sp": 2961,
      "##sight": 2962,
      "##dam": 2963,
      "##ily": 2964,
      "##vious": 2965,
      "##vable": 2966,
      "##noon": 2967,
      "##kers": 2968,
      "##kirts": 2969,
      "##long": 2970,
      "##pro": 2971,
      "thе": 2972,
      "thrill": 2973,
      "toler": 2974,
      "##org": 2975,
      "##ored": 2976,
      "med": 2977,
      "bell": 2978,
      "becom": 2979,
      "ing": 2980,
      "myster": 2981,
      "##ism": 2982,
      "lobby": 2983,
      "stol": 2984,
      "stakes": 2985,
      "stuff": 2986,
      "wax": 2987,
      "wave": 2988,
      "##arter": 2989,
      "knelt": 2990,
      "bab": 2991,
      "##rella": 2992,
      "##ustry": 2993,
      "##its": 2994,
      "##ited": 2995,
      "lovely": 2996,
      "saved": 2997,
      "upon": 2998,
      "seein": 2999,
      "everyday": 3000,
      "##read": 3001,
      "also": 3002,
      "chill": 3003,
      "chose": 3004,
      "##ained": 3005,
      "downtown": 3006,
      "notice": 3007,
      "lame": 3008,
      "label": 3009,
      "wore": 3010,
      "working": 3011,
      "spir": 3012,
      "spent": 3013,
      "##asion": 3014,
      "eyed": 3015,
      "##ished": 3016,
      "hole": 3017,
      "diary": 3018,
      "shoulda": 3019,
      "send": 3020,
      "roots": 3021,
      "bette": 3022,
      "stress": 3023,
      "comm": 3024,
      "lightning": 3025,
      "starin": 3026,
      "stares": 3027,
      "makeup": 3028,
      "longest": 3029,
      "hometown": 3030,
      "##ility": 3031,
      "lasted": 3032,
      "cover": 3033,
      "##els": 3034,
      "##arks": 3035,
      "holdin": 3036,
      "##als": 3037,
      "##iff": 3038,
      "playground": 3039,
      "wonderin": 3040,
      "wonderful": 3041,
      "singer": 3042,
      "##osition": 3043,
      "tweet": 3044,
      "drivin": 3045,
      "trace": 3046,
      "ended": 3047,
      "slam": 3048,
      "exile": 3049,
      "exact": 3050,
      "headlong": 3051,
      "plastic": 3052,
      "rainy": 3053,
      "davis": 3054,
      "doorste": 3055,
      "scarlet": 3056,
      "sunny": 3057,
      "hardwood": 3058,
      "couch": 3059,
      "stopping": 3060,
      "followed": 3061,
      "grey": 3062,
      "200": 3063,
      "summers": 3064,
      "wins": 3065,
      "afternoon": 3066,
      "magaz": 3067,
      "hurry": 3068,
      "trip": 3069,
      "goddam": 3070,
      "bedroom": 3071,
      "##orks": 3072,
      "brad": 3073,
      "kings": 3074,
      "##ments": 3075,
      "company": 3076,
      "bare": 3077,
      "lots": 3078,
      "heal": 3079,
      "actually": 3080,
      "realizing": 3081,
      "sadness": 3082,
      "flame": 3083,
      "louis": 3084,
      "crossed": 3085,
      "dropped": 3086,
      "drama": 3087,
      "apartment": 3088,
      "cheat": 3089,
      "blowing": 3090,
      "wasting": 3091,
      "moonlight": 3092,
      "listening": 3093,
      "angeles": 3094,
      "industry": 3095,
      "understands": 3096,
      "##steps": 3097,
      "children": 3098,
      "river": 3099,
      "spending": 3100,
      "imagin": 3101,
      "polit": 3102,
      "footsteps": 3103,
      "confess": 3104,
      "confused": 3105,
      "flashbacks": 3106,
      "prey": 3107,
      "shoot": 3108,
      "pointed": 3109,
      "movies": 3110,
      "champion": 3111,
      "frames": 3112,
      "numbers": 3113,
      "sinking": 3114,
      "superst": 3115,
      "early": 3116,
      "defense": 3117,
      "travell": 3118,
      "crept": 3119,
      "motion": 3120,
      "mystery": 3121,
      "mystified": 3122,
      "terrified": 3123,
      "reflect": 3124,
      "clouds": 3125,
      "cloudy": 3126,
      "jealousy": 3127,
      "glist": 3128,
      "mountains": 3129,
      "slept": 3130,
      "toys": 3131,
      "streaming": 3132,
      "chasing": 3133,
      "sweeter": 3134,
      "explain": 3135,
      "lyric": 3136,
      "carrying": 3137,
      "discovered": 3138,
      "flickering": 3139,
      "occasion": 3140,
      "canceled": 3141,
      "diamond": 3142,
      "swallowing": 3143,
      "hunters": 3144,
      "return": 3145,
      "symp": 3146,
      "trophy": 3147,
      "exciting": 3148,
      "polaroids": 3149,
      "freckles": 3150,
      "mattress": 3151,
      "mythical": 3152,
      "loaded": 3153,
      "outskirts": 3154,
      "produ": 3155,
      "taxi": 3156,
      "continue": 3157,
      "opinion": 3158,
      "glaad": 3159,
      "current": 3160,
      "distraction": 3161,
      "ayy": 3162,
      "fingers": 3163,
      "hindsight": 3164,
      "jesus": 3165,
      "piano": 3166,
      "temp": 3167,
      "umbrella": 3168,
      "video": 3169,
      "women": 3170,
      "##proof": 3171,
      "mysterious": 3172,
      "stolen": 3173,
      "doorstep": 3174,
      "goddamn": 3175,
      "30": 3176,
      "av": 3177,
      "ac": 3178,
      "ache": 3179,
      "bear": 3180,
      "cell": 3181,
      "cure": 3182,
      "dry": 3183,
      "este": 3184,
      "fe": 3185,
      "ft": 3186,
      "fif": 3187,
      "hill": 3188,
      "hors": 3189,
      "hunt": 3190,
      "ir": 3191,
      "ill": 3192,
      "ice": 3193,
      "ivy": 3194,
      "jack": 3195,
      "jud": 3196,
      "lunch": 3197,
      "mou": 3198,
      "mention": 3199,
      "nick": 3200,
      "nerv": 3201,
      "national": 3202,
      "pat": 3203,
      "ped": 3204,
      "pir": 3205,
      "psy": 3206,
      "rent": 3207,
      "ruth": 3208,
      "ser": 3209,
      "tow": 3210,
      "tough": 3211,
      "tend": 3212,
      "ur": 3213,
      "ver": 3214,
      "val": 3215,
      "wider": 3216,
      "##gu": 3217,
      "##gile": 3218,
      "##te": 3219,
      "##ts": 3220,
      "##tic": 3221,
      "##wr": 3222,
      "##ding": 3223,
      "##dest": 3224,
      "##hood": 3225,
      "##ib": 3226,
      "##iences": 3227,
      "##van": 3228,
      "##old": 3229,
      "##oom": 3230,
      "##ook": 3231,
      "##nin": 3232,
      "##nes": 3233,
      "##bed": 3234,
      "##low": 3235,
      "##lit": 3236,
      "##lore": 3237,
      "##leep": 3238,
      "##post": 3239,
      "##pical": 3240,
      "##fa": 3241,
      "##fall": 3242,
      "##еr": 3243,
      "##ounds": 3244,
      "##erf": 3245,
      "##erence": 3246,
      "##ndy": 3247,
      "##ator": 3248,
      "tore": 3249,
      "##orm": 3250,
      "##ords": 3251,
      "##ena": 3252,
      "##ans": 3253,
      "##anc": 3254,
      "wheel": 3255,
      "inf": 3256,
      "##stain": 3257,
      "lit": 3258,
      "##vel": 3259,
      "##thear": 3260,
      "loss": 3261,
      "stuck": 3262,
      "weird": 3263,
      "wendy": 3264,
      "##ara": 3265,
      "base": 3266,
      "bags": 3267,
      "haa": 3268,
      "##ides": 3269,
      "shop": 3270,
      "ships": 3271,
      "rece": 3272,
      "request": 3273,
      "neon": 3274,
      "##rect": 3275,
      "wash": 3276,
      "tick": 3277,
      "dog": 3278,
      "##ched": 3279,
      "##ury": 3280,
      "anth": 3281,
      "antic": 3282,
      "everywhere": 3283,
      "fame": 3284,
      "fakers": 3285,
      "chor": 3286,
      "chim": 3287,
      "gettin": 3288,
      "able": 3289,
      "ass": 3290,
      "ash": 3291,
      "asleep": 3292,
      "##estim": 3293,
      "blur": 3294,
      "blink": 3295,
      "tales": 3296,
      "tape": 3297,
      "tables": 3298,
      "lettin": 3299,
      "clown": 3300,
      "spill": 3301,
      "spring": 3302,
      "hood": 3303,
      "dice": 3304,
      "sequ": 3305,
      "anyway": 3306,
      "anybody": 3307,
      "anytime": 3308,
      "robb": 3309,
      "roses": 3310,
      "usually": 3311,
      "##cted": 3312,
      "staying": 3313,
      "girlfriend": 3314,
      "wishes": 3315,
      "strug": 3316,
      "ages": 3317,
      "bond": 3318,
      "starting": 3319,
      "starring": 3320,
      "##usion": 3321,
      "sweep": 3322,
      "runs": 3323,
      "drum": 3324,
      "dreamer": 3325,
      "##ilt": 3326,
      "brown": 3327,
      "cond": 3328,
      "cost": 3329,
      "coast": 3330,
      "movin": 3331,
      "pair": 3332,
      "pages": 3333,
      "##ards": 3334,
      "flush": 3335,
      "breakin": 3336,
      "fox": 3337,
      "focus": 3338,
      "fallout": 3339,
      "##belie": 3340,
      "forevermore": 3341,
      "##cap": 3342,
      "wondered": 3343,
      "twin": 3344,
      "drives": 3345,
      "exist": 3346,
      "exper": 3347,
      "dawn": 3348,
      "##ationsh": 3349,
      "younger": 3350,
      "underne": 3351,
      "underestim": 3352,
      "cru": 3353,
      "creek": 3354,
      "parade": 3355,
      "##ptide": 3356,
      "doors": 3357,
      "planning": 3358,
      "const": 3359,
      "believing": 3360,
      "skirt": 3361,
      "##antly": 3362,
      "laughed": 3363,
      "darkest": 3364,
      "fights": 3365,
      "poet": 3366,
      "memorize": 3367,
      "highly": 3368,
      "bloodstain": 3369,
      "feelings": 3370,
      "glea": 3371,
      "grand": 3372,
      "gravity": 3373,
      "firew": 3374,
      "passing": 3375,
      "trick": 3376,
      "reading": 3377,
      "bedpost": 3378,
      "finish": 3379,
      "east": 3380,
      "monster": 3381,
      "steppin": 3382,
      "unf": 3383,
      "unbelie": 3384,
      "lessons": 3385,
      "touching": 3386,
      "curse": 3387,
      "killed": 3388,
      "leading": 3389,
      "silent": 3390,
      "counts": 3391,
      "magical": 3392,
      "chalk": 3393,
      "beginning": 3394,
      "heartbreaks": 3395,
      "heartbreakers": 3396,
      "suit": 3397,
      "built": 3398,
      "slowly": 3399,
      "takin": 3400,
      "peaceful": 3401,
      "sixt": 3402,
      "praying": 3403,
      "marked": 3404,
      "treat": 3405,
      "indiff": 3406,
      "decade": 3407,
      "decided": 3408,
      "adm": 3409,
      "childhood": 3410,
      "ribb": 3411,
      "riptide": 3412,
      "levi": 3413,
      "prize": 3414,
      "battles": 3415,
      "honor": 3416,
      "satis": 3417,
      "switched": 3418,
      "frame": 3419,
      "fragile": 3420,
      "##abies": 3421,
      "folklore": 3422,
      "obvious": 3423,
      "drinking": 3424,
      "fits": 3425,
      "reaching": 3426,
      "travel": 3427,
      "motown": 3428,
      "parking": 3429,
      "pockets": 3430,
      "fireflies": 3431,
      "cornered": 3432,
      "198": 3433,
      "echoed": 3434,
      "candles": 3435,
      "typical": 3436,
      "relationsh": 3437,
      "bleedin": 3438,
      "capture": 3439,
      "captiv": 3440,
      "bitterness": 3441,
      "chasin": 3442,
      "complicated": 3443,
      "milk": 3444,
      "present": 3445,
      "bridge": 3446,
      "photograph": 3447,
      "lullabies": 3448,
      "sensual": 3449,
      "tort": 3450,
      "desperately": 3451,
      "searching": 3452,
      "bills": 3453,
      "patience": 3454,
      "skipping": 3455,
      "deserved": 3456,
      "college": 3457,
      "lifetime": 3458,
      "cyn": 3459,
      "romance": 3460,
      "camera": 3461,
      "grocery": 3462,
      "settle": 3463,
      "details": 3464,
      "celebrated": 3465,
      "deal": 3466,
      "electric": 3467,
      "tolerate": 3468,
      "babies": 3469,
      "spirit": 3470,
      "slamming": 3471,
      "exactly": 3472,
      "politics": 3473,
      "superstar": 3474,
      "travelled": 3475,
      "glisten": 3476,
      "horses": 3477,
      "judge": 3478,
      "mouth": 3479,
      "nervous": 3480,
      "psycho": 3481,
      "recei": 3482,
      "anticip": 3483,
      "chimney": 3484,
      "sequin": 3485,
      "strugg": 3486,
      "underneath": 3487,
      "unbelievable": 3488,
      "relationships": 3489,
      "21": 3490,
      "2am": 3491,
      "ax": 3492,
      "ais": 3493,
      "bow": 3494,
      "bite": 3495,
      "creak": 3496,
      "dom": 3497,
      "eas": 3498,
      "gy": 3499,
      "ge": 3500,
      "gig": 3501,
      "grie": 3502,
      "hust": 3503,
      "hom": 3504,
      "hips": 3505,
      "jet": 3506,
      "nines": 3507,
      "opt": 3508,
      "pi": 3509,
      "pure": 3510,
      "port": 3511,
      "pub": 3512,
      "rope": 3513,
      "rhy": 3514,
      "tis": 3515,
      "tir": 3516,
      "test": 3517,
      "tour": 3518,
      "tues": 3519,
      "tele": 3520,
      "tux": 3521,
      "##aur": 3522,
      "##aby": 3523,
      "##azing": 3524,
      "##gan": 3525,
      "##gun": 3526,
      "##gion": 3527,
      "##gean": 3528,
      "##gress": 3529,
      "##ted": 3530,
      "##ws": 3531,
      "##word": 3532,
      "##ume": 3533,
      "##res": 3534,
      "##ratch": 3535,
      "##ded": 3536,
      "##hany": 3537,
      "##ially": 3538,
      "##ized": 3539,
      "##vide": 3540,
      "##oy": 3541,
      "##oad": 3542,
      "##nel": 3543,
      "##number": 3544,
      "##cur": 3545,
      "##core": 3546,
      "##kah": 3547,
      "##bot": 3548,
      "##lin": 3549,
      "##pl": 3550,
      "##par": 3551,
      "##pic": 3552,
      "##pons": 3553,
      "##ft": 3554,
      "##fic": 3555,
      "##еs": 3556,
      "##еn": 3557,
      "##jor": 3558,
      "##oun": 3559,
      "thug": 3560,
      "thread": 3561,
      "##ina": 3562,
      "##ins": 3563,
      "##eran": 3564,
      "##erati": 3565,
      "##eroom": 3566,
      "##ators": 3567,
      "##met": 3568,
      "inc": 3569,
      "incon": 3570,
      "liar": 3571,
      "##key": 3572,
      "locket": 3573,
      "locked": 3574,
      "sta": 3575,
      "sting": 3576,
      "steel": 3577,
      "haul": 3578,
      "##ette": 3579,
      "rebe": 3580,
      "neigh": 3581,
      "noose": 3582,
      "noise": 3583,
      "wire": 3584,
      "wife": 3585,
      "wicked": 3586,
      "##usting": 3587,
      "cal": 3588,
      "cafe": 3589,
      "casc": 3590,
      "##ital": 3591,
      "ticket": 3592,
      "cann": 3593,
      "##cht": 3594,
      "##chers": 3595,
      "sabot": 3596,
      "##rous": 3597,
      "outta": 3598,
      "outnumber": 3599,
      "##oking": 3600,
      "##okies": 3601,
      "veil": 3602,
      "ifs": 3603,
      "##ried": 3604,
      "##adise": 3605,
      "##unity": 3606,
      "everythin": 3607,
      "##nasty": 3608,
      "faking": 3609,
      "chest": 3610,
      "chos": 3611,
      "##icit": 3612,
      "plain": 3613,
      "plus": 3614,
      "##entions": 3615,
      "sheeran": 3616,
      "laid": 3617,
      "##estine": 3618,
      "##illy": 3619,
      "prop": 3620,
      "blea": 3621,
      "cland": 3622,
      "clock": 3623,
      "clues": 3624,
      "feelin": 3625,
      "spee": 3626,
      "madness": 3627,
      "hadid": 3628,
      "##veni": 3629,
      "##ateboard": 3630,
      "hoax": 3631,
      "hosp": 3632,
      "nasty": 3633,
      "dig": 3634,
      "dign": 3635,
      "shoulders": 3636,
      "roaring": 3637,
      "stayin": 3638,
      "wishful": 3639,
      "bother": 3640,
      "boots": 3641,
      "cara": 3642,
      "callin": 3643,
      "##ulations": 3644,
      "##athy": 3645,
      "office": 3646,
      "ourselves": 3647,
      "organ": 3648,
      "##umptions": 3649,
      "dreamt": 3650,
      "dreamin": 3651,
      "dreamland": 3652,
      "homeland": 3653,
      "##ign": 3654,
      "##iler": 3655,
      "scratch": 3656,
      "smarter": 3657,
      "bru": 3658,
      "britt": 3659,
      "broad": 3660,
      "cock": 3661,
      "cookies": 3662,
      "mosa": 3663,
      "guest": 3664,
      "##itely": 3665,
      "pale": 3666,
      "pagean": 3667,
      "songwr": 3668,
      "breakup": 3669,
      "breakable": 3670,
      "amazing": 3671,
      "cracks": 3672,
      "mission": 3673,
      "enti": 3674,
      "fallin": 3675,
      "fallen": 3676,
      "watchin": 3677,
      "arrow": 3678,
      "armor": 3679,
      "argue": 3680,
      "themselves": 3681,
      "endings": 3682,
      "exes": 3683,
      "exit": 3684,
      "begun": 3685,
      "storming": 3686,
      "forgott": 3687,
      "winds": 3688,
      "affect": 3689,
      "meaning": 3690,
      "theirs": 3691,
      "kissin": 3692,
      "kisses": 3693,
      "crush": 3694,
      "crook": 3695,
      "paradise": 3696,
      "hasn": 3697,
      "doorway": 3698,
      "dances": 3699,
      "##shirt": 3700,
      "dreamscap": 3701,
      "skateboard": 3702,
      "scarf": 3703,
      "laughin": 3704,
      "flyin": 3705,
      "momma": 3706,
      "##ighs": 3707,
      "rooms": 3708,
      "poke": 3709,
      "poison": 3710,
      "##mpse": 3711,
      "dare": 3712,
      "darlin": 3713,
      "winning": 3714,
      "insur": 3715,
      "glo": 3716,
      "pickin": 3717,
      "progress": 3718,
      "south": 3719,
      "grac": 3720,
      "grave": 3721,
      "clearly": 3722,
      "passion": 3723,
      "tricks": 3724,
      "warn": 3725,
      "helmet": 3726,
      "steps": 3727,
      "askin": 3728,
      "uns": 3729,
      "barn": 3730,
      "barging": 3731,
      "grows": 3732,
      "pulling": 3733,
      "floors": 3734,
      "curve": 3735,
      "curtain": 3736,
      "emily": 3737,
      "snl": 3738,
      "snuck": 3739,
      "throne": 3740,
      "##iphany": 3741,
      "acting": 3742,
      "jumped": 3743,
      "##bbed": 3744,
      "counted": 3745,
      "begins": 3746,
      "##ami": 3747,
      "whiskey": 3748,
      "pretended": 3749,
      "figment": 3750,
      "yacht": 3751,
      "trusts": 3752,
      "trusted": 3753,
      "raised": 3754,
      "flashing": 3755,
      "aware": 3756,
      "simp": 3757,
      "viol": 3758,
      "stripped": 3759,
      "rolling": 3760,
      "range": 3761,
      "remarks": 3762,
      "cheats": 3763,
      "soundtra": 3764,
      "albums": 3765,
      "##ssed": 3766,
      "shotgun": 3767,
      "faithless": 3768,
      "spec": 3769,
      "spends": 3770,
      "twenties": 3771,
      "hangs": 3772,
      "slip": 3773,
      "slicked": 3774,
      "slipping": 3775,
      "##rope": 3776,
      "seats": 3777,
      "ruined": 3778,
      "expired": 3779,
      "flaws": 3780,
      "prec": 3781,
      "preced": 3782,
      "quickly": 3783,
      "counter": 3784,
      "ideas": 3785,
      "films": 3786,
      "payback": 3787,
      "resist": 3788,
      "sinks": 3789,
      "sinkin": 3790,
      "tightrope": 3791,
      "folks": 3792,
      "bird": 3793,
      "joy": 3794,
      "join": 3795,
      "##zzle": 3796,
      "swept": 3797,
      "sweater": 3798,
      "crawl": 3799,
      "earlier": 3800,
      "intentions": 3801,
      "knives": 3802,
      "shades": 3803,
      "traveled": 3804,
      "16th": 3805,
      "##ennial": 3806,
      "regrets": 3807,
      "choices": 3808,
      "swinging": 3809,
      "drowned": 3810,
      "marrying": 3811,
      "recording": 3812,
      "attention": 3813,
      "disappo": 3814,
      "filling": 3815,
      "lift": 3816,
      "affairs": 3817,
      "glimpse": 3818,
      "harm": 3819,
      "sweethear": 3820,
      "smiling": 3821,
      "bathroom": 3822,
      "dyin": 3823,
      "dynasty": 3824,
      "wounded": 3825,
      "weakness": 3826,
      "ignore": 3827,
      "ignored": 3828,
      "lullaby": 3829,
      "maserati": 3830,
      "pining": 3831,
      "expecting": 3832,
      "circ": 3833,
      "circus": 3834,
      "centennial": 3835,
      "furious": 3836,
      "rudely": 3837,
      "sirens": 3838,
      "suspect": 3839,
      "suspic": 3840,
      "wedding": 3841,
      "wednes": 3842,
      "relief": 3843,
      "religion": 3844,
      "sweatshirt": 3845,
      "erased": 3846,
      "purple": 3847,
      "##aken": 3848,
      "melody": 3849,
      "claws": 3850,
      "swimming": 3851,
      "perfume": 3852,
      "generation": 3853,
      "bricks": 3854,
      "epiphany": 3855,
      "jewel": 3856,
      "naturally": 3857,
      "vocal": 3858,
      "##orgia": 3859,
      "medal": 3860,
      "bells": 3861,
      "imaginary": 3862,
      "sympathy": 3863,
      "temper": 3864,
      "illicit": 3865,
      "patr": 3866,
      "##faction": 3867,
      "anthem": 3868,
      "chorus": 3869,
      "assumptions": 3870,
      "clowns": 3871,
      "spilled": 3872,
      "underestimated": 3873,
      "gleaming": 3874,
      "sixteen": 3875,
      "indifference": 3876,
      "ribbon": 3877,
      "satisfaction": 3878,
      "captivated": 3879,
      "torture": 3880,
      "axe": 3881,
      "aisle": 3882,
      "gym": 3883,
      "georgia": 3884,
      "gigi": 3885,
      "homeroom": 3886,
      "optim": 3887,
      "rhyme": 3888,
      "tires": 3889,
      "tuesday": 3890,
      "inconveni": 3891,
      "rebekah": 3892,
      "neighbor": 3893,
      "cascade": 3894,
      "sabotage": 3895,
      "outnumbered": 3896,
      "chosen": 3897,
      "clandestine": 3898,
      "hospital": 3899,
      "brittle": 3900,
      "pageant": 3901,
      "entire": 3902,
      "forgotten": 3903,
      "dreamscapes": 3904,
      "soundtrack": 3905,
      "suspicious": 3906,
      "wednesday": 3907,
      "26": 3908,
      "24": 3909,
      "9th": 3910,
      "ach": 3911,
      "aur": 3912,
      "amb": 3913,
      "bе": 3914,
      "bon": 3915,
      "bes": 3916,
      "bore": 3917,
      "bump": 3918,
      "cer": 3919,
      "cong": 3920,
      "cop": 3921,
      "cities": 3922,
      "dw": 3923,
      "ditch": 3924,
      "drought": 3925,
      "dating": 3926,
      "dates": 3927,
      "eat": 3928,
      "eul": 3929,
      "either": 3930,
      "elo": 3931,
      "fer": 3932,
      "fir": 3933,
      "fish": 3934,
      "fever": 3935,
      "fence": 3936,
      "fought": 3937,
      "fences": 3938,
      "gay": 3939,
      "gates": 3940,
      "hy": 3941,
      "hes": 3942,
      "hip": 3943,
      "ka": 3944,
      "kl": 3945,
      "kar": 3946,
      "latt": 3947,
      "mod": 3948,
      "mud": 3949,
      "mates": 3950,
      "ni": 3951,
      "nic": 3952,
      "nerve": 3953,
      "opp": 3954,
      "oath": 3955,
      "oil": 3956,
      "pen": 3957,
      "pra": 3958,
      "pop": 3959,
      "poss": 3960,
      "pitch": 3961,
      "pane": 3962,
      "punch": 3963,
      "row": 3964,
      "rif": 3965,
      "rip": 3966,
      "race": 3967,
      "sang": 3968,
      "serv": 3969,
      "tan": 3970,
      "ul": 3971,
      "vain": 3972,
      "vill": 3973,
      "voted": 3974,
      "wea": 3975,
      "wre": 3976,
      "weep": 3977,
      "wounds": 3978,
      "##ald": 3979,
      "##aly": 3980,
      "##aster": 3981,
      "##yond": 3982,
      "##gate": 3983,
      "##gers": 3984,
      "##gies": 3985,
      "##glow": 3986,
      "##ether": 3987,
      "##egr": 3988,
      "##tw": 3989,
      "##wh": 3990,
      "##uly": 3991,
      "##under": 3992,
      "##ully": 3993,
      "##uliar": 3994,
      "##uptions": 3995,
      "##rat": 3996,
      "##ris": 3997,
      "##ruptions": 3998,
      "##der": 3999,
      "##hips": 4000,
      "##io": 4001,
      "##ief": 4002,
      "##val": 4003,
      "##viting": 4004,
      "##ov": 4005,
      "##oo": 4006,
      "##onds": 4007,
      "##oot": 4008,
      "##off": 4009,
      "##nown": 4010,
      "##cut": 4011,
      "##cle": 4012,
      "##cent": 4013,
      "##cal": 4014,
      "##cope": 4015,
      "##culiar": 4016,
      "##known": 4017,
      "##min": 4018,
      "##mind": 4019,
      "##mos": 4020,
      "##mmer": 4021,
      "##mons": 4022,
      "##mith": 4023,
      "##mount": 4024,
      "##br": 4025,
      "##bow": 4026,
      "##bir": 4027,
      "##lines": 4028,
      "##lanta": 4029,
      "##lvan": 4030,
      "##lena": 4031,
      "##phere": 4032,
      "##ples": 4033,
      "##pie": 4034,
      "##port": 4035,
      "##first": 4036,
      "##flies": 4037,
      "##forks": 4038,
      "##еd": 4039,
      "##zy": 4040,
      "##joy": 4041,
      "thy": 4042,
      "thirst": 4043,
      "thirt": 4044,
      "thorn": 4045,
      "third": 4046,
      "thunder": 4047,
      "##iny": 4048,
      "##ered": 4049,
      "##ndrous": 4050,
      "##ony": 4051,
      "##onto": 4052,
      "tossed": 4053,
      "##eaze": 4054,
      "##eased": 4055,
      "##oras": 4056,
      "##anation": 4057,
      "##anket": 4058,
      "memo": 4059,
      "whether": 4060,
      "##eds": 4061,
      "##edly": 4062,
      "##edict": 4063,
      "bend": 4064,
      "beyond": 4065,
      "inviting": 4066,
      "##state": 4067,
      "##stand": 4068,
      "##sters": 4069,
      "lily": 4070,
      "liars": 4071,
      "##veral": 4072,
      "##vember": 4073,
      "##tha": 4074,
      "##isin": 4075,
      "loose": 4076,
      "store": 4077,
      "stead": 4078,
      "stadi": 4079,
      "stumb": 4080,
      "stained": 4081,
      "wakes": 4082,
      "sold": 4083,
      "soft": 4084,
      "weight": 4085,
      "goss": 4086,
      "bas": 4087,
      "bass": 4088,
      "haha": 4089,
      "##etch": 4090,
      "##etty": 4091,
      "##idos": 4092,
      "shy": 4093,
      "shr": 4094,
      "shock": 4095,
      "butter": 4096,
      "nelly": 4097,
      "nose": 4098,
      "november": 4099,
      "##ley": 4100,
      "##leidos": 4101,
      "forcing": 4102,
      "wister": 4103,
      "likely": 4104,
      "cash": 4105,
      "cages": 4106,
      "##iter": 4107,
      "##itous": 4108,
      "##itors": 4109,
      "##omb": 4110,
      "justin": 4111,
      "tie": 4112,
      "doc": 4113,
      "lovebir": 4114,
      "sam": 4115,
      "sand": 4116,
      "sales": 4117,
      "savi": 4118,
      "##rage": 4119,
      "##riger": 4120,
      "##rified": 4121,
      "ate": 4122,
      "atmos": 4123,
      "atlanta": 4124,
      "anton": 4125,
      "##unic": 4126,
      "seek": 4127,
      "fail": 4128,
      "fash": 4129,
      "cher": 4130,
      "chic": 4131,
      "##entmind": 4132,
      "notes": 4133,
      "notch": 4134,
      "landing": 4135,
      "aside": 4136,
      "##gend": 4137,
      "##estal": 4138,
      "##elling": 4139,
      "prose": 4140,
      "bluff": 4141,
      "blanket": 4142,
      "tame": 4143,
      "tails": 4144,
      "##ioned": 4145,
      "##lif": 4146,
      "lets": 4147,
      "clo": 4148,
      "cling": 4149,
      "clones": 4150,
      "clung": 4151,
      "host": 4152,
      "naive": 4153,
      "nails": 4154,
      "dive": 4155,
      "diaries": 4156,
      "divide": 4157,
      "separ": 4158,
      "selena": 4159,
      "several": 4160,
      "rovers": 4161,
      "##olet": 4162,
      "##olute": 4163,
      "struck": 4164,
      "stretch": 4165,
      "boss": 4166,
      "wondrous": 4167,
      "mamas": 4168,
      "caring": 4169,
      "carve": 4170,
      "cards": 4171,
      "starlit": 4172,
      "##tertain": 4173,
      "sword": 4174,
      "sworn": 4175,
      "swords": 4176,
      "runnin": 4177,
      "longer": 4178,
      "##otion": 4179,
      "drove": 4180,
      "smart": 4181,
      "smoking": 4182,
      "bride": 4183,
      "brush": 4184,
      "brings": 4185,
      "coats": 4186,
      "coaster": 4187,
      "trans": 4188,
      "truly": 4189,
      "lifeless": 4190,
      "pause": 4191,
      "newer": 4192,
      "mindless": 4193,
      "amen": 4194,
      "missin": 4195,
      "missile": 4196,
      "changin": 4197,
      "demo": 4198,
      "demons": 4199,
      "encore": 4200,
      "enjoy": 4201,
      "entertain": 4202,
      "handful": 4203,
      "finds": 4204,
      "sings": 4205,
      "##osmith": 4206,
      "twink": 4207,
      "##efoot": 4208,
      "dried": 4209,
      "traded": 4210,
      "traitors": 4211,
      "sleaze": 4212,
      "extra": 4213,
      "worlds": 4214,
      "heads": 4215,
      "headfirst": 4216,
      "raining": 4217,
      "rained": 4218,
      "rainbow": 4219,
      "showing": 4220,
      "showdown": 4221,
      "dag": 4222,
      "dais": 4223,
      "forgive": 4224,
      "burnin": 4225,
      "peculiar": 4226,
      "means": 4227,
      "messy": 4228,
      "believes": 4229,
      "sorrow": 4230,
      "skip": 4231,
      "phil": 4232,
      "phant": 4233,
      "phones": 4234,
      "darkness": 4235,
      "dresses": 4236,
      "courage": 4237,
      "storyline": 4238,
      "stops": 4239,
      "cryin": 4240,
      "opens": 4241,
      "shakin": 4242,
      "highgate": 4243,
      "forgets": 4244,
      "winner": 4245,
      "insp": 4246,
      "insinc": 4247,
      "glor": 4248,
      "glance": 4249,
      "proved": 4250,
      "##ield": 4251,
      "promised": 4252,
      "afterglow": 4253,
      "cute": 4254,
      "screamed": 4255,
      "mmh": 4256,
      "##ogize": 4257,
      "march": 4258,
      "martin": 4259,
      "married": 4260,
      "martha": 4261,
      "trippin": 4262,
      "beds": 4263,
      "reality": 4264,
      "brag": 4265,
      "braced": 4266,
      "final": 4267,
      "unless": 4268,
      "unpr": 4269,
      "united": 4270,
      "unknown": 4271,
      "compar": 4272,
      "helping": 4273,
      "barny": 4274,
      "barren": 4275,
      "barbed": 4276,
      "barefoot": 4277,
      "##ints": 4278,
      "##intments": 4279,
      "learning": 4280,
      "floats": 4281,
      "cursed": 4282,
      "healing": 4283,
      "heavy": 4284,
      "kills": 4285,
      "sneaking": 4286,
      "thrown": 4287,
      "writer": 4288,
      "writers": 4289,
      "##ipice": 4290,
      "##ensive": 4291,
      "freezing": 4292,
      "deeper": 4293,
      "deeply": 4294,
      "deepest": 4295,
      "silver": 4296,
      "welcom": 4297,
      "saddest": 4298,
      "##ression": 4299,
      "cries": 4300,
      "recently": 4301,
      "america": 4302,
      "##amitous": 4303,
      "##iously": 4304,
      "crossing": 4305,
      "drops": 4306,
      "heavens": 4307,
      "heavenly": 4308,
      "americana": 4309,
      "surround": 4310,
      "survi": 4311,
      "drawn": 4312,
      "dramatic": 4313,
      "succ": 4314,
      "##ortant": 4315,
      "##ortunity": 4316,
      "buying": 4317,
      "strikes": 4318,
      "roller": 4319,
      "slows": 4320,
      "loudest": 4321,
      "timing": 4322,
      "cheer": 4323,
      "blowin": 4324,
      "sounded": 4325,
      "waste": 4326,
      "greener": 4327,
      "listened": 4328,
      "delusion": 4329,
      "applic": 4330,
      "##box": 4331,
      "decor": 4332,
      "differently": 4333,
      "restore": 4334,
      "restaur": 4335,
      "rich": 4336,
      "ripped": 4337,
      "##ropping": 4338,
      "fades": 4339,
      "legend": 4340,
      "ruled": 4341,
      "busier": 4342,
      "business": 4343,
      "jacket": 4344,
      "jagu": 4345,
      "expensive": 4346,
      "expression": 4347,
      "angelina": 4348,
      "pushing": 4349,
      "baller": 4350,
      "distant": 4351,
      "thanks": 4352,
      "johnson": 4353,
      "clip": 4354,
      "important": 4355,
      "##phone": 4356,
      "innov": 4357,
      "intertw": 4358,
      "interruptions": 4359,
      "result": 4360,
      "##sylvan": 4361,
      "instantly": 4362,
      "knocks": 4363,
      "classics": 4364,
      "surprises": 4365,
      "##abor": 4366,
      "job": 4367,
      "##ago": 4368,
      "innocence": 4369,
      "superfic": 4370,
      "drawing": 4371,
      "##view": 4372,
      "defin": 4373,
      "defined": 4374,
      "support": 4375,
      "create": 4376,
      "mystical": 4377,
      "balance": 4378,
      "refriger": 4379,
      "bottom": 4380,
      "smells": 4381,
      "vows": 4382,
      "released": 4383,
      "pools": 4384,
      "bleeding": 4385,
      "bulletproof": 4386,
      "bury": 4387,
      "dusty": 4388,
      "shatterproof": 4389,
      "revolves": 4390,
      "facts": 4391,
      "apology": 4392,
      "seasons": 4393,
      "proudly": 4394,
      "autograph": 4395,
      "diner": 4396,
      "eighty": 4397,
      "eighteen": 4398,
      "harbor": 4399,
      "complication": 4400,
      "complications": 4401,
      "explanation": 4402,
      "regretting": 4403,
      "weekends": 4404,
      "bathe": 4405,
      "mix": 4406,
      "pennsylvan": 4407,
      "sticking": 4408,
      "presents": 4409,
      "guarded": 4410,
      "photo": 4411,
      "occur": 4412,
      "pinned": 4413,
      "snap": 4414,
      "snakes": 4415,
      "snaps": 4416,
      "cancel": 4417,
      "charming": 4418,
      "diamonds": 4419,
      "swallowin": 4420,
      "crowns": 4421,
      "legged": 4422,
      "obsessin": 4423,
      "obsessive": 4424,
      "centerf": 4425,
      "further": 4426,
      "sinner": 4427,
      "absentmind": 4428,
      "absolute": 4429,
      "namedropping": 4430,
      "masterpie": 4431,
      "skippin": 4432,
      "disappeared": 4433,
      "lifetimes": 4434,
      "square": 4435,
      "squeeze": 4436,
      "##atinum": 4437,
      "hollywood": 4438,
      "dangerous": 4439,
      "perfor": 4440,
      "destroyed": 4441,
      "bench": 4442,
      "denim": 4443,
      "elegies": 4444,
      "friction": 4445,
      "vacant": 4446,
      "becoming": 4447,
      "becomes": 4448,
      "labels": 4449,
      "stressin": 4450,
      "magazine": 4451,
      "magazines": 4452,
      "health": 4453,
      "reflects": 4454,
      "lyrics": 4455,
      "returning": 4456,
      "producer": 4457,
      "avo": 4458,
      "fifty": 4459,
      "irre": 4460,
      "pedestal": 4461,
      "ruthless": 4462,
      "serving": 4463,
      "urges": 4464,
      "baseball": 4465,
      "washed": 4466,
      "condition": 4467,
      "foxes": 4468,
      "experiences": 4469,
      "cruisin": 4470,
      "fireworks": 4471,
      "unfami": 4472,
      "battleships": 4473,
      "milky": 4474,
      "cynical": 4475,
      "receipt": 4476,
      "creaks": 4477,
      "easier": 4478,
      "grief": 4479,
      "public": 4480,
      "stabbed": 4481,
      "calamitous": 4482,
      "proposition": 4483,
      "bleachers": 4484,
      "dignity": 4485,
      "scratches": 4486,
      "broadway": 4487,
      "mosaic": 4488,
      "crooked": 4489,
      "insurmount": 4490,
      "gloves": 4491,
      "gracie": 4492,
      "unsure": 4493,
      "curtains": 4494,
      "violence": 4495,
      "specul": 4496,
      "precipice": 4497,
      "precedes": 4498,
      "disappointments": 4499,
      "sweetheart": 4500,
      "circles": 4501,
      "patron": 4502,
      "optimism": 4503,
      "inconvenient": 4504,
      "auroras": 4505,
      "beside": 4506,
      "certain": 4507,
      "congrat": 4508,
      "eulogize": 4509,
      "eloise": 4510,
      "feroc": 4511,
      "fishing": 4512,
      "hesit": 4513,
      "kaleidos": 4514,
      "latte": 4515,
      "opportunity": 4516,
      "possib": 4517,
      "pitchforks": 4518,
      "weapons": 4519,
      "wreath": 4520,
      "weepin": 4521,
      "thorns": 4522,
      "stadium": 4523,
      "gossip": 4524,
      "butterflies": 4525,
      "wisteria": 4526,
      "lovebirds": 4527,
      "saviour": 4528,
      "atmosphere": 4529,
      "antonoff": 4530,
      "fashioned": 4531,
      "chicago": 4532,
      "phantom": 4533,
      "barnyard": 4534,
      "welcomed": 4535,
      "success": 4536,
      "applicable": 4537,
      "restaurant": 4538,
      "jaguars": 4539,
      "intertwined": 4540,
      "superficial": 4541,
      "refrigerator": 4542,
      "pennsylvania": 4543,
      "centerfold": 4544,
      "absentmindedly": 4545,
      "absolutely": 4546,
      "masterpiece": 4547,
      "unfamiliar": 4548,
      "insurmountable": 4549,
      "congratulations": 4550,
      "kaleidoscope": 4551,
      "28": 4552,
      "29": 4553,
      "27": 4554,
      "31": 4555,
      "32": 4556,
      "58": 4557,
      "5th": 4558,
      "75": 4559,
      "ald": 4560,
      "aud": 4561,
      "acing": 4562,
      "bry": 4563,
      "bunch": 4564,
      "bomb": 4565,
      "cle": 4566,
      "cup": 4567,
      "coney": 4568,
      "crew": 4569,
      "cats": 4570,
      "civ": 4571,
      "cider": 4572,
      "dent": 4573,
      "dash": 4574,
      "dated": 4575,
      "dealing": 4576,
      "ec": 4577,
      "el": 4578,
      "ef": 4579,
      "ell": 4580,
      "ech": 4581,
      "emb": 4582,
      "file": 4583,
      "fel": 4584,
      "fired": 4585,
      "fountain": 4586,
      "finger": 4587,
      "git": 4588,
      "grou": 4589,
      "gest": 4590,
      "gang": 4591,
      "gary": 4592,
      "gats": 4593,
      "hi": 4594,
      "hе": 4595,
      "hus": 4596,
      "hated": 4597,
      "hats": 4598,
      "hire": 4599,
      "jin": 4600,
      "jer": 4601,
      "jeep": 4602,
      "jum": 4603,
      "jour": 4604,
      "jury": 4605,
      "kick": 4606,
      "ling": 4607,
      "lan": 4608,
      "led": 4609,
      "lur": 4610,
      "lew": 4611,
      "lean": 4612,
      "lang": 4613,
      "mе": 4614,
      "mur": 4615,
      "mic": 4616,
      "main": 4617,
      "ment": 4618,
      "mile": 4619,
      "mouse": 4620,
      "mcc": 4621,
      "mich": 4622,
      "mitt": 4623,
      "matin": 4624,
      "nе": 4625,
      "nin": 4626,
      "nar": 4627,
      "net": 4628,
      "nur": 4629,
      "nine": 4630,
      "norm": 4631,
      "ori": 4632,
      "ought": 4633,
      "pu": 4634,
      "ply": 4635,
      "pot": 4636,
      "patter": 4637,
      "preacher": 4638,
      "rh": 4639,
      "ray": 4640,
      "rear": 4641,
      "ridd": 4642,
      "rise": 4643,
      "ratt": 4644,
      "reel": 4645,
      "ske": 4646,
      "sess": 4647,
      "sway": 4648,
      "size": 4649,
      "sche": 4650,
      "tv": 4651,
      "tl": 4652,
      "tit": 4653,
      "tong": 4654,
      "tone": 4655,
      "tun": 4656,
      "tide": 4657,
      "tuck": 4658,
      "tup": 4659,
      "tease": 4660,
      "tem": 4661,
      "tiny": 4662,
      "uz": 4663,
      "ugh": 4664,
      "vs": 4665,
      "van": 4666,
      "wis": 4667,
      "wid": 4668,
      "wol": 4669,
      "wears": 4670,
      "wise": 4671,
      "wester": 4672,
      "waters": 4673,
      "yog": 4674,
      "yelling": 4675,
      "z9": 4676,
      "##aa": 4677,
      "##ach": 4678,
      "##ali": 4679,
      "##ail": 4680,
      "##aking": 4681,
      "##acy": 4682,
      "##alem": 4683,
      "##yal": 4684,
      "##gon": 4685,
      "##gth": 4686,
      "##git": 4687,
      "##gent": 4688,
      "##gas": 4689,
      "##gul": 4690,
      "##green": 4691,
      "##gained": 4692,
      "##tar": 4693,
      "##tune": 4694,
      "##well": 4695,
      "##wreck": 4696,
      "##wald": 4697,
      "##som": 4698,
      "##sion": 4699,
      "##sue": 4700,
      "##sider": 4701,
      "##uc": 4702,
      "##udy": 4703,
      "##uage": 4704,
      "##ubb": 4705,
      "##uable": 4706,
      "##uition": 4707,
      "##ree": 4708,
      "##rid": 4709,
      "##rise": 4710,
      "##rors": 4711,
      "##rating": 4712,
      "##de": 4713,
      "##do": 4714,
      "##dies": 4715,
      "##dict": 4716,
      "##ho": 4717,
      "##hou": 4718,
      "##hake": 4719,
      "##hies": 4720,
      "##house": 4721,
      "##hony": 4722,
      "##iz": 4723,
      "##ior": 4724,
      "##iver": 4725,
      "##iod": 4726,
      "##ili": 4727,
      "##ife": 4728,
      "##iate": 4729,
      "##iot": 4730,
      "##izing": 4731,
      "##izzle": 4732,
      "##vest": 4733,
      "##vive": 4734,
      "##vict": 4735,
      "##vited": 4736,
      "##vеr": 4737,
      "##vator": 4738,
      "##oes": 4739,
      "##oody": 4740,
      "##nis": 4741,
      "##not": 4742,
      "##nie": 4743,
      "##cee": 4744,
      "##cre": 4745,
      "##cri": 4746,
      "##ciss": 4747,
      "##cers": 4748,
      "##cense": 4749,
      "##cara": 4750,
      "##cially": 4751,
      "##ken": 4752,
      "##my": 4753,
      "##mates": 4754,
      "##munic": 4755,
      "##bl": 4756,
      "##ban": 4757,
      "##bid": 4758,
      "##bur": 4759,
      "##bate": 4760,
      "##band": 4761,
      "##bling": 4762,
      "##bits": 4763,
      "##lu": 4764,
      "##lake": 4765,
      "##lent": 4766,
      "##lish": 4767,
      "##lved": 4768,
      "##luck": 4769,
      "##lation": 4770,
      "##lity": 4771,
      "##lson": 4772,
      "##lash": 4773,
      "##lined": 4774,
      "##pa": 4775,
      "##pion": 4776,
      "##pter": 4777,
      "##pism": 4778,
      "##position": 4779,
      "##fors": 4780,
      "##fort": 4781,
      "##fast": 4782,
      "##fire": 4783,
      "##fully": 4784,
      "##zes": 4785,
      "##jury": 4786,
      "##justing": 4787,
      "##oustic": 4788,
      "thigh": 4789,
      "thie": 4790,
      "thirty": 4791,
      "thief": 4792,
      "##invited": 4793,
      "##inoes": 4794,
      "##eries": 4795,
      "##eral": 4796,
      "##erity": 4797,
      "##erade": 4798,
      "##erable": 4799,
      "##nded": 4800,
      "##ndet": 4801,
      "##ndled": 4802,
      "##ington": 4803,
      "##atus": 4804,
      "##ative": 4805,
      "##onies": 4806,
      "##eable": 4807,
      "##esma": 4808,
      "##escent": 4809,
      "##orty": 4810,
      "##orpion": 4811,
      "##ency": 4812,
      "##enches": 4813,
      "##ength": 4814,
      "##ancy": 4815,
      "##anches": 4816,
      "mending": 4817,
      "whim": 4818,
      "wheels": 4819,
      "##edo": 4820,
      "##mez": 4821,
      "bee": 4822,
      "beer": 4823,
      "beck": 4824,
      "beli": 4825,
      "inse": 4826,
      "invent": 4827,
      "injury": 4828,
      "##utter": 4829,
      "##stuck": 4830,
      "##steful": 4831,
      "##storm": 4832,
      "lied": 4833,
      "lime": 4834,
      "license": 4835,
      "onе": 4836,
      "online": 4837,
      "##ising": 4838,
      "local": 4839,
      "offending": 4840,
      "##ghter": 4841,
      "stom": 4842,
      "stain": 4843,
      "stell": 4844,
      "streak": 4845,
      "station": 4846,
      "stud": 4847,
      "stings": 4848,
      "stations": 4849,
      "stalk": 4850,
      "static": 4851,
      "status": 4852,
      "waving": 4853,
      "soy": 4854,
      "socc": 4855,
      "soph": 4856,
      "soho": 4857,
      "weeds": 4858,
      "##arting": 4859,
      "##arian": 4860,
      "gomez": 4861,
      "##sel": 4862,
      "##seat": 4863,
      "knee": 4864,
      "knuck": 4865,
      "bands": 4866,
      "baking": 4867,
      "based": 4868,
      "hack": 4869,
      "habits": 4870,
      "##etic": 4871,
      "##eteen": 4872,
      "shar": 4873,
      "shout": 4874,
      "shim": 4875,
      "shif": 4876,
      "shred": 4877,
      "sharks": 4878,
      "shield": 4879,
      "shorty": 4880,
      "reb": 4881,
      "repe": 4882,
      "revel": 4883,
      "regul": 4884,
      "nevеr": 4885,
      "##leving": 4886,
      "##lection": 4887,
      "ford": 4888,
      "forest": 4889,
      "forming": 4890,
      "fortune": 4891,
      "forbid": 4892,
      "wives": 4893,
      "wilson": 4894,
      "##reate": 4895,
      "issue": 4896,
      "cap": 4897,
      "cage": 4898,
      "caus": 4899,
      "caval": 4900,
      "##iti": 4901,
      "##itions": 4902,
      "##eary": 4903,
      "##irs": 4904,
      "##iration": 4905,
      "evergreen": 4906,
      "heat": 4907,
      "heir": 4908,
      "heath": 4909,
      "heist": 4910,
      "ties": 4911,
      "tire": 4912,
      "timber": 4913,
      "##chite": 4914,
      "##chang": 4915,
      "within": 4916,
      "##urt": 4917,
      "##urd": 4918,
      "##urday": 4919,
      "whatso": 4920,
      "sail": 4921,
      "saving": 4922,
      "outra": 4923,
      "outdo": 4924,
      "therein": 4925,
      "upper": 4926,
      "upstate": 4927,
      "##rait": 4928,
      "##ravity": 4929,
      "vegas": 4930,
      "vendet": 4931,
      "##ries": 4932,
      "##rived": 4933,
      "##indling": 4934,
      "anim": 4935,
      "##ads": 4936,
      "##ades": 4937,
      "##adel": 4938,
      "##unwald": 4939,
      "seemed": 4940,
      "backy": 4941,
      "backro": 4942,
      "backseat": 4943,
      "##tty": 4944,
      "faces": 4945,
      "alig": 4946,
      "alph": 4947,
      "altar": 4948,
      "chess": 4949,
      "chall": 4950,
      "choke": 4951,
      "chips": 4952,
      "##icy": 4953,
      "##iced": 4954,
      "##icul": 4955,
      "##ication": 4956,
      "lookout": 4957,
      "##aining": 4958,
      "platinum": 4959,
      "##ented": 4960,
      "##entation": 4961,
      "##ential": 4962,
      "shelf": 4963,
      "shelved": 4964,
      "noticed": 4965,
      "lapt": 4966,
      "lawn": 4967,
      "abig": 4968,
      "ability": 4969,
      "frown": 4970,
      "frost": 4971,
      "friday": 4972,
      "worn": 4973,
      "##estfall": 4974,
      "press": 4975,
      "prologue": 4976,
      "prison": 4977,
      "predict": 4978,
      "bled": 4979,
      "blond": 4980,
      "bloody": 4981,
      "tale": 4982,
      "tapping": 4983,
      "talent": 4984,
      "tasteful": 4985,
      "##like": 4986,
      "##lips": 4987,
      "##eeping": 4988,
      "clara": 4989,
      "##thern": 4990,
      "sphere": 4991,
      "spont": 4992,
      "splash": 4993,
      "willia": 4994,
      "maddest": 4995,
      "eyel": 4996,
      "##mble": 4997,
      "mansion": 4998,
      "##ateg": 4999,
      "nap": 5000,
      "divor": 5001,
      "direct": 5002,
      "shoulder": 5003,
      "selves": 5004,
      "secre": 5005,
      "ush": 5006,
      "usual": 5007,
      "##olved": 5008,
      "##idelity": 5009,
      "goodnight": 5010,
      "strength": 5011,
      "comfort": 5012,
      "##ppet": 5013,
      "##ppled": 5014,
      "bold": 5015,
      "bobby": 5016,
      "woo": 5017,
      "wool": 5018,
      "map": 5019,
      "mach": 5020,
      "maim": 5021,
      "mail": 5022,
      "major": 5023,
      "cares": 5024,
      "lighting": 5025,
      "lightbody": 5026,
      "starry": 5027,
      "##ulgent": 5028,
      "##uss": 5029,
      "##usalem": 5030,
      "##athing": 5031,
      "swam": 5032,
      "swings": 5033,
      "swizzle": 5034,
      "offic": 5035,
      "longing": 5036,
      "longtime": 5037,
      "##otland": 5038,
      "waitin": 5039,
      "waitress": 5040,
      "dreary": 5041,
      "orange": 5042,
      "##igo": 5043,
      "##iled": 5044,
      "##ilty": 5045,
      "##ilities": 5046,
      "keepin": 5047,
      "scorpion": 5048,
      "scathing": 5049,
      "scotland": 5050,
      "##tings": 5051,
      "brink": 5052,
      "branches": 5053,
      "trope": 5054,
      "trenches": 5055,
      "monday": 5056,
      "guilty": 5057,
      "##elo": 5058,
      "pace": 5059,
      "packed": 5060,
      "papers": 5061,
      "palace": 5062,
      "gap": 5063,
      "gauch": 5064,
      "gaze": 5065,
      "flood": 5066,
      "flings": 5067,
      "flung": 5068,
      "flesh": 5069,
      "himself": 5070,
      "breakfast": 5071,
      "remembering": 5072,
      "amaz": 5073,
      "##istication": 5074,
      "cracked": 5075,
      "##ific": 5076,
      "fond": 5077,
      "deed": 5078,
      "debate": 5079,
      "deleving": 5080,
      "eng": 5081,
      "ent": 5082,
      "handle": 5083,
      "handled": 5084,
      "playful": 5085,
      "playboy": 5086,
      "turnin": 5087,
      "standard": 5088,
      "wonders": 5089,
      "wonderment": 5090,
      "singin": 5091,
      "##osure": 5092,
      "##osity": 5093,
      "archite": 5094,
      "arrived": 5095,
      "overnight": 5096,
      "overrated": 5097,
      "drivers": 5098,
      "trap": 5099,
      "trash": 5100,
      "trape": 5101,
      "tracks": 5102,
      "trailer": 5103,
      "ext": 5104,
      "exchang": 5105,
      "beggin": 5106,
      "stormed": 5107,
      "headed": 5108,
      "plaid": 5109,
      "beaches": 5110,
      "rainstorm": 5111,
      "shows": 5112,
      "dali": 5113,
      "dappled": 5114,
      "puts": 5115,
      "perched": 5116,
      "period": 5117,
      "burnt": 5118,
      "brendon": 5119,
      "underlined": 5120,
      "funeral": 5121,
      "crump": 5122,
      "crumb": 5123,
      "crestfall": 5124,
      "creeping": 5125,
      "paris": 5126,
      "paraly": 5127,
      "meeting": 5128,
      "##ptation": 5129,
      "planet": 5130,
      "conne": 5131,
      "conquest": 5132,
      "consider": 5133,
      "convict": 5134,
      "##mson": 5135,
      "pretti": 5136,
      "boyish": 5137,
      "messing": 5138,
      "driveway": 5139,
      "handshake": 5140,
      "fiend": 5141,
      "quit": 5142,
      "quarter": 5143,
      "laughter": 5144,
      "scare": 5145,
      "scarred": 5146,
      "breathed": 5147,
      "phas": 5148,
      "philly": 5149,
      "##asses": 5150,
      "darker": 5151,
      "sunlit": 5152,
      "sunrise": 5153,
      "hardly": 5154,
      "opal": 5155,
      "followers": 5156,
      "kinds": 5157,
      "pond": 5158,
      "post": 5159,
      "greater": 5160,
      "##mering": 5161,
      "bets": 5162,
      "memorized": 5163,
      "memorizing": 5164,
      "opening": 5165,
      "opened": 5166,
      "shaped": 5167,
      "##pecially": 5168,
      "winless": 5169,
      "insult": 5170,
      "gloss": 5171,
      "sits": 5172,
      "sittin": 5173,
      "troubling": 5174,
      "below": 5175,
      "wildfire": 5176,
      "cutting": 5177,
      "southern": 5178,
      "mma": 5179,
      "graces": 5180,
      "clearing": 5181,
      "wallet": 5182,
      "shiniest": 5183,
      "market": 5184,
      "marisk": 5185,
      "marjor": 5186,
      "password": 5187,
      "passport": 5188,
      "trial": 5189,
      "tripped": 5190,
      "godfors": 5191,
      "warned": 5192,
      "daddies": 5193,
      "brain": 5194,
      "braid": 5195,
      "braids": 5196,
      "wrecking": 5197,
      "wooden": 5198,
      "eag": 5199,
      "ease": 5200,
      "monsters": 5201,
      "stepping": 5202,
      "belonged": 5203,
      "cory": 5204,
      "correct": 5205,
      "unres": 5206,
      "unbr": 5207,
      "unluck": 5208,
      "uninvited": 5209,
      "unstuck": 5210,
      "compl": 5211,
      "comparing": 5212,
      "composure": 5213,
      "compasses": 5214,
      "bargained": 5215,
      "teal": 5216,
      "touchin": 5217,
      "##lorian": 5218,
      "grin": 5219,
      "grind": 5220,
      "grumb": 5221,
      "grunwald": 5222,
      "ringing": 5223,
      "hella": 5224,
      "pastry": 5225,
      "pastel": 5226,
      "floating": 5227,
      "killer": 5228,
      "snide": 5229,
      "snott": 5230,
      "leader": 5231,
      "mistress": 5232,
      "mistaken": 5233,
      "gotten": 5234,
      "souls": 5235,
      "morris": 5236,
      "##enses": 5237,
      "freeze": 5238,
      "brighten": 5239,
      "brightest": 5240,
      "acts": 5241,
      "acted": 5242,
      "trains": 5243,
      "trained": 5244,
      "silhou": 5245,
      "##ressed": 5246,
      "countdown": 5247,
      "sometime": 5248,
      "magician": 5249,
      "crimson": 5250,
      "##artney": 5251,
      "beaten": 5252,
      "recent": 5253,
      "recreate": 5254,
      "chapter": 5255,
      "crossword": 5256,
      "desk": 5257,
      "desp": 5258,
      "desire": 5259,
      "fella": 5260,
      "gives": 5261,
      "raking": 5262,
      "rapping": 5263,
      "raided": 5264,
      "surely": 5265,
      "##querade": 5266,
      "throwback": 5267,
      "##attered": 5268,
      "flashes": 5269,
      "flashed": 5270,
      "rub": 5271,
      "survive": 5272,
      "awful": 5273,
      "awards": 5274,
      "drastic": 5275,
      "shameless": 5276,
      "##orts": 5277,
      "drunken": 5278,
      "buzz": 5279,
      "bundled": 5280,
      "violin": 5281,
      "louder": 5282,
      "disposition": 5283,
      "ranting": 5284,
      "ransom": 5285,
      "chem": 5286,
      "cheater": 5287,
      "chevy": 5288,
      "worthwh": 5289,
      "takers": 5290,
      "sized": 5291,
      "##roves": 5292,
      "marks": 5293,
      "career": 5294,
      "listenin": 5295,
      "mirrored": 5296,
      "delight": 5297,
      "delux": 5298,
      "closed": 5299,
      "appear": 5300,
      "ident": 5301,
      "idiot": 5302,
      "treated": 5303,
      "##mance": 5304,
      "blazing": 5305,
      "indis": 5306,
      "indie": 5307,
      "india": 5308,
      "indian": 5309,
      "indentation": 5310,
      "indulgent": 5311,
      "indigo": 5312,
      "mercur": 5313,
      "rides": 5314,
      "tearing": 5315,
      "stairwell": 5316,
      "decides": 5317,
      "decades": 5318,
      "damsel": 5319,
      "understudy": 5320,
      "problem": 5321,
      "ghostly": 5322,
      "adore": 5323,
      "advent": 5324,
      "adub": 5325,
      "adjusting": 5326,
      "slim": 5327,
      "##prints": 5328,
      "##aneous": 5329,
      "##pective": 5330,
      "keyed": 5331,
      "ruins": 5332,
      "leo": 5333,
      "prizes": 5334,
      "seas": 5335,
      "seal": 5336,
      "bandit": 5337,
      "jailer": 5338,
      "polite": 5339,
      "politely": 5340,
      "policy": 5341,
      "footprints": 5342,
      "quietly": 5343,
      "reminded": 5344,
      "prep": 5345,
      "ballet": 5346,
      "shoe": 5347,
      "dolls": 5348,
      "dollar": 5349,
      "reputations": 5350,
      "johnny": 5351,
      "click": 5352,
      "persist": 5353,
      "perspective": 5354,
      "saturn": 5355,
      "saturday": 5356,
      "##phones": 5357,
      "##phia": 5358,
      "interview": 5359,
      "switching": 5360,
      "cruelty": 5361,
      "quicksand": 5362,
      "county": 5363,
      "champions": 5364,
      "paying": 5365,
      "classmates": 5366,
      "foolish": 5367,
      "devast": 5368,
      "devils": 5369,
      "especially": 5370,
      "##aceable": 5371,
      "flower": 5372,
      "flowing": 5373,
      "folklorian": 5374,
      "joe": 5375,
      "joint": 5376,
      "selfish": 5377,
      "books": 5378,
      "drinks": 5379,
      "winters": 5380,
      "draws": 5381,
      "earth": 5382,
      "miscom": 5383,
      "miserable": 5384,
      "##violet": 5385,
      "intri": 5386,
      "intention": 5387,
      "integr": 5388,
      "intuition": 5389,
      "shady": 5390,
      "reached": 5391,
      "heroes": 5392,
      "defenses": 5393,
      "questions": 5394,
      "escapism": 5395,
      "seventeenth": 5396,
      "accused": 5397,
      "created": 5398,
      "creating": 5399,
      "lower": 5400,
      "nearly": 5401,
      "nearest": 5402,
      "balanc": 5403,
      "choirs": 5404,
      "blanks": 5405,
      "contest": 5406,
      "194": 5407,
      "19th": 5408,
      "horrified": 5409,
      "rushes": 5410,
      "sights": 5411,
      "refused": 5412,
      "reflection": 5413,
      "collide": 5414,
      "collabor": 5415,
      "disapproves": 5416,
      "flies": 5417,
      "relate": 5418,
      "related": 5419,
      "worrying": 5420,
      "twistin": 5421,
      "glowing": 5422,
      "burst": 5423,
      "buried": 5424,
      "burrowed": 5425,
      "burton": 5426,
      "revolved": 5427,
      "foreign": 5428,
      "casting": 5429,
      "captain": 5430,
      "glasses": 5431,
      "bittersw": 5432,
      "guns": 5433,
      "hargit": 5434,
      "sleight": 5435,
      "sleighs": 5436,
      "chains": 5437,
      "enemy": 5438,
      "tragedies": 5439,
      "hundredth": 5440,
      "checking": 5441,
      "contrarian": 5442,
      "dyed": 5443,
      "genre": 5444,
      "lyin": 5445,
      "pathetic": 5446,
      "teeth": 5447,
      "weaker": 5448,
      "##borough": 5449,
      "locking": 5450,
      "necklace": 5451,
      "witness": 5452,
      "chicken": 5453,
      "blocks": 5454,
      "bridges": 5455,
      "bridesma": 5456,
      "sleeves": 5457,
      "photos": 5458,
      "accident": 5459,
      "flickers": 5460,
      "bored": 5461,
      "mascara": 5462,
      "masquerade": 5463,
      "pillars": 5464,
      "rusty": 5465,
      "rusting": 5466,
      "rusted": 5467,
      "senses": 5468,
      "##traviolet": 5469,
      "##aturing": 5470,
      "toronto": 5471,
      "charade": 5472,
      "holidays": 5473,
      "closets": 5474,
      "obsession": 5475,
      "tattoos": 5476,
      "gathered": 5477,
      "hunting": 5478,
      "patiently": 5479,
      "##look": 5480,
      "shipwreck": 5481,
      "lawless": 5482,
      "absurd": 5483,
      "freshman": 5484,
      "rocky": 5485,
      "trophies": 5486,
      "deserves": 5487,
      "polaroid": 5488,
      "saltbox": 5489,
      "collected": 5490,
      "disappearing": 5491,
      "boundaries": 5492,
      "cycle": 5493,
      "humming": 5494,
      "humili": 5495,
      "purse": 5496,
      "sellin": 5497,
      "selling": 5498,
      "##aks": 5499,
      "melting": 5500,
      "mended": 5501,
      "cameras": 5502,
      "clap": 5503,
      "hotel": 5504,
      "swims": 5505,
      "departing": 5506,
      "depravity": 5507,
      "groceries": 5508,
      "building": 5509,
      "impressed": 5510,
      "detail": 5511,
      "benef": 5512,
      "bitches": 5513,
      "epic": 5514,
      "elevator": 5515,
      "fried": 5516,
      "jewels": 5517,
      "natural": 5518,
      "rodeo": 5519,
      "vision": 5520,
      "visions": 5521,
      "vacancy": 5522,
      "##orgiven": 5523,
      "ingen": 5524,
      "commit": 5525,
      "2008": 5526,
      "imagination": 5527,
      "confessions": 5528,
      "shooting": 5529,
      "lyrical": 5530,
      "symphony": 5531,
      "producers": 5532,
      "acoustic": 5533,
      "feud": 5534,
      "featuring": 5535,
      "fifth": 5536,
      "pirates": 5537,
      "rutherf": 5538,
      "towards": 5539,
      "verdict": 5540,
      "value": 5541,
      "valuable": 5542,
      "influ": 5543,
      "infidelity": 5544,
      "shopping": 5545,
      "washington": 5546,
      "ticking": 5547,
      "ashes": 5548,
      "blurry": 5549,
      "robber": 5550,
      "robbers": 5551,
      "coastal": 5552,
      "flushed": 5553,
      "foxborough": 5554,
      "expert": 5555,
      "crucial": 5556,
      "constell": 5557,
      "constantly": 5558,
      "poetically": 5559,
      "firework": 5560,
      "unforgiven": 5561,
      "chalkboard": 5562,
      "beginnings": 5563,
      "suitcase": 5564,
      "admit": 5565,
      "1983": 5566,
      "1989": 5567,
      "photographs": 5568,
      "cynics": 5569,
      "nervously": 5570,
      "anticipation": 5571,
      "anticipatin": 5572,
      "struggle": 5573,
      "struggles": 5574,
      "bowl": 5575,
      "dominoes": 5576,
      "hustling": 5577,
      "hustled": 5578,
      "pizzle": 5579,
      "portrait": 5580,
      "tests": 5581,
      "televis": 5582,
      "telephone": 5583,
      "tuxedo": 5584,
      "##placeable": 5585,
      "##ounce": 5586,
      "cannons": 5587,
      "plainly": 5588,
      "speech": 5589,
      "speeches": 5590,
      "digging": 5591,
      "bruise": 5592,
      "songwriting": 5593,
      "songwriter": 5594,
      "missionaries": 5595,
      "affections": 5596,
      "poisoned": 5597,
      "passionate": 5598,
      "simply": 5599,
      "simplif": 5600,
      "suspected": 5601,
      "jewelry": 5602,
      "ambition": 5603,
      "bеtty": 5604,
      "bonnet": 5605,
      "dwindling": 5606,
      "firin": 5607,
      "kloss": 5608,
      "karlie": 5609,
      "models": 5610,
      "nikes": 5611,
      "nicer": 5612,
      "pract": 5613,
      "rifle": 5614,
      "service": 5615,
      "ultraviolet": 5616,
      "village": 5617,
      "thirteen": 5618,
      "steady": 5619,
      "stumble": 5620,
      "basically": 5621,
      "failure": 5622,
      "cherish": 5623,
      "cloaks": 5624,
      "separated": 5625,
      "translation": 5626,
      "entertainment": 5627,
      "twinkling": 5628,
      "daggers": 5629,
      "daisy": 5630,
      "philadel": 5631,
      "insincerity": 5632,
      "glorious": 5633,
      "unpretty": 5634,
      "comparison": 5635,
      "surrounded": 5636,
      "survived": 5637,
      "definitely": 5638,
      "occurring": 5639,
      "performance": 5640,
      "avoid": 5641,
      "irreplaceable": 5642,
      "receipts": 5643,
      "speculate": 5644,
      "ferociously": 5645,
      "hesitate": 5646,
      "possibilities": 5647,
      "stadiums": 5648,
      "28th": 5649,
      "aldrid": 5650,
      "audiences": 5651,
      "clever": 5652,
      "cups": 5653,
      "civility": 5654,
      "eclips": 5655,
      "effect": 5656,
      "echosmith": 5657,
      "feline": 5658,
      "gestures": 5659,
      "gangster": 5660,
      "gatsby": 5661,
      "husband": 5662,
      "jinx": 5663,
      "jerusalem": 5664,
      "jumps": 5665,
      "journey": 5666,
      "lingering": 5667,
      "lurking": 5668,
      "lewis": 5669,
      "leaned": 5670,
      "language": 5671,
      "mental": 5672,
      "mccartney": 5673,
      "mittens": 5674,
      "matinee": 5675,
      "nеver": 5676,
      "nineteen": 5677,
      "narciss": 5678,
      "nurses": 5679,
      "normal": 5680,
      "origin": 5681,
      "plywood": 5682,
      "potential": 5683,
      "pattern": 5684,
      "rhode": 5685,
      "riddles": 5686,
      "rattling": 5687,
      "session": 5688,
      "swaying": 5689,
      "schemes": 5690,
      "tlc": 5691,
      "tongue": 5692,
      "tunnel": 5693,
      "tupelo": 5694,
      "temptation": 5695,
      "uzo": 5696,
      "vanished": 5697,
      "wiser": 5698,
      "widow": 5699,
      "wolves": 5700,
      "westerly": 5701,
      "yogurt": 5702,
      "z93": 5703,
      "##munications": 5704,
      "thieves": 5705,
      "believer": 5706,
      "stomach": 5707,
      "stella": 5708,
      "studio": 5709,
      "soccer": 5710,
      "sophistication": 5711,
      "knuckles": 5712,
      "hackney": 5713,
      "shimmering": 5714,
      "shifting": 5715,
      "repeating": 5716,
      "revelers": 5717,
      "regulars": 5718,
      "cavalry": 5719,
      "timberlake": 5720,
      "whatsoever": 5721,
      "outraged": 5722,
      "outdoor": 5723,
      "vendetta": 5724,
      "backroads": 5725,
      "alpha": 5726,
      "challen": 5727,
      "laptop": 5728,
      "abigail": 5729,
      "spontaneous": 5730,
      "splashed": 5731,
      "williams": 5732,
      "divorcee": 5733,
      "secrecy": 5734,
      "tropez": 5735,
      "mondays": 5736,
      "gauche": 5737,
      "amazon": 5738,
      "delevingne": 5739,
      "architect": 5740,
      "trapeze": 5741,
      "exchanged": 5742,
      "crumpled": 5743,
      "crestfallen": 5744,
      "paralyzed": 5745,
      "convictions": 5746,
      "prettiest": 5747,
      "mariska": 5748,
      "marjorie": 5749,
      "godforsaken": 5750,
      "unresolved": 5751,
      "unbroken": 5752,
      "unlucky": 5753,
      "grumbling": 5754,
      "snotty": 5755,
      "silhouette": 5756,
      "drastically": 5757,
      "worthwhile": 5758,
      "deluxe": 5759,
      "idiotic": 5760,
      "mercurial": 5761,
      "adventures": 5762,
      "aduba": 5763,
      "miscommunications": 5764,
      "integrity": 5765,
      "balancin": 5766,
      "collaborators": 5767,
      "bittersweet": 5768,
      "hargitay": 5769,
      "bridesmaid": 5770,
      "humiliation": 5771,
      "rutherford": 5772,
      "simplify": 5773,
      "philadelphia": 5774,
      "aldridge": 5775,
      "eclipsed": 5776,
      "narcissist": 5777,
      "23": 5778,
      "45": 5779,
      "44": 5780,
      "4th": 5781,
      "4am": 5782,
      "50": 5783,
      "54": 5784,
      "64": 5785,
      "69": 5786,
      "6th": 5787,
      "70s": 5788,
      "80s": 5789,
      "93": 5790,
      "aer": 5791,
      "aar": 5792,
      "ace": 5793,
      "amber": 5794,
      "avenge": 5795,
      "alew": 5796,
      "astr": 5797,
      "ban": 5798,
      "bust": 5799,
      "brie": 5800,
      "bears": 5801,
      "bang": 5802,
      "bush": 5803,
      "bord": 5804,
      "bank": 5805,
      "bows": 5806,
      "biding": 5807,
      "brill": 5808,
      "battered": 5809,
      "bounce": 5810,
      "ci": 5811,
      "cm": 5812,
      "cere": 5813,
      "cly": 5814,
      "core": 5815,
      "cous": 5816,
      "cope": 5817,
      "code": 5818,
      "categ": 5819,
      "cuss": 5820,
      "dе": 5821,
      "dj": 5822,
      "der": 5823,
      "dess": 5824,
      "dun": 5825,
      "dand": 5826,
      "due": 5827,
      "duck": 5828,
      "duch": 5829,
      "douch": 5830,
      "douse": 5831,
      "dents": 5832,
      "dues": 5833,
      "dude": 5834,
      "derm": 5835,
      "dumb": 5836,
      "diction": 5837,
      "dеs": 5838,
      "ew": 5839,
      "est": 5840,
      "eve": 5841,
      "eth": 5842,
      "ember": 5843,
      "eup": 5844,
      "eff": 5845,
      "ema": 5846,
      "ess": 5847,
      "econ": 5848,
      "evol": 5849,
      "fat": 5850,
      "fea": 5851,
      "furn": 5852,
      "fist": 5853,
      "files": 5854,
      "fetty": 5855,
      "g5": 5856,
      "gut": 5857,
      "gar": 5858,
      "gould": 5859,
      "gri": 5860,
      "gain": 5861,
      "gated": 5862,
      "gift": 5863,
      "ginger": 5864,
      "grill": 5865,
      "hou": 5866,
      "hed": 5867,
      "hay": 5868,
      "hatch": 5869,
      "hous": 5870,
      "hug": 5871,
      "heel": 5872,
      "im": 5873,
      "ira": 5874,
      "iphone": 5875,
      "iphones": 5876,
      "jing": 5877,
      "jon": 5878,
      "jen": 5879,
      "jill": 5880,
      "jim": 5881,
      "jas": 5882,
      "jup": 5883,
      "jane": 5884,
      "jars": 5885,
      "jung": 5886,
      "ki": 5887,
      "ko": 5888,
      "ken": 5889,
      "kay": 5890,
      "kra": 5891,
      "kidd": 5892,
      "kend": 5893,
      "kud": 5894,
      "kesh": 5895,
      "kany": 5896,
      "kha": 5897,
      "kels": 5898,
      "kans": 5899,
      "lе": 5900,
      "lin": 5901,
      "lust": 5902,
      "lark": 5903,
      "lard": 5904,
      "lute": 5905,
      "lined": 5906,
      "lung": 5907,
      "lenn": 5908,
      "lux": 5909,
      "lena": 5910,
      "mu": 5911,
      "mk": 5912,
      "math": 5913,
      "mick": 5914,
      "mild": 5915,
      "mult": 5916,
      "mung": 5917,
      "muff": 5918,
      "matur": 5919,
      "nu": 5920,
      "nd": 5921,
      "nk": 5922,
      "nf": 5923,
      "ner": 5924,
      "nat": 5925,
      "non": 5926,
      "nico": 5927,
      "og": 5928,
      "od": 5929,
      "ov": 5930,
      "ol": 5931,
      "oth": 5932,
      "ore": 5933,
      "oop": 5934,
      "oli": 5935,
      "oas": 5936,
      "omi": 5937,
      "ps": 5938,
      "pj": 5939,
      "pit": 5940,
      "pod": 5941,
      "pok": 5942,
      "pad": 5943,
      "pun": 5944,
      "prea": 5945,
      "pry": 5946,
      "pfe": 5947,
      "piss": 5948,
      "pul": 5949,
      "pile": 5950,
      "pater": 5951,
      "pump": 5952,
      "pier": 5953,
      "puff": 5954,
      "position": 5955,
      "pounds": 5956,
      "poun": 5957,
      "ponto": 5958,
      "ry": 5959,
      "rе": 5960,
      "rop": 5961,
      "rus": 5962,
      "rig": 5963,
      "rick": 5964,
      "rice": 5965,
      "rug": 5966,
      "rump": 5967,
      "rha": 5968,
      "sd": 5969,
      "sen": 5970,
      "san": 5971,
      "sake": 5972,
      "sean": 5973,
      "site": 5974,
      "sways": 5975,
      "slight": 5976,
      "sigh": 5977,
      "sour": 5978,
      "sinc": 5979,
      "sane": 5980,
      "sеn": 5981,
      "silly": 5982,
      "sighs": 5983,
      "ted": 5984,
      "tar": 5985,
      "tch": 5986,
      "tink": 5987,
      "tent": 5988,
      "tate": 5989,
      "teen": 5990,
      "tug": 5991,
      "tents": 5992,
      "tank": 5993,
      "tender": 5994,
      "una": 5995,
      "urie": 5996,
      "ute": 5997,
      "vе": 5998,
      "vin": 5999,
      "ven": 6000,
      "vid": 6001,
      "vir": 6002,
      "vom": 6003,
      "vine": 6004,
      "vict": 6005,
      "vma": 6006,
      "vinc": 6007,
      "vult": 6008,
      "vines": 6009,
      "vast": 6010,
      "vanc": 6011,
      "vented": 6012,
      "wy": 6013,
      "wb": 6014,
      "wow": 6015,
      "wink": 6016,
      "woken": 6017,
      "xc": 6018,
      "x2": 6019,
      "ye": 6020,
      "yon": 6021,
      "yay": 6022,
      "yup": 6023,
      "zer": 6024,
      "zone": 6025,
      "еra": 6026,
      "##ap": 6027,
      "##aj": 6028,
      "##agh": 6029,
      "##ase": 6030,
      "##alie": 6031,
      "##ams": 6032,
      "##aged": 6033,
      "##ama": 6034,
      "##aah": 6035,
      "##ament": 6036,
      "##aud": 6037,
      "##aco": 6038,
      "##avity": 6039,
      "##aked": 6040,
      "##ache": 6041,
      "##yer": 6042,
      "##yok": 6043,
      "##yals": 6044,
      "##go": 6045,
      "##gm": 6046,
      "##gen": 6047,
      "##gar": 6048,
      "##get": 6049,
      "##gra": 6050,
      "##gone": 6051,
      "##grow": 6052,
      "##gger": 6053,
      "##glect": 6054,
      "##gеs": 6055,
      "##gusting": 6056,
      "##ely": 6057,
      "##ends": 6058,
      "##emb": 6059,
      "##ect": 6060,
      "##eous": 6061,
      "##ems": 6062,
      "##epping": 6063,
      "##ecut": 6064,
      "##tu": 6065,
      "##tz": 6066,
      "##tim": 6067,
      "##ties": 6068,
      "##tal": 6069,
      "##teen": 6070,
      "##tible": 6071,
      "##tub": 6072,
      "##tified": 6073,
      "##wind": 6074,
      "##wol": 6075,
      "##wning": 6076,
      "##wty": 6077,
      "##ware": 6078,
      "##wich": 6079,
      "##walk": 6080,
      "##words": 6081,
      "##sea": 6082,
      "##suck": 6083,
      "##siven": 6084,
      "##sbur": 6085,
      "##que": 6086,
      "##ugh": 6087,
      "##uest": 6088,
      "##uation": 6089,
      "##uade": 6090,
      "##rt": 6091,
      "##rd": 6092,
      "##rit": 6093,
      "##rate": 6094,
      "##rue": 6095,
      "##ruck": 6096,
      "##rity": 6097,
      "##rung": 6098,
      "##retti": 6099,
      "##rational": 6100,
      "##rins": 6101,
      "##don": 6102,
      "##dan": 6103,
      "##dle": 6104,
      "##del": 6105,
      "##dney": 6106,
      "##he": 6107,
      "##hing": 6108,
      "##hor": 6109,
      "##has": 6110,
      "##hand": 6111,
      "##head": 6112,
      "##ham": 6113,
      "##happ": 6114,
      "##ige": 6115,
      "##ium": 6116,
      "##iving": 6117,
      "##iers": 6118,
      "##iant": 6119,
      "##iating": 6120,
      "##ippin": 6121,
      "##iaries": 6122,
      "##iеd": 6123,
      "##ippet": 6124,
      "##iosity": 6125,
      "##vе": 6126,
      "##vid": 6127,
      "##vit": 6128,
      "##vad": 6129,
      "##vate": 6130,
      "##vig": 6131,
      "##vier": 6132,
      "##via": 6133,
      "##viding": 6134,
      "##ox": 6135,
      "##oj": 6136,
      "##oop": 6137,
      "##oel": 6138,
      "##oove": 6139,
      "##oia": 6140,
      "##oiled": 6141,
      "##non": 6142,
      "##ners": 6143,
      "##nity": 6144,
      "##nible": 6145,
      "##nished": 6146,
      "##nels": 6147,
      "##nific": 6148,
      "##nounce": 6149,
      "##cd": 6150,
      "##cе": 6151,
      "##cin": 6152,
      "##can": 6153,
      "##cess": 6154,
      "##cas": 6155,
      "##cure": 6156,
      "##cade": 6157,
      "##cious": 6158,
      "##corn": 6159,
      "##cla": 6160,
      "##coun": 6161,
      "##ciate": 6162,
      "##ky": 6163,
      "##ks": 6164,
      "##kke": 6165,
      "##kir": 6166,
      "##mе": 6167,
      "##mst": 6168,
      "##mit": 6169,
      "##mly": 6170,
      "##mad": 6171,
      "##mate": 6172,
      "##mish": 6173,
      "##mother": 6174,
      "##mare": 6175,
      "##mden": 6176,
      "##monies": 6177,
      "##bone": 6178,
      "##bind": 6179,
      "##bad": 6180,
      "##bble": 6181,
      "##bull": 6182,
      "##bute": 6183,
      "##billy": 6184,
      "##bulations": 6185,
      "##lon": 6186,
      "##lay": 6187,
      "##lead": 6188,
      "##lus": 6189,
      "##lot": 6190,
      "##lms": 6191,
      "##log": 6192,
      "##lud": 6193,
      "##liness": 6194,
      "##lude": 6195,
      "##latinum": 6196,
      "##ltz": 6197,
      "##13": 6198,
      "##pen": 6199,
      "##pest": 6200,
      "##pose": 6201,
      "##pass": 6202,
      "##pub": 6203,
      "##place": 6204,
      "##pnot": 6205,
      "##poel": 6206,
      "##fs": 6207,
      "##fet": 6208,
      "##fight": 6209,
      "##fit": 6210,
      "##fter": 6211,
      "##fting": 6212,
      "##file": 6213,
      "##found": 6214,
      "##father": 6215,
      "##ford": 6216,
      "##fense": 6217,
      "##fcase": 6218,
      "##fters": 6219,
      "##fits": 6220,
      "##form": 6221,
      "##еnd": 6222,
      "##еlf": 6223,
      "##еaking": 6224,
      "##xy": 6225,
      "##xic": 6226,
      "##xie": 6227,
      "##xiet": 6228,
      "##zer": 6229,
      "##zel": 6230,
      "##zation": 6231,
      "##zens": 6232,
      "##zart": 6233,
      "##ja": 6234,
      "##jic": 6235,
      "##jam": 6236,
      "##ject": 6237,
      "##20": 6238,
      "##26": 6239,
      "##ouver": 6240,
      "ther": 6241,
      "thre": 6242,
      "thig": 6243,
      "thighs": 6244,
      "youth": 6245,
      "youtu": 6246,
      "##ini": 6247,
      "##inis": 6248,
      "##infe": 6249,
      "##inting": 6250,
      "##inated": 6251,
      "##inary": 6252,
      "##invent": 6253,
      "##inction": 6254,
      "##ern": 6255,
      "##eres": 6256,
      "##erot": 6257,
      "##errie": 6258,
      "##erds": 6259,
      "##ercr": 6260,
      "##erations": 6261,
      "##erife": 6262,
      "##erks": 6263,
      "##ndane": 6264,
      "theat": 6265,
      "theme": 6266,
      "theory": 6267,
      "##inge": 6268,
      "andy": 6269,
      "andre": 6270,
      "andretti": 6271,
      "##aten": 6272,
      "##atitude": 6273,
      "##atism": 6274,
      "##atform": 6275,
      "##ona": 6276,
      "##oning": 6277,
      "##onom": 6278,
      "##onna": 6279,
      "##onne": 6280,
      "##onball": 6281,
      "##llis": 6282,
      "##llent": 6283,
      "##llas": 6284,
      "##owed": 6285,
      "toes": 6286,
      "tove": 6287,
      "toby": 6288,
      "tool": 6289,
      "tops": 6290,
      "topping": 6291,
      "token": 6292,
      "##eap": 6293,
      "##eague": 6294,
      "##eazer": 6295,
      "##esce": 6296,
      "##escap": 6297,
      "##oring": 6298,
      "##orary": 6299,
      "##orities": 6300,
      "##orically": 6301,
      "##orrect": 6302,
      "##ened": 6303,
      "##enched": 6304,
      "##anes": 6305,
      "##anis": 6306,
      "##anna": 6307,
      "##anic": 6308,
      "##ancial": 6309,
      "##anced": 6310,
      "##anche": 6311,
      "##annel": 6312,
      "##annis": 6313,
      "##anhas": 6314,
      "##anoia": 6315,
      "meth": 6316,
      "member": 6317,
      "mement": 6318,
      "melook": 6319,
      "itself": 6320,
      "item": 6321,
      "whine": 6322,
      "whist": 6323,
      "whets": 6324,
      "whippin": 6325,
      "##edit": 6326,
      "##edress": 6327,
      "##ediction": 6328,
      "##ayah": 6329,
      "##mel": 6330,
      "##memor": 6331,
      "bever": 6332,
      "beers": 6333,
      "becas": 6334,
      "ink": 6335,
      "init": 6336,
      "inaud": 6337,
      "inescap": 6338,
      "##utch": 6339,
      "##utally": 6340,
      "##ston": 6341,
      "##stal": 6342,
      "##stage": 6343,
      "##steen": 6344,
      "##stance": 6345,
      "##ghthear": 6346,
      "mysp": 6347,
      "liz": 6348,
      "limb": 6349,
      "liter": 6350,
      "liqu": 6351,
      "lisa": 6352,
      "limit": 6353,
      "lighthear": 6354,
      "##vering": 6355,
      "##verence": 6356,
      "##vertible": 6357,
      "onere": 6358,
      "onstage": 6359,
      "##there": 6360,
      "##think": 6361,
      "##thus": 6362,
      "##ision": 6363,
      "##isite": 6364,
      "##isps": 6365,
      "##isco": 6366,
      "loca": 6367,
      "looted": 6368,
      "loses": 6369,
      "loyal": 6370,
      "lovest": 6371,
      "thats": 6372,
      "often": 6373,
      "stok": 6374,
      "stif": 6375,
      "stack": 6376,
      "stall": 6377,
      "stitch": 6378,
      "stated": 6379,
      "stank": 6380,
      "states": 6381,
      "stubb": 6382,
      "stutter": 6383,
      "stoop": 6384,
      "stern": 6385,
      "##eeful": 6386,
      "##eeming": 6387,
      "##eezy": 6388,
      "##eetings": 6389,
      "wap": 6390,
      "wary": 6391,
      "waist": 6392,
      "wages": 6393,
      "waded": 6394,
      "wagon": 6395,
      "waltz": 6396,
      "social": 6397,
      "sober": 6398,
      "soaring": 6399,
      "soak": 6400,
      "socal": 6401,
      "soaking": 6402,
      "soaked": 6403,
      "somе": 6404,
      "softer": 6405,
      "wet": 6406,
      "##arm": 6407,
      "##arch": 6408,
      "##arra": 6409,
      "##arently": 6410,
      "##arfs": 6411,
      "goal": 6412,
      "gods": 6413,
      "gosh": 6414,
      "goof": 6415,
      "##sell": 6416,
      "##sect": 6417,
      "knit": 6418,
      "kneel": 6419,
      "kngs": 6420,
      "bag": 6421,
      "baff": 6422,
      "baez": 6423,
      "haim": 6424,
      "hail": 6425,
      "hallow": 6426,
      "halo": 6427,
      "hammer": 6428,
      "havе": 6429,
      "##eta": 6430,
      "##etra": 6431,
      "##etite": 6432,
      "##eties": 6433,
      "##etition": 6434,
      "##idi": 6435,
      "##ident": 6436,
      "##idence": 6437,
      "##idual": 6438,
      "shore": 6439,
      "shove": 6440,
      "shied": 6441,
      "shuff": 6442,
      "sharing": 6443,
      "shored": 6444,
      "shеlf": 6445,
      "rey": 6446,
      "rely": 6447,
      "reward": 6448,
      "rewind": 6449,
      "reinvent": 6450,
      "reverence": 6451,
      "##ightful": 6452,
      "nemes": 6453,
      "neglect": 6454,
      "alley": 6455,
      "allowed": 6456,
      "nobel": 6457,
      "novel": 6458,
      "nodon": 6459,
      "##lement": 6460,
      "##leball": 6461,
      "##levan": 6462,
      "form": 6463,
      "forew": 6464,
      "forms": 6465,
      "forts": 6466,
      "wiz": 6467,
      "wield": 6468,
      "##reme": 6469,
      "##render": 6470,
      "##reens": 6471,
      "##rector": 6472,
      "##reciate": 6473,
      "ish": 6474,
      "isol": 6475,
      "issu": 6476,
      "cake": 6477,
      "camp": 6478,
      "caged": 6479,
      "caused": 6480,
      "cases": 6481,
      "calif": 6482,
      "camden": 6483,
      "##itic": 6484,
      "##iture": 6485,
      "##itful": 6486,
      "##itten": 6487,
      "##earing": 6488,
      "donna": 6489,
      "donald": 6490,
      "##cellent": 6491,
      "##irk": 6492,
      "##irer": 6493,
      "##irational": 6494,
      "##omic": 6495,
      "##ompl": 6496,
      "justice": 6497,
      "heather": 6498,
      "hehe": 6499,
      "heidi": 6500,
      "tips": 6501,
      "tiff": 6502,
      "dope": 6503,
      "dozens": 6504,
      "##cha": 6505,
      "##chain": 6506,
      "##chel": 6507,
      "##chal": 6508,
      "##child": 6509,
      "##chief": 6510,
      "withstand": 6511,
      "##uring": 6512,
      "whatcha": 6513,
      "sag": 6514,
      "sable": 6515,
      "sash": 6516,
      "sacri": 6517,
      "safet": 6518,
      "##oder": 6519,
      "##oded": 6520,
      "##odist": 6521,
      "##things": 6522,
      "##essia": 6523,
      "outward": 6524,
      "outgrow": 6525,
      "outfits": 6526,
      "##lyn": 6527,
      "upset": 6528,
      "uplo": 6529,
      "upstand": 6530,
      "##ram": 6531,
      "##rap": 6532,
      "##race": 6533,
      "##ravel": 6534,
      "##oneering": 6535,
      "vending": 6536,
      "##inkle": 6537,
      "timeless": 6538,
      "##ril": 6539,
      "##riers": 6540,
      "##rica": 6541,
      "##riag": 6542,
      "##ribute": 6543,
      "##riarch": 6544,
      "atta": 6545,
      "##indled": 6546,
      "annie": 6547,
      "anaco": 6548,
      "announce": 6549,
      "anxiet": 6550,
      "##adal": 6551,
      "##unette": 6552,
      "babylon": 6553,
      "##reasing": 6554,
      "backing": 6555,
      "backward": 6556,
      "background": 6557,
      "backlog": 6558,
      "##tter": 6559,
      "##tten": 6560,
      "##tted": 6561,
      "faint": 6562,
      "facing": 6563,
      "fakin": 6564,
      "fables": 6565,
      "fasc": 6566,
      "fakir": 6567,
      "alab": 6568,
      "alison": 6569,
      "alib": 6570,
      "alanis": 6571,
      "alessia": 6572,
      "chink": 6573,
      "cheek": 6574,
      "chord": 6575,
      "chart": 6576,
      "chatter": 6577,
      "choc": 6578,
      "chesh": 6579,
      "choking": 6580,
      "chris": 6581,
      "cheap": 6582,
      "##icles": 6583,
      "##iciaries": 6584,
      "##ains": 6585,
      "##aints": 6586,
      "plent": 6587,
      "plate": 6588,
      "platt": 6589,
      "plates": 6590,
      "plott": 6591,
      "platform": 6592,
      "downs": 6593,
      "downfall": 6594,
      "hearing": 6595,
      "##entially": 6596,
      "sheph": 6597,
      "notices": 6598,
      "las": 6599,
      "lamber": 6600,
      "lazy": 6601,
      "lavig": 6602,
      "whoath": 6603,
      "whoever": 6604,
      "abercr": 6605,
      "fray": 6606,
      "france": 6607,
      "franc": 6608,
      "frightful": 6609,
      "aspect": 6610,
      "asian": 6611,
      "asha": 6612,
      "werewol": 6613,
      "reaches": 6614,
      "reaction": 6615,
      "##esting": 6616,
      "##estepping": 6617,
      "##elle": 6618,
      "##illes": 6619,
      "comet": 6620,
      "prot": 6621,
      "prote": 6622,
      "prank": 6623,
      "prins": 6624,
      "prints": 6625,
      "prediction": 6626,
      "blake": 6627,
      "bleep": 6628,
      "bliss": 6629,
      "blog": 6630,
      "blaring": 6631,
      "bloom": 6632,
      "bluest": 6633,
      "blige": 6634,
      "tag": 6635,
      "tae": 6636,
      "tab": 6637,
      "tamp": 6638,
      "taming": 6639,
      "tappin": 6640,
      "tapest": 6641,
      "##liest": 6642,
      "##lief": 6643,
      "##lized": 6644,
      "##lifa": 6645,
      "nightfall": 6646,
      "nightstand": 6647,
      "nightmare": 6648,
      "daybreak": 6649,
      "dayget": 6650,
      "letdown": 6651,
      "##few": 6652,
      "##feat": 6653,
      "clan": 6654,
      "clair": 6655,
      "clubb": 6656,
      "clutch": 6657,
      "righteous": 6658,
      "however": 6659,
      "##imed": 6660,
      "##iments": 6661,
      "spy": 6662,
      "spoke": 6663,
      "spare": 6664,
      "spac": 6665,
      "spoon": 6666,
      "spread": 6667,
      "spattered": 6668,
      "spagh": 6669,
      "sprung": 6670,
      "spoiled": 6671,
      "##asize": 6672,
      "willin": 6673,
      "willing": 6674,
      "madden": 6675,
      "madison": 6676,
      "madhouse": 6677,
      "hearted": 6678,
      "heartstr": 6679,
      "heartache": 6680,
      "heartdel": 6681,
      "heart13": 6682,
      "eyеs": 6683,
      "manage": 6684,
      "manip": 6685,
      "##ately": 6686,
      "##ishments": 6687,
      "hovering": 6688,
      "##anda": 6689,
      "##andescent": 6690,
      "naked": 6691,
      "naaa": 6692,
      "diving": 6693,
      "dial": 6694,
      "dizz": 6695,
      "divid": 6696,
      "dixie": 6697,
      "dierks": 6698,
      "dianna": 6699,
      "director": 6700,
      "shouldered": 6701,
      "seize": 6702,
      "seatt": 6703,
      "section": 6704,
      "sending": 6705,
      "secur": 6706,
      "semin": 6707,
      "sexy": 6708,
      "roar": 6709,
      "role": 6710,
      "rooted": 6711,
      "rober": 6712,
      "rogue": 6713,
      "royal": 6714,
      "royals": 6715,
      "rotten": 6716,
      "usa": 6717,
      "uses": 6718,
      "##ctured": 6719,
      "##ols": 6720,
      "##olis": 6721,
      "##olate": 6722,
      "##olates": 6723,
      "betting": 6724,
      "bettеr": 6725,
      "herе": 6726,
      "herre": 6727,
      "herself": 6728,
      "##irls": 6729,
      "wishеs": 6730,
      "strateg": 6731,
      "commer": 6732,
      "comment": 6733,
      "commemor": 6734,
      "wrinkle": 6735,
      "needy": 6736,
      "agents": 6737,
      "aglow": 6738,
      "agree": 6739,
      "agency": 6740,
      "##pper": 6741,
      "##ppie": 6742,
      "boom": 6743,
      "boil": 6744,
      "boating": 6745,
      "boats": 6746,
      "max": 6747,
      "maus": 6748,
      "maze": 6749,
      "maps": 6750,
      "maple": 6751,
      "carly": 6752,
      "carrie": 6753,
      "carved": 6754,
      "carolin": 6755,
      "carwe": 6756,
      "carried": 6757,
      "carols": 6758,
      "lightnin": 6759,
      "stared": 6760,
      "stardom": 6761,
      "##tern": 6762,
      "##ulo": 6763,
      "##ulant": 6764,
      "##ulative": 6765,
      "##ulsiven": 6766,
      "##uses": 6767,
      "byline": 6768,
      "bygone": 6769,
      "swears": 6770,
      "swane": 6771,
      "swerve": 6772,
      "swelling": 6773,
      "swindled": 6774,
      "offer": 6775,
      "offense": 6776,
      "offering": 6777,
      "offdan": 6778,
      "##otes": 6779,
      "##otions": 6780,
      "waits": 6781,
      "drake": 6782,
      "drenched": 6783,
      "order": 6784,
      "##umented": 6785,
      "dreamy": 6786,
      "homeless": 6787,
      "homecom": 6788,
      "throughout": 6789,
      "##igious": 6790,
      "##igree": 6791,
      "##ilar": 6792,
      "##ilight": 6793,
      "##ilway": 6794,
      "##ilous": 6795,
      "scent": 6796,
      "scour": 6797,
      "screw": 6798,
      "scoo": 6799,
      "screens": 6800,
      "scrap": 6801,
      "smug": 6802,
      "smoo": 6803,
      "smirk": 6804,
      "brow": 6805,
      "brook": 6806,
      "brеaking": 6807,
      "brutally": 6808,
      "breezy": 6809,
      "brunette": 6810,
      "badly": 6811,
      "coin": 6812,
      "covers": 6813,
      "coax": 6814,
      "tray": 6815,
      "troy": 6816,
      "mood": 6817,
      "mozart": 6818,
      "lifeline": 6819,
      "guadal": 6820,
      "##elmed": 6821,
      "leak": 6822,
      "leaver": 6823,
      "paces": 6824,
      "paced": 6825,
      "pacin": 6826,
      "palms": 6827,
      "pauses": 6828,
      "songbl": 6829,
      "fling": 6830,
      "flat": 6831,
      "flatter": 6832,
      "flutter": 6833,
      "flannel": 6834,
      "newest": 6835,
      "newfound": 6836,
      "talkin": 6837,
      "breakdown": 6838,
      "amnes": 6839,
      "##ists": 6840,
      "##isting": 6841,
      "##istry": 6842,
      "##istant": 6843,
      "hopin": 6844,
      "hopef": 6845,
      "hopeful": 6846,
      "##rowеd": 6847,
      "crave": 6848,
      "cradle": 6849,
      "##alent": 6850,
      "##alanche": 6851,
      "##ify": 6852,
      "changer": 6853,
      "changes": 6854,
      "channel": 6855,
      "channels": 6856,
      "thoughtful": 6857,
      "folly": 6858,
      "fogs": 6859,
      "foyer": 6860,
      "intoxic": 6861,
      "deere": 6862,
      "deck": 6863,
      "depe": 6864,
      "debt": 6865,
      "deeds": 6866,
      "degen": 6867,
      "defeat": 6868,
      "encoun": 6869,
      "enthus": 6870,
      "handwr": 6871,
      "##belief": 6872,
      "thanking": 6873,
      "playin": 6874,
      "playthings": 6875,
      "watches": 6876,
      "##ounding": 6877,
      "evening": 6878,
      "##osaur": 6879,
      "faceless": 6880,
      "arе": 6881,
      "arling": 6882,
      "arcade": 6883,
      "twitter": 6884,
      "twirls": 6885,
      "twilight": 6886,
      "oversh": 6887,
      "overwh": 6888,
      "overlook": 6889,
      "oversea": 6890,
      "overrate": 6891,
      "overpass": 6892,
      "redhead": 6893,
      "redisco": 6894,
      "redeeming": 6895,
      "driver": 6896,
      "drift": 6897,
      "drifting": 6898,
      "tramp": 6899,
      "tracing": 6900,
      "tractor": 6901,
      "traits": 6902,
      "tracе": 6903,
      "##lessly": 6904,
      "endearing": 6905,
      "slay": 6906,
      "slates": 6907,
      "slides": 6908,
      "excr": 6909,
      "exqu": 6910,
      "exha": 6911,
      "exiled": 6912,
      "execut": 6913,
      "excellent": 6914,
      "begged": 6915,
      "storms": 6916,
      "heading": 6917,
      "headphones": 6918,
      "beams": 6919,
      "daze": 6920,
      "dawning": 6921,
      "dallas": 6922,
      "perry": 6923,
      "perign": 6924,
      "perilous": 6925,
      "windsh": 6926,
      "afar": 6927,
      "afford": 6928,
      "peke": 6929,
      "pejic": 6930,
      "underval": 6931,
      "undercut": 6932,
      "crust": 6933,
      "crescent": 6934,
      "criti": 6935,
      "cringe": 6936,
      "credit": 6937,
      "crisps": 6938,
      "critic": 6939,
      "parab": 6940,
      "paranoia": 6941,
      "meets": 6942,
      "##ptics": 6943,
      "hashing": 6944,
      "planes": 6945,
      "planted": 6946,
      "leftwich": 6947,
      "concret": 6948,
      "consc": 6949,
      "concent": 6950,
      "convertible": 6951,
      "pretends": 6952,
      "messaged": 6953,
      "believable": 6954,
      "sort": 6955,
      "sorta": 6956,
      "fives": 6957,
      "quo": 6958,
      "quake": 6959,
      "quali": 6960,
      "quotes": 6961,
      "skirts": 6962,
      "scary": 6963,
      "scares": 6964,
      "phair": 6965,
      "phoe": 6966,
      "phase": 6967,
      "##morous": 6968,
      "once1": 6969,
      "laughs": 6970,
      "darkened": 6971,
      "sung": 6972,
      "sunlight": 6973,
      "sunken": 6974,
      "tones": 6975,
      "hardship": 6976,
      "hardcore": 6977,
      "dresser": 6978,
      "dressing": 6979,
      "guessin": 6980,
      "guessing": 6981,
      "guessed": 6982,
      "couches": 6983,
      "couples": 6984,
      "cougar": 6985,
      "court": 6986,
      "operations": 6987,
      "storybo": 6988,
      "roommate": 6989,
      "bluegra": 6990,
      "crystal": 6991,
      "kindness": 6992,
      "pov": 6993,
      "poem": 6994,
      "poems": 6995,
      "##necess": 6996,
      "##psody": 6997,
      "greed": 6998,
      "greens": 6999,
      "2020": 7000,
      "##ffiti": 7001,
      "sidelines": 7002,
      "picturing": 7003,
      "##mediate": 7004,
      "daring": 7005,
      "dared": 7006,
      "shawn": 7007,
      "shawty": 7008,
      "highway": 7009,
      "highlight": 7010,
      "painting": 7011,
      "painful": 7012,
      "paintings": 7013,
      "##xton": 7014,
      "##xture": 7015,
      "wincing": 7016,
      "insides": 7017,
      "insisting": 7018,
      "glove": 7019,
      "glory": 7020,
      "gleeful": 7021,
      "picks": 7022,
      "situation": 7023,
      "troubles": 7024,
      "proving": 7025,
      "proced": 7026,
      "provide": 7027,
      "providing": 7028,
      "procla": 7029,
      "profile": 7030,
      "##ugging": 7031,
      "##ievement": 7032,
      "promotion": 7033,
      "mused": 7034,
      "belt": 7035,
      "musically": 7036,
      "musician": 7037,
      "grounded": 7038,
      "magnific": 7039,
      "metal": 7040,
      "screamin": 7041,
      "sleeps": 7042,
      "sleepin": 7043,
      "sleepers": 7044,
      "##nedy": 7045,
      "##iddlebone": 7046,
      "signed": 7047,
      "gramm": 7048,
      "grasp": 7049,
      "grabbed": 7050,
      "grammer": 7051,
      "grainy": 7052,
      "graffiti": 7053,
      "honeysuck": 7054,
      "listens": 7055,
      "listеn": 7056,
      "tilted": 7057,
      "clearer": 7058,
      "clearest": 7059,
      "##umph": 7060,
      "hurl": 7061,
      "hurting": 7062,
      "mary": 7063,
      "maren": 7064,
      "maria": 7065,
      "mario": 7066,
      "marriag": 7067,
      "passes": 7068,
      "passwords": 7069,
      "trim": 7070,
      "tries": 7071,
      "tricked": 7072,
      "trials": 7073,
      "trivia": 7074,
      "tribulations": 7075,
      "triumph": 7076,
      "wars": 7077,
      "##ademy": 7078,
      "brace": 7079,
      "brakes": 7080,
      "bravest": 7081,
      "bravad": 7082,
      "finished": 7083,
      "financial": 7084,
      "##ashes": 7085,
      "huge": 7086,
      "huff": 7087,
      "humble": 7088,
      "steer": 7089,
      "steven": 7090,
      "stepped": 7091,
      "steering": 7092,
      "steinfe": 7093,
      "asks": 7094,
      "cords": 7095,
      "mustang": 7096,
      "uni": 7097,
      "unto": 7098,
      "unease": 7099,
      "uncom": 7100,
      "unfair": 7101,
      "unmo": 7102,
      "unsa": 7103,
      "uncle": 7104,
      "univer": 7105,
      "unpa": 7106,
      "unlike": 7107,
      "unhapp": 7108,
      "unthink": 7109,
      "unravel": 7110,
      "unnecess": 7111,
      "##vors": 7112,
      "##mentor": 7113,
      "compens": 7114,
      "complet": 7115,
      "competition": 7116,
      "2011": 7117,
      "2019": 7118,
      "2017": 7119,
      "helped": 7120,
      "helpless": 7121,
      "barriers": 7122,
      "teams": 7123,
      "teaches": 7124,
      "##integr": 7125,
      "greet": 7126,
      "grant": 7127,
      "granted": 7128,
      "granting": 7129,
      "groo": 7130,
      "groove": 7131,
      "gratitude": 7132,
      "greetings": 7133,
      "greta": 7134,
      "griddlebone": 7135,
      "pulls": 7136,
      "ringin": 7137,
      "yearn": 7138,
      "yearning": 7139,
      "pasture": 7140,
      "curate": 7141,
      "curves": 7142,
      "curled": 7143,
      "curren": 7144,
      "curses": 7145,
      "curiosity": 7146,
      "curfew": 7147,
      "emotion": 7148,
      "emotions": 7149,
      "killin": 7150,
      "snake": 7151,
      "snippet": 7152,
      "favorable": 7153,
      "friendly": 7154,
      "taylor1": 7155,
      "leaders": 7156,
      "misty": 7157,
      "##uda": 7158,
      "##uded": 7159,
      "morе": 7160,
      "mornin": 7161,
      "mortified": 7162,
      "owns": 7163,
      "##ipal": 7164,
      "##iplatinum": 7165,
      "##ension": 7166,
      "freefall": 7167,
      "cooler": 7168,
      "actin": 7169,
      "action": 7170,
      "deepеr": 7171,
      "realign": 7172,
      "realization": 7173,
      "gameking": 7174,
      "hiddenpa": 7175,
      "flag": 7176,
      "##ordinary": 7177,
      "##ordthere": 7178,
      "guitary": 7179,
      "guitars": 7180,
      "sparkin": 7181,
      "sparkly": 7182,
      "articles": 7183,
      "deadlines": 7184,
      "crimes": 7185,
      "cricket": 7186,
      "crimin": 7187,
      "##artment": 7188,
      "floorboard": 7189,
      "mirrors": 7190,
      "miranda": 7191,
      "poured": 7192,
      "beats": 7193,
      "haunts": 7194,
      "records": 7195,
      "reconne": 7196,
      "deceiver": 7197,
      "deceiving": 7198,
      "deceitful": 7199,
      "##iousness": 7200,
      "##cocious": 7201,
      "whiskers": 7202,
      "whisky": 7203,
      "diego": 7204,
      "crossin": 7205,
      "untrue": 7206,
      "cleaned": 7207,
      "design": 7208,
      "descri": 7209,
      "desolate": 7210,
      "raw": 7211,
      "rap": 7212,
      "raging": 7213,
      "races": 7214,
      "raise": 7215,
      "raising": 7216,
      "rafters": 7217,
      "rachel": 7218,
      "rapper": 7219,
      "railway": 7220,
      "##qued": 7221,
      "##quakes": 7222,
      "##quently": 7223,
      "throws": 7224,
      "dropping": 7225,
      "keith": 7226,
      "rumble": 7227,
      "rounding": 7228,
      "surrender": 7229,
      "mostly": 7230,
      "happenstance": 7231,
      "awe": 7232,
      "aww": 7233,
      "award": 7234,
      "julia": 7235,
      "reply": 7236,
      "repair": 7237,
      "repres": 7238,
      "reports": 7239,
      "replay": 7240,
      "difference": 7241,
      "subur": 7242,
      "suavity": 7243,
      "##ortion": 7244,
      "fairies": 7245,
      "swearin": 7246,
      "airpl": 7247,
      "airport": 7248,
      "bubble": 7249,
      "simon": 7250,
      "similar": 7251,
      "vibr": 7252,
      "strip": 7253,
      "stripe": 7254,
      "halls": 7255,
      "movements": 7256,
      "slower": 7257,
      "##cretions": 7258,
      "loudly": 7259,
      "disgu": 7260,
      "disgusting": 7261,
      "disarm": 7262,
      "disbelief": 7263,
      "disintegr": 7264,
      "tennis": 7265,
      "tenerife": 7266,
      "remain": 7267,
      "remote": 7268,
      "removed": 7269,
      "remaining": 7270,
      "reminis": 7271,
      "checks": 7272,
      "brokenness": 7273,
      "trucks": 7274,
      "partner": 7275,
      "particul": 7276,
      "partners": 7277,
      "catches": 7278,
      "millions": 7279,
      "sippin": 7280,
      "sivan": 7281,
      "sierot": 7282,
      "##roit": 7283,
      "##rovis": 7284,
      "bitten": 7285,
      "gardens": 7286,
      "gardеn": 7287,
      "greenhouse": 7288,
      "mmmm": 7289,
      "blended": 7290,
      "blemish": 7291,
      "columb": 7292,
      "column": 7293,
      "##ornia": 7294,
      "##ology": 7295,
      "arena": 7296,
      "apparently": 7297,
      "appetite": 7298,
      "appreciate": 7299,
      "idina": 7300,
      "trends": 7301,
      "treating": 7302,
      "trellis": 7303,
      "behati": 7304,
      "behold": 7305,
      "blaow": 7306,
      "blaze": 7307,
      "speed": 7308,
      "indiv": 7309,
      "merlot": 7310,
      "ridicul": 7311,
      "bringing": 7312,
      "decent": 7313,
      "decision": 7314,
      "damage": 7315,
      "adam": 7316,
      "admi": 7317,
      "adams": 7318,
      "##stem": 7319,
      "childlike": 7320,
      "views": 7321,
      "riot": 7322,
      "rivier": 7323,
      "slips": 7324,
      "spells": 7325,
      "spellbind": 7326,
      "spots": 7327,
      "cardboard": 7328,
      "keychain": 7329,
      "fairytal": 7330,
      "level": 7331,
      "lebl": 7332,
      "levit": 7333,
      "leona": 7334,
      "midas": 7335,
      "private": 7336,
      "primad": 7337,
      "priorities": 7338,
      "rulings": 7339,
      "##iastic": 7340,
      "halfway": 7341,
      "images": 7342,
      "imagery": 7343,
      "jail": 7344,
      "jagger": 7345,
      "polish": 7346,
      "polished": 7347,
      "##hows": 7348,
      "stranded": 7349,
      "principal": 7350,
      "footage": 7351,
      "footnot": 7352,
      "expose": 7353,
      "confine": 7354,
      "confusion": 7355,
      "confidence": 7356,
      "septembers": 7357,
      "minaj": 7358,
      "previous": 7359,
      "prepar": 7360,
      "precocious": 7361,
      "pushes": 7362,
      "werе": 7363,
      "distress": 7364,
      "distinction": 7365,
      "thankin": 7366,
      "thankfully": 7367,
      "warmth": 7368,
      "warmest": 7369,
      "straighten": 7370,
      "princesses": 7371,
      "22nd": 7372,
      "impati": 7373,
      "impulsiven": 7374,
      "improvis": 7375,
      "loneliness": 7376,
      "persuade": 7377,
      "interstate": 7378,
      "interlude": 7379,
      "intersect": 7380,
      "interesting": 7381,
      "solid": 7382,
      "shirts": 7383,
      "daydreaming": 7384,
      "daydreamed": 7385,
      "cruelest": 7386,
      "dragging": 7387,
      "bentley": 7388,
      "payche": 7389,
      "respons": 7390,
      "resorts": 7391,
      "resemb": 7392,
      "resounding": 7393,
      "sidetra": 7394,
      "sidestepping": 7395,
      "instant": 7396,
      "instag": 7397,
      "classroom": 7398,
      "framed": 7399,
      "fractured": 7400,
      "mattered": 7401,
      "terms": 7402,
      "terror": 7403,
      "territ": 7404,
      "##acing": 7405,
      "##ablish": 7406,
      "##icals": 7407,
      "blinding": 7408,
      "flowed": 7409,
      "daughters": 7410,
      "fields": 7411,
      "understanding": 7412,
      "joan": 7413,
      "jotted": 7414,
      "object": 7415,
      "widely": 7416,
      "##letons": 7417,
      "##leteazer": 7418,
      "##zzles": 7419,
      "selfie": 7420,
      "booking": 7421,
      "booked": 7422,
      "sweaters": 7423,
      "drinkin": 7424,
      "crawled": 7425,
      "sneakers": 7426,
      "flawlessly": 7427,
      "superior": 7428,
      "earl": 7429,
      "earned": 7430,
      "earliest": 7431,
      "fatefully": 7432,
      "misread": 7433,
      "misfit": 7434,
      "mischief": 7435,
      "radiant": 7436,
      "radiance": 7437,
      "intend": 7438,
      "intense": 7439,
      "intently": 7440,
      "intrins": 7441,
      "shadow": 7442,
      "knowingness": 7443,
      "defy": 7444,
      "define": 7445,
      "traveling": 7446,
      "secondhand": 7447,
      "escaped": 7448,
      "escaping": 7449,
      "accent": 7450,
      "account": 7451,
      "accompl": 7452,
      "creators": 7453,
      "creative": 7454,
      "frequently": 7455,
      "lowest": 7456,
      "motor": 7457,
      "motel": 7458,
      "motive": 7459,
      "motiv": 7460,
      "nearer": 7461,
      "parkеd": 7462,
      "smelly": 7463,
      "##cepted": 7464,
      "contenders": 7465,
      "contains": 7466,
      "conversations": 7467,
      "recorder": 7468,
      "recognition": 7469,
      "persona": 7470,
      "terrible": 7471,
      "recklessly": 7472,
      "1926": 7473,
      "edges": 7474,
      "educ": 7475,
      "edgеs": 7476,
      "horan": 7477,
      "horrors": 7478,
      "horiz": 7479,
      "joking": 7480,
      "jokers": 7481,
      "lorde": 7482,
      "weeknd": 7483,
      "weekly": 7484,
      "##cernible": 7485,
      "candice": 7486,
      "##itted": 7487,
      "attack": 7488,
      "attaining": 7489,
      "attribute": 7490,
      "collins": 7491,
      "colleague": 7492,
      "exception": 7493,
      "actresses": 7494,
      "innocently": 7495,
      "radioact": 7496,
      "questioned": 7497,
      "100": 7498,
      "flip": 7499,
      "hushed": 7500,
      "laying": 7501,
      "rarely": 7502,
      "tyler": 7503,
      "relax": 7504,
      "cloud": 7505,
      "heartbeats": 7506,
      "twists": 7507,
      "fixation": 7508,
      "bleeds": 7509,
      "oceans": 7510,
      "burrowеd": 7511,
      "historically": 7512,
      "##berries": 7513,
      "shorties": 7514,
      "castles": 7515,
      "##rical": 7516,
      "clubs": 7517,
      "apologies": 7518,
      "buys": 7519,
      "sixty": 7520,
      "doubted": 7521,
      "doubtful": 7522,
      "sugarland": 7523,
      "dinosaur": 7524,
      "gunfight": 7525,
      "glimmer": 7526,
      "harold": 7527,
      "harlow": 7528,
      "sleigh": 7529,
      "##laces": 7530,
      "toyin": 7531,
      "strangely": 7532,
      "sweezy": 7533,
      "explore": 7534,
      "exploded": 7535,
      "observe": 7536,
      "obsolet": 7537,
      "18th": 7538,
      "baths": 7539,
      "bathed": 7540,
      "bathtub": 7541,
      "cataly": 7542,
      "dorm": 7543,
      "fucked": 7544,
      "genres": 7545,
      "lykke": 7546,
      "lyrica": 7547,
      "miami": 7548,
      "mixture": 7549,
      "pathway": 7550,
      "sentiments": 7551,
      "##ivalent": 7552,
      "##boro": 7553,
      "sticks": 7554,
      "strawberries": 7555,
      "necklaces": 7556,
      "##ittered": 7557,
      "angles": 7558,
      "preserv": 7559,
      "president": 7560,
      "blocked": 7561,
      "combust": 7562,
      "bridgers": 7563,
      "concerts": 7564,
      "discover": 7565,
      "sidewalks": 7566,
      "flicker": 7567,
      "flickered": 7568,
      "birthdays": 7569,
      "dimming": 7570,
      "dimples": 7571,
      "dimension": 7572,
      "fourteen": 7573,
      "ignoring": 7574,
      "menzel": 7575,
      "mask": 7576,
      "petty": 7577,
      "petulant": 7578,
      "sensible": 7579,
      "sensations": 7580,
      "##uals": 7581,
      "##oleon": 7582,
      "##oleum": 7583,
      "torn": 7584,
      "tormentor": 7585,
      "charli": 7586,
      "charmed": 7587,
      "charact": 7588,
      "charmers": 7589,
      "boards": 7590,
      "boardwalk": 7591,
      "flights": 7592,
      "expected": 7593,
      "dazzle": 7594,
      "applauded": 7595,
      "addressed": 7596,
      "legs": 7597,
      "legacy": 7598,
      "obsessed": 7599,
      "controls": 7600,
      "searchin": 7601,
      "searched": 7602,
      "recalling": 7603,
      "avenues": 7604,
      "billboard": 7605,
      "center": 7606,
      "detroit": 7607,
      "destined": 7608,
      "fury": 7609,
      "fantasize": 7610,
      "powers": 7611,
      "patched": 7612,
      "patient": 7613,
      "retire": 7614,
      "retrace": 7615,
      "sydney": 7616,
      "system": 7617,
      "sins": 7618,
      "##loo": 7619,
      "losin": 7620,
      "loser": 7621,
      "cabs": 7622,
      "cabin": 7623,
      "frustrating": 7624,
      "rockout": 7625,
      "mastered": 7626,
      "scoreboard": 7627,
      "army": 7628,
      "overdose": 7629,
      "excited": 7630,
      "exclus": 7631,
      "signals": 7632,
      "teaching": 7633,
      "miracles": 7634,
      "desert": 7635,
      "respects": 7636,
      "respectable": 7637,
      "sweaty": 7638,
      "candlelight": 7639,
      "collection": 7640,
      "eras": 7641,
      "erase": 7642,
      "erasing": 7643,
      "freckle": 7644,
      "humor": 7645,
      "human": 7646,
      "humans": 7647,
      "purpose": 7648,
      "pittsbur": 7649,
      "squad": 7650,
      "melted": 7651,
      "mendes": 7652,
      "myths": 7653,
      "wandering": 7654,
      "wandered": 7655,
      "outsides": 7656,
      "prodigious": 7657,
      "taxis": 7658,
      "claire": 7659,
      "boxing": 7660,
      "boxes": 7661,
      "swimmin": 7662,
      "depict": 7663,
      "depressed": 7664,
      "department": 7665,
      "continues": 7666,
      "opinions": 7667,
      "glamorous": 7668,
      "grabs": 7669,
      "complexities": 7670,
      "currents": 7671,
      "replacement": 7672,
      "settling": 7673,
      "settled": 7674,
      "distracted": 7675,
      "climbed": 7676,
      "sideshow": 7677,
      "pricelessness": 7678,
      "revolutionaries": 7679,
      "generous": 7680,
      "generali": 7681,
      "generosity": 7682,
      "celebrating": 7683,
      "celebrity": 7684,
      "25th": 7685,
      "benjam": 7686,
      "brimst": 7687,
      "brixton": 7688,
      "dealer": 7689,
      "deny": 7690,
      "denied": 7691,
      "deniеd": 7692,
      "element": 7693,
      "electrified": 7694,
      "friеnd": 7695,
      "sonic": 7696,
      "visits": 7697,
      "visuals": 7698,
      "vocals": 7699,
      "vocoder": 7700,
      "vacation": 7701,
      "thеy": 7702,
      "thеn": 7703,
      "thrilling": 7704,
      "toleration": 7705,
      "belle": 7706,
      "babes": 7707,
      "spirits": 7708,
      "stressed": 7709,
      "common": 7710,
      "community": 7711,
      "communic": 7712,
      "commotion": 7713,
      "##iffer": 7714,
      "slammed": 7715,
      "2005": 7716,
      "2009": 7717,
      "2007": 7718,
      "2000s": 7719,
      "barely": 7720,
      "politе": 7721,
      "superstitions": 7722,
      "travelling": 7723,
      "reflected": 7724,
      "glistеn": 7725,
      "explaining": 7726,
      "produce": 7727,
      "temple": 7728,
      "temporary": 7729,
      "avril": 7730,
      "avalanche": 7731,
      "acid": 7732,
      "academy": 7733,
      "accepted": 7734,
      "feat": 7735,
      "hills": 7736,
      "hillbilly": 7737,
      "iron": 7738,
      "irrational": 7739,
      "illusion": 7740,
      "lunching": 7741,
      "lunchbox": 7742,
      "mentioning": 7743,
      "nicki": 7744,
      "patriarch": 7745,
      "pedals": 7746,
      "pedigree": 7747,
      "pirate": 7748,
      "piracy": 7749,
      "piranhas": 7750,
      "serena": 7751,
      "serayah": 7752,
      "tower": 7753,
      "towel": 7754,
      "toward": 7755,
      "tendency": 7756,
      "urge": 7757,
      "urban": 7758,
      "verse": 7759,
      "verge": 7760,
      "vernon": 7761,
      "valves": 7762,
      "##guing": 7763,
      "##ibility": 7764,
      "infant": 7765,
      "baseless": 7766,
      "basement": 7767,
      "anthology": 7768,
      "choral": 7769,
      "assistant": 7770,
      "ashley": 7771,
      "clowning": 7772,
      "spilling": 7773,
      "springsteen": 7774,
      "robbie": 7775,
      "drums": 7776,
      "conditions": 7777,
      "condesce": 7778,
      "costs": 7779,
      "focuses": 7780,
      "existing": 7781,
      "underestimate": 7782,
      "constant": 7783,
      "poetry": 7784,
      "poetic": 7785,
      "gleam": 7786,
      "grandview": 7787,
      "grandmother": 7788,
      "grandfather": 7789,
      "grandchild": 7790,
      "tricky": 7791,
      "sixties": 7792,
      "indifferent": 7793,
      "admiration": 7794,
      "admirer": 7795,
      "admitted": 7796,
      "ribbons": 7797,
      "satisfied": 7798,
      "travels": 7799,
      "travelers": 7800,
      "1981": 7801,
      "captivating": 7802,
      "presenting": 7803,
      "tortured": 7804,
      "deals": 7805,
      "glistened": 7806,
      "receiving": 7807,
      "received": 7808,
      "anticipations": 7809,
      "struggled": 7810,
      "creaking": 7811,
      "domed": 7812,
      "easily": 7813,
      "grieving": 7814,
      "pioneering": 7815,
      "piqued": 7816,
      "portland": 7817,
      "##curities": 7818,
      "##ficed": 7819,
      "includ": 7820,
      "incorrect": 7821,
      "increasing": 7822,
      "incandescent": 7823,
      "staples": 7824,
      "hauling": 7825,
      "calmer": 7826,
      "cannot": 7827,
      "cannonball": 7828,
      "proportion": 7829,
      "bleached": 7830,
      "dignified": 7831,
      "caramel": 7832,
      "organic": 7833,
      "organiz": 7834,
      "bruised": 7835,
      "bruising": 7836,
      "mosaics": 7837,
      "breakups": 7838,
      "arrows": 7839,
      "affected": 7840,
      "affection": 7841,
      "insurance": 7842,
      "globe": 7843,
      "progression": 7844,
      "progressive": 7845,
      "graciously": 7846,
      "gravely": 7847,
      "unsee": 7848,
      "barns": 7849,
      "curtained": 7850,
      "violent": 7851,
      "specific": 7852,
      "precious": 7853,
      "precede": 7854,
      "joining": 7855,
      "disappointing": 7856,
      "harmony": 7857,
      "harmonies": 7858,
      "sweethearts": 7859,
      "circling": 7860,
      "temperament": 7861,
      "patrol": 7862,
      "optimist": 7863,
      "inconvenience": 7864,
      "26th": 7865,
      "aching": 7866,
      "achilles": 7867,
      "achievement": 7868,
      "ambivalent": 7869,
      "bеing": 7870,
      "bonnie": 7871,
      "bumpy": 7872,
      "bumped": 7873,
      "dwarfs": 7874,
      "firmly": 7875,
      "hyde": 7876,
      "hypnot": 7877,
      "hyannis": 7878,
      "hipsters": 7879,
      "klum": 7880,
      "karma": 7881,
      "model": 7882,
      "muddy": 7883,
      "niall": 7884,
      "niceties": 7885,
      "penny": 7886,
      "pragm": 7887,
      "popped": 7888,
      "popcorn": 7889,
      "punched": 7890,
      "rifled": 7891,
      "servе": 7892,
      "ultim": 7893,
      "villain": 7894,
      "thirties": 7895,
      "##edictable": 7896,
      "stumbled": 7897,
      "soldier": 7898,
      "soldiers": 7899,
      "basic": 7900,
      "basslines": 7901,
      "shrink": 7902,
      "shrunk": 7903,
      "shrugging": 7904,
      "shocking": 7905,
      "shocked": 7906,
      "##ombie": 7907,
      "documented": 7908,
      "failed": 7909,
      "cherry": 7910,
      "bluffs": 7911,
      "blankets": 7912,
      "clover": 7913,
      "hosts": 7914,
      "hosting": 7915,
      "hostage": 7916,
      "separating": 7917,
      "wondrously": 7918,
      "transom": 7919,
      "demoed": 7920,
      "entertaining": 7921,
      "twinkle": 7922,
      "extraordinary": 7923,
      "dagger": 7924,
      "daisies": 7925,
      "inspired": 7926,
      "inspiration": 7927,
      "inspirational": 7928,
      "insincere": 7929,
      "glories": 7930,
      "marching": 7931,
      "unpredictable": 7932,
      "comparin": 7933,
      "surroundings": 7934,
      "survivors": 7935,
      "cheerlead": 7936,
      "decoration": 7937,
      "decorated": 7938,
      "decorations": 7939,
      "ballerini": 7940,
      "innovate": 7941,
      "innovation": 7942,
      "innovators": 7943,
      "##aborate": 7944,
      "defining": 7945,
      "supportive": 7946,
      "autographs": 7947,
      "occurred": 7948,
      "performers": 7949,
      "avoiding": 7950,
      "irrelevan": 7951,
      "publicly": 7952,
      "speculation": 7953,
      "ferocious": 7954,
      "hesitation": 7955,
      "possibility": 7956,
      "phantoms": 7957,
      "successful": 7958,
      "31st": 7959,
      "bryan": 7960,
      "bryant": 7961,
      "bombs": 7962,
      "dentists": 7963,
      "elments": 7964,
      "elaborate": 7965,
      "ellen": 7966,
      "ellie": 7967,
      "embarra": 7968,
      "embittered": 7969,
      "group": 7970,
      "grouch": 7971,
      "hippie": 7972,
      "hеad": 7973,
      "kickin": 7974,
      "lana": 7975,
      "lantern": 7976,
      "mural": 7977,
      "murder": 7978,
      "maines": 7979,
      "maintain": 7980,
      "michigan": 7981,
      "michelle": 7982,
      "oughta": 7983,
      "puppet": 7984,
      "puzzles": 7985,
      "skeptics": 7986,
      "skeletons": 7987,
      "title": 7988,
      "titanic": 7989,
      "##uciating": 7990,
      "whims": 7991,
      "whimsy": 7992,
      "beep": 7993,
      "beckoning": 7994,
      "insecure": 7995,
      "insecurities": 7996,
      "invention": 7997,
      "inventive": 7998,
      "stalker": 7999,
      "sharp": 8000,
      "shared": 8001,
      "shouted": 8002,
      "shreds": 8003,
      "reborn": 8004,
      "rebounds": 8005,
      "causе": 8006,
      "causing": 8007,
      "tirelessly": 8008,
      "animal": 8009,
      "animals": 8010,
      "backyard": 8011,
      "backyards": 8012,
      "aligning": 8013,
      "aligned": 8014,
      "pressed": 8015,
      "blonde": 8016,
      "blondie": 8017,
      "eyelids": 8018,
      "eyelashes": 8019,
      "napkin": 8020,
      "napoleon": 8021,
      "directly": 8022,
      "directions": 8023,
      "usher": 8024,
      "ushered": 8025,
      "comfortable": 8026,
      "machine": 8027,
      "machines": 8028,
      "officer": 8029,
      "officially": 8030,
      "floods": 8031,
      "engine": 8032,
      "english": 8033,
      "entity": 8034,
      "entries": 8035,
      "extent": 8036,
      "extreme": 8037,
      "crumbs": 8038,
      "crumbled": 8039,
      "connect": 8040,
      "connected": 8041,
      "phases": 8042,
      "phased": 8043,
      "posts": 8044,
      "marketplace": 8045,
      "eagle": 8046,
      "eagles": 8047,
      "complained": 8048,
      "complaints": 8049,
      "grinning": 8050,
      "morrisette": 8051,
      "despite": 8052,
      "despair": 8053,
      "buzzcut": 8054,
      "chemistry": 8055,
      "chemicals": 8056,
      "delights": 8057,
      "delighted": 8058,
      "identity": 8059,
      "identify": 8060,
      "indiscretions": 8061,
      "indiscernible": 8062,
      "indianap": 8063,
      "damsels": 8064,
      "foolishly": 8065,
      "devastated": 8066,
      "devastating": 8067,
      "selfishness": 8068,
      "earthquakes": 8069,
      "intrigue": 8070,
      "intriguing": 8071,
      "intentionally": 8072,
      "1942": 8073,
      "1944": 8074,
      "bursting": 8075,
      "witnessed": 8076,
      "shipwrecked": 8077,
      "benefit": 8078,
      "beneficiaries": 8079,
      "ingenue": 8080,
      "ingenious": 8081,
      "influence": 8082,
      "influences": 8083,
      "constellation": 8084,
      "constellations": 8085,
      "televised": 8086,
      "television": 8087,
      "speechless": 8088,
      "practice": 8089,
      "practically": 8090,
      "effects": 8091,
      "original": 8092,
      "originals": 8093,
      "challenge": 8094,
      "challenging": 8095,
      "spontaneously": 8096,
      "23rd": 8097,
      "441": 8098,
      "aerosmith": 8099,
      "aaron": 8100,
      "alewife": 8101,
      "astronom": 8102,
      "banner": 8103,
      "bustling": 8104,
      "briefcase": 8105,
      "bushes": 8106,
      "border": 8107,
      "brilliant": 8108,
      "ciara": 8109,
      "cmt": 8110,
      "ceremonies": 8111,
      "clyde": 8112,
      "cousins": 8113,
      "category": 8114,
      "dеfense": 8115,
      "derulo": 8116,
      "dessner": 8117,
      "dunham": 8118,
      "dandies": 8119,
      "duchess": 8120,
      "douche": 8121,
      "dermot": 8122,
      "dеsired": 8123,
      "establish": 8124,
      "ethel": 8125,
      "embers": 8126,
      "euphor": 8127,
      "effacing": 8128,
      "emails": 8129,
      "essentially": 8130,
      "economic": 8131,
      "evolution": 8132,
      "fatal": 8133,
      "feast": 8134,
      "furniture": 8135,
      "garbo": 8136,
      "goulding": 8137,
      "grip": 8138,
      "houston": 8139,
      "hedge": 8140,
      "hayley": 8141,
      "hatchets": 8142,
      "houses": 8143,
      "immediate": 8144,
      "iraq": 8145,
      "jingleball": 8146,
      "jonas": 8147,
      "jenner": 8148,
      "jillian": 8149,
      "jimmy": 8150,
      "jason": 8151,
      "jupiter": 8152,
      "jungle": 8153,
      "kiyok": 8154,
      "kobe": 8155,
      "kennedy": 8156,
      "kaya": 8157,
      "krauss": 8158,
      "kidding": 8159,
      "kendall": 8160,
      "kudrow": 8161,
      "kesha": 8162,
      "kanye": 8163,
      "khalifa": 8164,
      "kelsea": 8165,
      "kansas": 8166,
      "lеtter": 8167,
      "lining": 8168,
      "lustrous": 8169,
      "larder": 8170,
      "lungs": 8171,
      "lennox": 8172,
      "luxury": 8173,
      "mundane": 8174,
      "mkto": 8175,
      "multiplatinum": 8176,
      "mungoj": 8177,
      "muffled": 8178,
      "maturity": 8179,
      "nuanced": 8180,
      "nfl": 8181,
      "neruda": 8182,
      "natalie": 8183,
      "nonchal": 8184,
      "ovation": 8185,
      "othеr": 8186,
      "oregon": 8187,
      "oops": 8188,
      "olive": 8189,
      "oasis": 8190,
      "pitbull": 8191,
      "podium": 8192,
      "poker": 8193,
      "padding": 8194,
      "punished": 8195,
      "preachers": 8196,
      "pfeiffer": 8197,
      "pulse": 8198,
      "paternity": 8199,
      "pumpkin": 8200,
      "pierce": 8201,
      "pounced": 8202,
      "pontoon": 8203,
      "ryan": 8204,
      "ropes": 8205,
      "russell": 8206,
      "rigged": 8207,
      "ricky": 8208,
      "rugby": 8209,
      "rumpleteazer": 8210,
      "rhapsody": 8211,
      "senior": 8212,
      "slightly": 8213,
      "sincere": 8214,
      "sеnse": 8215,
      "tedder": 8216,
      "tarnished": 8217,
      "tinkering": 8218,
      "teens": 8219,
      "unaware": 8220,
      "vinz": 8221,
      "venus": 8222,
      "vida": 8223,
      "virgin": 8224,
      "vomit": 8225,
      "victory": 8226,
      "vincent": 8227,
      "vultures": 8228,
      "vancouver": 8229,
      "wycd": 8230,
      "xcx": 8231,
      "yeugh": 8232,
      "zero": 8233,
      "еras": 8234,
      "##aahh": 8235,
      "##canal": 8236,
      "##public": 8237,
      "therе": 8238,
      "threaten": 8239,
      "thigpen": 8240,
      "youtube": 8241,
      "theatrical": 8242,
      "andreja": 8243,
      "methodist": 8244,
      "memento": 8245,
      "whistle": 8246,
      "##edressbad": 8247,
      "beverly": 8248,
      "becasue": 8249,
      "initial": 8250,
      "inaudible": 8251,
      "inescapable": 8252,
      "myspace": 8253,
      "limbs": 8254,
      "literally": 8255,
      "liquor": 8256,
      "limitless": 8257,
      "lighthearted": 8258,
      "onerepublic": 8259,
      "loyalty": 8260,
      "lovestruck": 8261,
      "stoked": 8262,
      "stifled": 8263,
      "stalls": 8264,
      "stitches": 8265,
      "stubborn": 8266,
      "waistline": 8267,
      "goofing": 8268,
      "bafflement": 8269,
      "hailee": 8270,
      "halloween": 8271,
      "hammered": 8272,
      "shuffling": 8273,
      "shoreditch": 8274,
      "rewarded": 8275,
      "reinvention": 8276,
      "nemeses": 8277,
      "novelty": 8278,
      "forewordthere": 8279,
      "isolation": 8280,
      "issues": 8281,
      "california": 8282,
      "donaldson": 8283,
      "tiffany": 8284,
      "sashay": 8285,
      "sacrificed": 8286,
      "safety": 8287,
      "outwardly": 8288,
      "upload": 8289,
      "upstanding": 8290,
      "attached": 8291,
      "anaconda": 8292,
      "anxiety": 8293,
      "backwards": 8294,
      "backlogged": 8295,
      "fascinated": 8296,
      "alabama": 8297,
      "alibi": 8298,
      "chocolates": 8299,
      "cheshire": 8300,
      "plenty": 8301,
      "platten": 8302,
      "plotted": 8303,
      "shepherds": 8304,
      "lambert": 8305,
      "lavigne": 8306,
      "whoathe": 8307,
      "abercrombie": 8308,
      "francis": 8309,
      "aspects": 8310,
      "ashamed": 8311,
      "werewolf": 8312,
      "protest": 8313,
      "protect": 8314,
      "prinsloo": 8315,
      "bleeped": 8316,
      "blogs": 8317,
      "blooms": 8318,
      "tampa": 8319,
      "tapestry": 8320,
      "daygetaway": 8321,
      "clairo": 8322,
      "clubbing": 8323,
      "spacedressbad": 8324,
      "spaghetti": 8325,
      "maddening": 8326,
      "heartstrings": 8327,
      "heartdelicate": 8328,
      "management": 8329,
      "manipulative": 8330,
      "naaaaahh": 8331,
      "dizzy": 8332,
      "dividin": 8333,
      "seattle": 8334,
      "security": 8335,
      "seminar": 8336,
      "roberts": 8337,
      "royalties": 8338,
      "strategized": 8339,
      "commercial": 8340,
      "commemorate": 8341,
      "boiling": 8342,
      "mausoleum": 8343,
      "carolina": 8344,
      "swanepoel": 8345,
      "offdancing": 8346,
      "homecoming": 8347,
      "scooter": 8348,
      "smoothing": 8349,
      "brooklyn": 8350,
      "coaxed": 8351,
      "troye": 8352,
      "guadalcanal": 8353,
      "songblank": 8354,
      "amnesia": 8355,
      "hopefully": 8356,
      "intoxicating": 8357,
      "depends": 8358,
      "degeneres": 8359,
      "encounter": 8360,
      "enthusiastic": 8361,
      "handwritten": 8362,
      "arlington": 8363,
      "oversharing": 8364,
      "overwhelmed": 8365,
      "overlooks": 8366,
      "overseas": 8367,
      "rediscovers": 8368,
      "driftwood": 8369,
      "trampled": 8370,
      "slideshows": 8371,
      "excruciating": 8372,
      "exquisite": 8373,
      "exhausting": 8374,
      "executive": 8375,
      "perignon": 8376,
      "windshield": 8377,
      "undervalue": 8378,
      "critique": 8379,
      "criticize": 8380,
      "parables": 8381,
      "concrete": 8382,
      "consciousness": 8383,
      "concentrated": 8384,
      "qualified": 8385,
      "phoebe": 8386,
      "storybook": 8387,
      "bluegrass": 8388,
      "greensboro": 8389,
      "procedure": 8390,
      "proclaimed": 8391,
      "musicians": 8392,
      "magnificently": 8393,
      "grammy": 8394,
      "honeysuckle": 8395,
      "marriages": 8396,
      "trivialized": 8397,
      "bravado": 8398,
      "steinfeld": 8399,
      "uncombed": 8400,
      "unmoored": 8401,
      "unsaid": 8402,
      "universe": 8403,
      "unpaid": 8404,
      "unhappily": 8405,
      "unthinkable": 8406,
      "unnecessary": 8407,
      "compensation": 8408,
      "completely": 8409,
      "groovin": 8410,
      "currency": 8411,
      "emotional": 8412,
      "hiddenpaw": 8413,
      "crickets": 8414,
      "criminal": 8415,
      "floorboards": 8416,
      "reconnected": 8417,
      "deceitfulness": 8418,
      "described": 8419,
      "represent": 8420,
      "suburban": 8421,
      "airplanes": 8422,
      "vibrant": 8423,
      "disguise": 8424,
      "disintegrated": 8425,
      "reminiscing": 8426,
      "particular": 8427,
      "sierota": 8428,
      "blemishes": 8429,
      "columbus": 8430,
      "individual": 8431,
      "ridiculous": 8432,
      "admire": 8433,
      "riviera": 8434,
      "spellbinding": 8435,
      "fairytales": 8436,
      "leblanc": 8437,
      "levitation": 8438,
      "primadonna": 8439,
      "footnotes": 8440,
      "previously": 8441,
      "preparation": 8442,
      "impatient": 8443,
      "impulsiveness": 8444,
      "improvisation": 8445,
      "intersecting": 8446,
      "paychecks": 8447,
      "responsibility": 8448,
      "resembled": 8449,
      "sidetrack": 8450,
      "instagram": 8451,
      "territory": 8452,
      "intrinsically": 8453,
      "accomplishments": 8454,
      "motivate": 8455,
      "educating": 8456,
      "horizon": 8457,
      "radioactive": 8458,
      "dinosaurs": 8459,
      "obsolete": 8460,
      "catalyst": 8461,
      "lyrically": 8462,
      "preservation": 8463,
      "characters": 8464,
      "exclusive": 8465,
      "pittsburgh": 8466,
      "generalize": 8467,
      "benjamin": 8468,
      "brimstone": 8469,
      "communicating": 8470,
      "illusionist": 8471,
      "patriarchy": 8472,
      "condescending": 8473,
      "grandchildren": 8474,
      "includes": 8475,
      "organizational": 8476,
      "temperamental": 8477,
      "hypnotized": 8478,
      "pragmatism": 8479,
      "ultimately": 8480,
      "cheerleader": 8481,
      "irrelevancy": 8482,
      "embarrassed": 8483,
      "indianapolis": 8484,
      "astronomically": 8485,
      "euphoric": 8486,
      "immediately": 8487,
      "kiyoko": 8488,
      "mungojerrie": 8489,
      "nonchalant": 8490
    }
  }
}