{
  "version": "1.0",
  "truncation": null,
  "padding": null,
  "added_tokens": [
    {
      "id": 0,
      "content": "[UNK]",
      "single_word": false,
      "lstrip": false,
      "rstrip": false,
      "normalized": false,
      "special": true
    },
    {
      "id": 1,
      "content": "[CLS]",
      "single_word": false,
      "lstrip": false,
      "rstrip": false,
      "normalized": false,
      "special": true
    },
    {
      "id": 2,
      "content": "[SEP]",
      "single_word": false,
      "lstrip": false,
      "rstrip": false,
      "normalized": false,
      "special": true
    },
    {
      "id": 3,
      "content": "[PAD]",
      "single_word": false,
      "lstrip": false,
      "rstrip": false,
      "normalized": false,
      "special": true
    },
    {
      "id": 4,
      "content": "[MASK]",
      "single_word": false,
      "lstrip": false,
      "rstrip": false,
      "normalized": false,
      "special": true
    }
  ],
  "normalizer": {
    "type": "Sequence",
    "normalizers": [
      {
        "type": "NFD"
      },
      {
        "type": "Lowercase"
      },
      {
        "type": "StripAccents"
      }
    ]
  },
  "pre_tokenizer": {
    "type": "BertPreTokenizer"
  },
  "post_processor": null,
  "decoder": {
    "type": "WordPiece",
    "prefix": "##",
    "cleanup": true
  },
  "model": {
    "type": "WordPiece",
    "unk_token": "[UNK]",
    "continuing_subword_prefix": "##",
    "max_input_chars_per_word": 100,
    "vocab": {
      "[UNK]": 0,
      "[CLS]": 1,
      "[SEP]": 2,
      "[PAD]": 3,
      "[MASK]": 4,
      "'": 5,
      "0": 6,
      "4": 7,
      "5": 8,
      "6": 9,
      "7": 10,
      "8": 11,
      "9": 12,
      "a": 13,
      "b": 14,
      "c": 15,
      "d": 16,
      "e": 17,
      "f": 18,
      "g": 19,
      "h": 20,
      "i": 21,
      "j": 22,
      "k": 23,
      "l": 24,
      "m": 25,
      "n": 26,
      "o": 27,
      "p": 28,
      "q": 29,
      "r": 30,
      "s": 31,
      "t": 32,
      "u": 33,
      "v": 34,
      "w": 35,
      "x": 36,
      "y": 37,
      "z": 38,
      "ø": 39,
      "ł": 40,
      "е": 41,
      "##m": 42,
      "##p": 43,
      "##a": 44,
      "##t": 45,
      "##i": 46,
      "##e": 47,
      "##n": 48,
      "##y": 49,
      "##d": 50,
      "##l": 51,
      "##f": 52,
      "##r": 53,
      "##o": 54,
      "##c": 55,
      "##v": 56,
      "##b": 57,
      "##h": 58,
      "##u": 59,
      "##g": 60,
      "##s": 61,
      "##z": 62,
      "##w": 63,
      "##8": 64,
      "##0": 65,
      "##9": 66,
      "##k": 67,
      "##ł": 68,
      "##x": 69,
      "##q": 70,
      "##5": 71,
      "##j": 72,
      "##е": 73,
      "##4": 74,
      "##7": 75,
      "##6": 76,
      "##ø": 77,
      "##ou": 78,
      "th": 79,
      "you": 80,
      "##in": 81,
      "##er": 82,
      "##nd": 83,
      "the": 84,
      "##ing": 85,
      "##at": 86,
      "and": 87,
      "##on": 88,
      "##ll": 89,
      "to": 90,
      "##re": 91,
      "##ow": 92,
      "##an": 93,
      "##es": 94,
      "##en": 95,
      "##or": 96,
      "##ay": 97,
      "me": 98,
      "##ea": 99,
      "it": 100,
      "wh": 101,
      "##me": 102,
      "##st": 103,
      "be": 104,
      "##ed": 105,
      "in": 106,
      "##ut": 107,
      "##gh": 108,
      "##th": 109,
      "##ve": 110,
      "on": 111,
      "li": 112,
      "my": 113,
      "##ver": 114,
      "##is": 115,
      "##ke": 116,
      "##ld": 117,
      "that": 118,
      "of": 119,
      "st": 120,
      "lo": 121,
      "##ght": 122,
      "so": 123,
      "##as": 124,
      "##ere": 125,
      "##ee": 126,
      "ba": 127,
      "we": 128,
      "##se": 129,
      "go": 130,
      "##id": 131,
      "ha": 132,
      "kn": 133,
      "your": 134,
      "##et": 135,
      "sh": 136,
      "##ar": 137,
      "re": 138,
      "##le": 139,
      "##ck": 140,
      "ne": 141,
      "##ight": 142,
      "all": 143,
      "know": 144,
      "but": 145,
      "no": 146,
      "wi": 147,
      "is": 148,
      "##ust": 149,
      "##ould": 150,
      "like": 151,
      "this": 152,
      "for": 153,
      "oh": 154,
      "ca": 155,
      "##it": 156,
      "##ear": 157,
      "was": 158,
      "##ce": 159,
      "##om": 160,
      "don": 161,
      "##ir": 162,
      "just": 163,
      "ti": 164,
      "he": 165,
      "ever": 166,
      "when": 167,
      "can": 168,
      "##ch": 169,
      "##ake": 170,
      "do": 171,
      "with": 172,
      "##ong": 173,
      "##ad": 174,
      "##ur": 175,
      "what": 176,
      "love": 177,
      "##oh": 178,
      "wan": 179,
      "##ly": 180,
      "##al": 181,
      "never": 182,
      "##od": 183,
      "##ome": 184,
      "now": 185,
      "##ri": 186,
      "ll": 187,
      "##thing": 188,
      "sa": 189,
      "##rou": 190,
      "##one": 191,
      "##ok": 192,
      "##by": 193,
      "##ra": 194,
      "out": 195,
      "up": 196,
      "say": 197,
      "some": 198,
      "at": 199,
      "##ink": 200,
      "an": 201,
      "##use": 202,
      "there": 203,
      "baby": 204,
      "##tt": 205,
      "##own": 206,
      "back": 207,
      "if": 208,
      "##ind": 209,
      "ve": 210,
      "##un": 211,
      "##ic": 212,
      "time": 213,
      "see": 214,
      "##am": 215,
      "##ess": 216,
      "think": 217,
      "##na": 218,
      "every": 219,
      "al": 220,
      "ch": 221,
      "##ak": 222,
      "##ore": 223,
      "##out": 224,
      "one": 225,
      "##ry": 226,
      "cause": 227,
      "they": 228,
      "are": 229,
      "##op": 230,
      "##ain": 231,
      "pl": 232,
      "have": 233,
      "##if": 234,
      "look": 235,
      "fa": 236,
      "##way": 237,
      "as": 238,
      "she": 239,
      "want": 240,
      "down": 241,
      "not": 242,
      "##ent": 243,
      "could": 244,
      "got": 245,
      "hear": 246,
      "pre": 247,
      "get": 248,
      "us": 249,
      "did": 250,
      "##ion": 251,
      "ab": 252,
      "la": 253,
      "sw": 254,
      "rea": 255,
      "who": 256,
      "wor": 257,
      "##est": 258,
      "##alk": 259,
      "##ill": 260,
      "would": 261,
      "been": 262,
      "bl": 263,
      "thing": 264,
      "##ell": 265,
      "about": 266,
      "fee": 267,
      "were": 268,
      "##ber": 269,
      "##ol": 270,
      "##im": 271,
      "##ge": 272,
      "ey": 273,
      "fr": 274,
      "said": 275,
      "come": 276,
      "##round": 277,
      "take": 278,
      "let": 279,
      "##ie": 280,
      "day": 281,
      "##and": 282,
      "bre": 283,
      "##eep": 284,
      "sp": 285,
      "dre": 286,
      "##ate": 287,
      "##ine": 288,
      "se": 289,
      "wa": 290,
      "night": 291,
      "here": 292,
      "feel": 293,
      "##fe": 294,
      "way": 295,
      "##ct": 296,
      "right": 297,
      "cl": 298,
      "will": 299,
      "##mber": 300,
      "##ther": 301,
      "tell": 302,
      "##ven": 303,
      "should": 304,
      "##end": 305,
      "##ot": 306,
      "##ame": 307,
      "05": 308,
      "how": 309,
      "mad": 310,
      "##eah": 311,
      "heart": 312,
      "yeah": 313,
      "around": 314,
      "song": 315,
      "##el": 316,
      "had": 317,
      "from": 318,
      "##ul": 319,
      "bo": 320,
      "ooh": 321,
      "wanna": 322,
      "##lor": 323,
      "##us": 324,
      "ro": 325,
      "gon": 326,
      "tay": 327,
      "##ift": 328,
      "com": 329,
      "why": 330,
      "##il": 331,
      "##lly": 332,
      "any": 333,
      "only": 334,
      "##urn": 335,
      "taylor": 336,
      "##ish": 337,
      "##ide": 338,
      "##um": 339,
      "##irl": 340,
      "girl": 341,
      "pr": 342,
      "her": 343,
      "##ead": 344,
      "##ody": 345,
      "##pp": 346,
      "##ss": 347,
      "gonna": 348,
      "our": 349,
      "need": 350,
      "or": 351,
      "wr": 352,
      "##ue": 353,
      "##ter": 354,
      "light": 355,
      "stay": 356,
      "##iss": 357,
      "ho": 358,
      "##ig": 359,
      "##nder": 360,
      "man": 361,
      "good": 362,
      "hand": 363,
      "swift": 364,
      "make": 365,
      "eyes": 366,
      "ag": 367,
      "away": 368,
      "bett": 369,
      "everything": 370,
      "long": 371,
      "still": 372,
      "call": 373,
      "home": 374,
      "##ooh": 375,
      "too": 376,
      "star": 377,
      "wish": 378,
      "##ure": 379,
      "de": 380,
      "##ttle": 381,
      "##ew": 382,
      "keep": 383,
      "##ist": 384,
      "co": 385,
      "by": 386,
      "##ath": 387,
      "wo": 388,
      "sc": 389,
      "where": 390,
      "little": 391,
      "##nt": 392,
      "##atch": 393,
      "##rough": 394,
      "off": 395,
      "things": 396,
      "try": 397,
      "through": 398,
      "mo": 399,
      "thou": 400,
      "walk": 401,
      "##ose": 402,
      "##ers": 403,
      "wait": 404,
      "##to": 405,
      "better": 406,
      "##ies": 407,
      "bad": 408,
      "sm": 409,
      "##ile": 410,
      "##ving": 411,
      "##ble": 412,
      "again": 413,
      "dream": 414,
      "pa": 415,
      "break": 416,
      "fl": 417,
      "life": 418,
      "##ite": 419,
      "last": 420,
      "##body": 421,
      "didn": 422,
      "am": 423,
      "br": 424,
      "tr": 425,
      "##ark": 426,
      "##ick": 427,
      "knew": 428,
      "cr": 429,
      "new": 430,
      "ohoh": 431,
      "something": 432,
      "##ning": 433,
      "##ation": 434,
      "##riend": 435,
      "made": 436,
      "lea": 437,
      "##ways": 438,
      "car": 439,
      "##ive": 440,
      "always": 441,
      "him": 442,
      "talk": 443,
      "nothing": 444,
      "en": 445,
      "usa": 446,
      "##irst": 447,
      "##ting": 448,
      "then": 449,
      "friend": 450,
      "run": 451,
      "##wn": 452,
      "hop": 453,
      "##ia": 454,
      "##ice": 455,
      "fore": 456,
      "first": 457,
      "bel": 458,
      "into": 459,
      "hold": 460,
      "##lf": 461,
      "thought": 462,
      "mind": 463,
      "sl": 464,
      "tw": 465,
      "##ah": 466,
      "dan": 467,
      "end": 468,
      "find": 469,
      "##ound": 470,
      "chan": 471,
      "##pt": 472,
      "than": 473,
      "play": 474,
      "his": 475,
      "sing": 476,
      "stand": 477,
      "##less": 478,
      "ex": 479,
      "hey": 480,
      "##oohooh": 481,
      "##ca": 482,
      "ah": 483,
      "name": 484,
      "fo": 485,
      "old": 486,
      "##ved": 487,
      "le": 488,
      "won": 489,
      "alone": 490,
      "year": 491,
      "##day": 492,
      "##ough": 493,
      "even": 494,
      "really": 495,
      "im": 496,
      "rain": 497,
      "fall": 498,
      "forever": 499,
      "po": 500,
      "turn": 501,
      "##member": 502,
      "remember": 503,
      "watch": 504,
      "them": 505,
      "##light": 506,
      "ma": 507,
      "str": 508,
      "well": 509,
      "wonder": 510,
      "##ling": 511,
      "tim": 512,
      "dr": 513,
      "face": 514,
      "head": 515,
      "##ves": 516,
      "##uck": 517,
      "miss": 518,
      "ar": 519,
      "gu": 520,
      "has": 521,
      "##ood": 522,
      "##be": 523,
      "hope": 524,
      "their": 525,
      "##ous": 526,
      "##ans": 527,
      "bea": 528,
      "over": 529,
      "##ant": 530,
      "pe": 531,
      "dri": 532,
      "put": 533,
      "shake": 534,
      "##art": 535,
      "more": 536,
      "##fore": 537,
      "before": 538,
      "world": 539,
      "con": 540,
      "##ory": 541,
      "live": 542,
      "may": 543,
      "yet": 544,
      "##ash": 545,
      "show": 546,
      "leave": 547,
      "cra": 548,
      "tra": 549,
      "##self": 550,
      "waiting": 551,
      "gone": 552,
      "##row": 553,
      "beg": 554,
      "##ity": 555,
      "##aking": 556,
      "mine": 557,
      "wrong": 558,
      "best": 559,
      "stre": 560,
      "pla": 561,
      "##uch": 562,
      "##ease": 563,
      "friends": 564,
      "beaut": 565,
      "ain": 566,
      "forg": 567,
      "lights": 568,
      "smile": 569,
      "na": 570,
      "##ds": 571,
      "af": 572,
      "per": 573,
      "##ng": 574,
      "##ople": 575,
      "people": 576,
      "ph": 577,
      "##red": 578,
      "##akes": 579,
      "ask": 580,
      "young": 581,
      "##ree": 582,
      "once": 583,
      "please": 584,
      "fun": 585,
      "##iful": 586,
      "beautiful": 587,
      "burn": 588,
      "kiss": 589,
      "##all": 590,
      "##ft": 591,
      "##ug": 592,
      "##our": 593,
      "belie": 594,
      "enough": 595,
      "##iz": 596,
      "##ging": 597,
      "door": 598,
      "trying": 599,
      "real": 600,
      "sor": 601,
      "##08": 602,
      "these": 603,
      "someone": 604,
      "boy": 605,
      "fight": 606,
      "##ps": 607,
      "##ts": 608,
      "##here": 609,
      "meet": 610,
      "happ": 611,
      "##ass": 612,
      "##ict": 613,
      "under": 614,
      "##ms": 615,
      "##ack": 616,
      "##os": 617,
      "those": 618,
      "##ard": 619,
      "give": 620,
      "wind": 621,
      "##other": 622,
      "har": 623,
      "ga": 624,
      "going": 625,
      "##zy": 626,
      "##orn": 627,
      "hands": 628,
      "##up": 629,
      "town": 630,
      "left": 631,
      "other": 632,
      "qu": 633,
      "sorry": 634,
      "much": 635,
      "##ud": 636,
      "##ugh": 637,
      "looking": 638,
      "breath": 639,
      "anything": 640,
      "danc": 641,
      "drive": 642,
      "gre": 643,
      "##ire": 644,
      "##les": 645,
      "##eak": 646,
      "saw": 647,
      "blue": 648,
      "coming": 649,
      "##ount": 650,
      "same": 651,
      "dreams": 652,
      "hate": 653,
      "red": 654,
      "sk": 655,
      "another": 656,
      "laugh": 657,
      "room": 658,
      "dark": 659,
      "##llow": 660,
      "goes": 661,
      "fly": 662,
      "mus": 663,
      "sun": 664,
      "##raw": 665,
      "wanted": 666,
      "street": 667,
      "big": 668,
      "op": 669,
      "side": 670,
      "##ull": 671,
      "mean": 672,
      "story": 673,
      "lost": 674,
      "read": 675,
      "dress": 676,
      "el": 677,
      "##ouch": 678,
      "gave": 679,
      "music": 680,
      "ton": 681,
      "##ally": 682,
      "##igh": 683,
      "##ence": 684,
      "##fect": 685,
      "##sh": 686,
      "used": 687,
      "hard": 688,
      "##ne": 689,
      "##ro": 690,
      "##son": 691,
      "##where": 692,
      "tonight": 693,
      "part": 694,
      "##ces": 695,
      "##ream": 696,
      "mem": 697,
      "nice": 698,
      "##land": 699,
      "isn": 700,
      "##oney": 701,
      "kind": 702,
      "less": 703,
      "##pe": 704,
      "beca": 705,
      "rel": 706,
      "believe": 707,
      "because": 708,
      "mid": 709,
      "mom": 710,
      "pict": 711,
      "standing": 712,
      "picture": 713,
      "ver": 714,
      "##xt": 715,
      "thinking": 716,
      "guess": 717,
      "perfect": 718,
      "else": 719,
      "tear": 720,
      "##ang": 721,
      "known": 722,
      "close": 723,
      "##ush": 724,
      "gl": 725,
      "##ise": 726,
      "work": 727,
      "blood": 728,
      "comes": 729,
      "##mer": 730,
      "##io": 731,
      "myself": 732,
      "stop": 733,
      "rep": 734,
      "##ames": 735,
      "whoa": 736,
      "daylight": 737,
      "years": 738,
      "crazy": 739,
      "cry": 740,
      "yes": 741,
      "##een": 742,
      "knows": 743,
      "dont": 744,
      "fear": 745,
      "pain": 746,
      "##ach": 747,
      "follow": 748,
      "##og": 749,
      "everybody": 750,
      "heard": 751,
      "seen": 752,
      "feeling": 753,
      "high": 754,
      "touch": 755,
      "toge": 756,
      "phone": 757,
      "open": 758,
      "together": 759,
      "ly": 760,
      "##ag": 761,
      "##ned": 762,
      "##idid": 763,
      "two": 764,
      "begging": 765,
      "col": 766,
      "wom": 767,
      "##ember": 768,
      "loved": 769,
      "getting": 770,
      "sept": 771,
      "place": 772,
      "september": 773,
      "sum": 774,
      "##ord": 775,
      "does": 776,
      "##ade": 777,
      "swee": 778,
      "pro": 779,
      "##ign": 780,
      "far": 781,
      "sit": 782,
      "win": 783,
      "save": 784,
      "maybe": 785,
      "after": 786,
      "aug": 787,
      "em": 788,
      "mc": 789,
      "##ase": 790,
      "both": 791,
      "times": 792,
      "august": 793,
      "bout": 794,
      "fire": 795,
      "lear": 796,
      "might": 797,
      "ta": 798,
      "trou": 799,
      "ins": 800,
      "next": 801,
      "without": 802,
      "wishing": 803,
      "forget": 804,
      "##ness": 805,
      "##come": 806,
      "##graw": 807,
      "##ont": 808,
      "##eas": 809,
      "lose": 810,
      "wild": 811,
      "sleep": 812,
      "post": 813,
      "mcgraw": 814,
      "dad": 815,
      "hur": 816,
      "late": 817,
      "##mo": 818,
      "came": 819,
      "oohoohooh": 820,
      "prom": 821,
      "scream": 822,
      "dancing": 823,
      "moment": 824,
      "honey": 825,
      "mar": 826,
      "pick": 827,
      "##per": 828,
      "reason": 829,
      "mag": 830,
      "trouble": 831,
      "count": 832,
      "dar": 833,
      "##ied": 834,
      "its": 835,
      "##rist": 836,
      "saying": 837,
      "many": 838,
      "true": 839,
      "change": 840,
      "asking": 841,
      "ground": 842,
      "ok": 843,
      "war": 844,
      "##are": 845,
      "##tend": 846,
      "##ince": 847,
      "took": 848,
      "shin": 849,
      "##irt": 850,
      "##une": 851,
      "christ": 852,
      "wall": 853,
      "summer": 854,
      "cut": 855,
      "found": 856,
      "##ted": 857,
      "##ever": 858,
      "##ories": 859,
      "bet": 860,
      "list": 861,
      "hel": 862,
      "che": 863,
      "cool": 864,
      "##ught": 865,
      "##ged": 866,
      "##ater": 867,
      "ste": 868,
      "cal": 869,
      "pretend": 870,
      "sweet": 871,
      "ac": 872,
      "game": 873,
      "lou": 874,
      "mess": 875,
      "##more": 876,
      "god": 877,
      "nobody": 878,
      "feet": 879,
      "girls": 880,
      "darling": 881,
      "un": 882,
      "##mas": 883,
      "##pl": 884,
      "##ings": 885,
      "met": 886,
      "window": 887,
      "christmas": 888,
      "hea": 889,
      "sign": 890,
      "tri": 891,
      "##ip": 892,
      "##vor": 893,
      "##utation": 894,
      "lover": 895,
      "front": 896,
      "days": 897,
      "##ote": 898,
      "songs": 899,
      "road": 900,
      "past": 901,
      "reputation": 902,
      "help": 903,
      "gra": 904,
      "must": 905,
      "sou": 906,
      "went": 907,
      "##ier": 908,
      "being": 909,
      "living": 910,
      "care": 911,
      "along": 912,
      "whole": 913,
      "sec": 914,
      "##elt": 915,
      "##ump": 916,
      "##ather": 917,
      "dance": 918,
      "art": 919,
      "##ize": 920,
      "own": 921,
      "##dle": 922,
      "##oke": 923,
      "today": 924,
      "lot": 925,
      "soon": 926,
      "says": 927,
      "words": 928,
      "cold": 929,
      "releas": 930,
      "okay": 931,
      "released": 932,
      "del": 933,
      "pass": 934,
      "##ork": 935,
      "doing": 936,
      "looks": 937,
      "eye": 938,
      "clear": 939,
      "writ": 940,
      "bra": 941,
      "mon": 942,
      "making": 943,
      "sn": 944,
      "##ple": 945,
      "##int": 946,
      "told": 947,
      "##ens": 948,
      "##ort": 949,
      "while": 950,
      "hair": 951,
      "##oken": 952,
      "favor": 953,
      "scar": 954,
      "middle": 955,
      "very": 956,
      "body": 957,
      "da": 958,
      "grow": 959,
      "uh": 960,
      "##dy": 961,
      "##ho": 962,
      "##hee": 963,
      "##uly": 964,
      "##eric": 965,
      "los": 966,
      "rec": 967,
      "til": 968,
      "plans": 969,
      "##iff": 970,
      "crow": 971,
      "cur": 972,
      "city": 973,
      "fin": 974,
      "june": 975,
      "pull": 976,
      "ten": 977,
      "##uh": 978,
      "##ze": 979,
      "##ndon": 980,
      "##ors": 981,
      "someday": 982,
      "stars": 983,
      "wood": 984,
      "favorite": 985,
      "fake": 986,
      "fine": 987,
      "ill": 988,
      "mor": 989,
      "##oss": 990,
      "gold": 991,
      "##tty": 992,
      "americ": 993,
      "running": 994,
      "singing": 995,
      "breathe": 996,
      "free": 997,
      "##iet": 998,
      "##ress": 999,
      "bed": 1000,
      "##tta": 1001,
      "wondering": 1002,
      "party": 1003,
      "memories": 1004,
      "soul": 1005,
      "king": 1006,
      "kill": 1007,
      "lead": 1008,
      "su": 1009,
      "##air": 1010,
      "##qu": 1011,
      "##att": 1012,
      "##reck": 1013,
      "spark": 1014,
      "called": 1015,
      "flo": 1016,
      "belong": 1017,
      "##ucky": 1018,
      "woman": 1019,
      "act": 1020,
      "corn": 1021,
      "oct": 1022,
      "ra": 1023,
      "##ful": 1024,
      "##right": 1025,
      "##ober": 1026,
      "##ster": 1027,
      "hell": 1028,
      "##ric": 1029,
      "somet": 1030,
      "couldn": 1031,
      "black": 1032,
      "##imes": 1033,
      "october": 1034,
      "felt": 1035,
      "hou": 1036,
      "##ment": 1037,
      "##ious": 1038,
      "##back": 1039,
      "youre": 1040,
      "##ated": 1041,
      "white": 1042,
      "gotta": 1043,
      "##cho": 1044,
      "somebody": 1045,
      "##icate": 1046,
      "alright": 1047,
      "anymore": 1048,
      "dece": 1049,
      "cle": 1050,
      "des": 1051,
      "dra": 1052,
      "hit": 1053,
      "id": 1054,
      "jump": 1055,
      "mm": 1056,
      "mist": 1057,
      "rome": 1058,
      "tea": 1059,
      "york": 1060,
      "##ond": 1061,
      "##uth": 1062,
      "##asy": 1063,
      "##itch": 1064,
      "wasn": 1065,
      "ange": 1066,
      "speak": 1067,
      "lesson": 1068,
      "tears": 1069,
      "romeo": 1070,
      "ap": 1071,
      "gr": 1072,
      "sil": 1073,
      "tre": 1074,
      "##ph": 1075,
      "##ny": 1076,
      "##led": 1077,
      "##lcome": 1078,
      "##inning": 1079,
      "loving": 1080,
      "bar": 1081,
      "welcome": 1082,
      "pretty": 1083,
      "showed": 1084,
      "learned": 1085,
      "delicate": 1086,
      "morning": 1087,
      "sometimes": 1088,
      "since": 1089,
      "##em": 1090,
      "bright": 1091,
      "fearless": 1092,
      "daddy": 1093,
      "hurt": 1094,
      "promise": 1095,
      "december": 1096,
      "dis": 1097,
      "deep": 1098,
      "july": 1099,
      "pour": 1100,
      "rad": 1101,
      "sound": 1102,
      "##ast": 1103,
      "##ible": 1104,
      "yourself": 1105,
      "nights": 1106,
      "write": 1107,
      "most": 1108,
      "crash": 1109,
      "places": 1110,
      "oohoohoohooh": 1111,
      "woods": 1112,
      "ad": 1113,
      "aw": 1114,
      "dead": 1115,
      "line": 1116,
      "makes": 1117,
      "sure": 1118,
      "##age": 1119,
      "##ys": 1120,
      "##ock": 1121,
      "##vin": 1122,
      "##atter": 1123,
      "beat": 1124,
      "somewhere": 1125,
      "walked": 1126,
      "flash": 1127,
      "drop": 1128,
      "train": 1129,
      "screaming": 1130,
      "cri": 1131,
      "ed": 1132,
      "each": 1133,
      "ind": 1134,
      "lucky": 1135,
      "##ale": 1136,
      "##ace": 1137,
      "##ian": 1138,
      "##ff": 1139,
      "##bb": 1140,
      "##bre": 1141,
      "shine": 1142,
      "trust": 1143,
      "slow": 1144,
      "single": 1145,
      "strong": 1146,
      "lyric": 1147,
      "heaven": 1148,
      "finally": 1149,
      "pouring": 1150,
      "diff": 1151,
      "gi": 1152,
      "sad": 1153,
      "wreck": 1154,
      "##able": 1155,
      "##oth": 1156,
      "##ks": 1157,
      "##ane": 1158,
      "##vers": 1159,
      "haun": 1160,
      "tired": 1161,
      "word": 1162,
      "changed": 1163,
      "happen": 1164,
      "sky": 1165,
      "magic": 1166,
      "floor": 1167,
      "house": 1168,
      "easy": 1169,
      "kid": 1170,
      "unt": 1171,
      "##ial": 1172,
      "##bo": 1173,
      "anywhere": 1174,
      "dec": 1175,
      "walking": 1176,
      "burning": 1177,
      "inside": 1178,
      "artist": 1179,
      "fig": 1180,
      "mir": 1181,
      "wear": 1182,
      "##man": 1183,
      "##bum": 1184,
      "##ub": 1185,
      "throw": 1186,
      "lips": 1187,
      "stri": 1188,
      "ref": 1189,
      "##bye": 1190,
      "album": 1191,
      "worth": 1192,
      "goodbye": 1193,
      "laughing": 1194,
      "american": 1195,
      "clean": 1196,
      "app": 1197,
      "que": 1198,
      "sim": 1199,
      "tak": 1200,
      "##ton": 1201,
      "##ich": 1202,
      "##rop": 1203,
      "##ones": 1204,
      "whis": 1205,
      "stood": 1206,
      "##ustr": 1207,
      "held": 1208,
      "fair": 1209,
      "feels": 1210,
      "demo": 1211,
      "truck": 1212,
      "sitting": 1213,
      "walls": 1214,
      "check": 1215,
      "crowd": 1216,
      "die": 1217,
      "sick": 1218,
      "um": 1219,
      "##ix": 1220,
      "##ove": 1221,
      "##anc": 1222,
      "haven": 1223,
      "caught": 1224,
      "##rie": 1225,
      "##unk": 1226,
      "worst": 1227,
      "drew": 1228,
      "cross": 1229,
      "wildest": 1230,
      "writing": 1231,
      "lyrics": 1232,
      "air": 1233,
      "bu": 1234,
      "ive": 1235,
      "ke": 1236,
      "min": 1237,
      "ru": 1238,
      "round": 1239,
      "sur": 1240,
      "ya": 1241,
      "##ap": 1242,
      "##ared": 1243,
      "##ith": 1244,
      "##down": 1245,
      "##cess": 1246,
      "babe": 1247,
      "cho": 1248,
      "##ions": 1249,
      "spinning": 1250,
      "##pped": 1251,
      "bring": 1252,
      "thank": 1253,
      "turned": 1254,
      "drunk": 1255,
      "arms": 1256,
      "crying": 1257,
      "loud": 1258,
      "month": 1259,
      "silence": 1260,
      "8th": 1261,
      "bit": 1262,
      "catch": 1263,
      "ring": 1264,
      "wake": 1265,
      "water": 1266,
      "##aw": 1267,
      "##ild": 1268,
      "##ying": 1269,
      "three": 1270,
      "##orm": 1271,
      "##ste": 1272,
      "ones": 1273,
      "lie": 1274,
      "##eel": 1275,
      "hall": 1276,
      "yours": 1277,
      "shame": 1278,
      "##ary": 1279,
      "rem": 1280,
      "##ada": 1281,
      "##iew": 1282,
      "wrote": 1283,
      "move": 1284,
      "##anta": 1285,
      "great": 1286,
      "ready": 1287,
      "case": 1288,
      "fell": 1289,
      "gard": 1290,
      "##vity": 1291,
      "whenever": 1292,
      "##amn": 1293,
      "gets": 1294,
      "swear": 1295,
      "blow": 1296,
      "roll": 1297,
      "start": 1298,
      "moon": 1299,
      "page": 1300,
      "chance": 1301,
      "string": 1302,
      "cont": 1303,
      "begin": 1304,
      "funny": 1305,
      "step": 1306,
      "pulled": 1307,
      "radio": 1308,
      "##break": 1309,
      "figure": 1310,
      "5th": 1311,
      "taking": 1312,
      "vo": 1313,
      "wee": 1314,
      "##ger": 1315,
      "##iness": 1316,
      "##stand": 1317,
      "##ute": 1318,
      "stup": 1319,
      "done": 1320,
      "fast": 1321,
      "cloth": 1322,
      "shouldn": 1323,
      "heartbreak": 1324,
      "##elia": 1325,
      "prin": 1326,
      "scared": 1327,
      "talking": 1328,
      "happy": 1329,
      "green": 1330,
      "sparks": 1331,
      "cornelia": 1332,
      "differ": 1333,
      "stupid": 1334,
      "9th": 1335,
      "games": 1336,
      "pea": 1337,
      "ran": 1338,
      "view": 1339,
      "##net": 1340,
      "##vis": 1341,
      "inter": 1342,
      "##vel": 1343,
      "band": 1344,
      "##cks": 1345,
      "##alia": 1346,
      "outs": 1347,
      "everyone": 1348,
      "looked": 1349,
      "##olog": 1350,
      "clos": 1351,
      "##ult": 1352,
      "##iles": 1353,
      "broken": 1354,
      "proble": 1355,
      "taken": 1356,
      "peace": 1357,
      "6th": 1358,
      "austr": 1359,
      "cre": 1360,
      "je": 1361,
      "mill": 1362,
      "mark": 1363,
      "takes": 1364,
      "tall": 1365,
      "##ips": 1366,
      "##night": 1367,
      "##drop": 1368,
      "##cer": 1369,
      "##sy": 1370,
      "##ines": 1371,
      "stra": 1372,
      "shot": 1373,
      "tied": 1374,
      "faith": 1375,
      "brendon": 1376,
      "compl": 1377,
      "watching": 1378,
      "missing": 1379,
      "##pect": 1380,
      "doesn": 1381,
      "listen": 1382,
      "calm": 1383,
      "secre": 1384,
      "apart": 1385,
      "clothes": 1386,
      "australia": 1387,
      "million": 1388,
      "di": 1389,
      "fad": 1390,
      "rid": 1391,
      "ter": 1392,
      "urie": 1393,
      "##ues": 1394,
      "##ene": 1395,
      "##enn": 1396,
      "meee": 1397,
      "lives": 1398,
      "##raid": 1399,
      "ass": 1400,
      "spot": 1401,
      "starts": 1402,
      "imp": 1403,
      "afraid": 1404,
      "lying": 1405,
      "color": 1406,
      "##heehee": 1407,
      "losing": 1408,
      "flashback": 1409,
      "mirr": 1410,
      "simple": 1411,
      "garden": 1412,
      "0th": 1413,
      "bus": 1414,
      "gho": 1415,
      "hang": 1416,
      "huh": 1417,
      "pri": 1418,
      "pol": 1419,
      "rest": 1420,
      "##ming": 1421,
      "##ac": 1422,
      "##vent": 1423,
      "##bor": 1424,
      "##bel": 1425,
      "##sw": 1426,
      "##ating": 1427,
      "beh": 1428,
      "##amp": 1429,
      "##ami": 1430,
      "alive": 1431,
      "##ester": 1432,
      "##ille": 1433,
      "wouldn": 1434,
      "letter": 1435,
      "spell": 1436,
      "spend": 1437,
      "anyone": 1438,
      "ends": 1439,
      "ending": 1440,
      "strang": 1441,
      "quite": 1442,
      "##ude": 1443,
      "##idididid": 1444,
      "golden": 1445,
      "until": 1446,
      "strike": 1447,
      "different": 1448,
      "jeans": 1449,
      "##drops": 1450,
      "straight": 1451,
      "ghost": 1452,
      "ble": 1453,
      "died": 1454,
      "dirt": 1455,
      "damn": 1456,
      "hon": 1457,
      "joh": 1458,
      "lad": 1459,
      "mer": 1460,
      "pers": 1461,
      "set": 1462,
      "sal": 1463,
      "##ville": 1464,
      "##ually": 1465,
      "##ina": 1466,
      "almo": 1467,
      "##iforn": 1468,
      "pray": 1469,
      "keeps": 1470,
      "##isted": 1471,
      "rains": 1472,
      "boys": 1473,
      "teardrops": 1474,
      "##nessee": 1475,
      "californ": 1476,
      "signs": 1477,
      "tried": 1478,
      "second": 1479,
      "sneak": 1480,
      "record": 1481,
      "tennessee": 1482,
      "mmm": 1483,
      "ruin": 1484,
      "princess": 1485,
      "problems": 1486,
      "mirror": 1487,
      "behind": 1488,
      "almost": 1489,
      "california": 1490,
      "4th": 1491,
      "dear": 1492,
      "gor": 1493,
      "mam": 1494,
      "##ma": 1495,
      "##iven": 1496,
      "##yle": 1497,
      "##umber": 1498,
      "##ween": 1499,
      "##ance": 1500,
      "which": 1501,
      "inst": 1502,
      "##ket": 1503,
      "stud": 1504,
      "justin": 1505,
      "##rought": 1506,
      "seems": 1507,
      "child": 1508,
      "##geous": 1509,
      "moved": 1510,
      "small": 1511,
      "ench": 1512,
      "twent": 1513,
      "fighting": 1514,
      "understand": 1515,
      "##ney": 1516,
      "sleeping": 1517,
      "between": 1518,
      "louis": 1519,
      "supp": 1520,
      "gorgeous": 1521,
      "7th": 1522,
      "hun": 1523,
      "jul": 1524,
      "match": 1525,
      "rul": 1526,
      "scho": 1527,
      "##eat": 1528,
      "##no": 1529,
      "##yt": 1530,
      "##of": 1531,
      "##sand": 1532,
      "stair": 1533,
      "half": 1534,
      "seat": 1535,
      "##ction": 1536,
      "stayed": 1537,
      "started": 1538,
      "breakdown": 1539,
      "flaw": 1540,
      "##cavity": 1541,
      "imag": 1542,
      "falling": 1543,
      "watched": 1544,
      "macavity": 1545,
      "conf": 1546,
      "happiness": 1547,
      "midnight": 1548,
      "perfectly": 1549,
      "angel": 1550,
      "giving": 1551,
      "artists": 1552,
      "fairyt": 1553,
      "studio": 1554,
      "school": 1555,
      "few": 1556,
      "fade": 1557,
      "mi": 1558,
      "matter": 1559,
      "nor": 1560,
      "ri": 1561,
      "res": 1562,
      "sat": 1563,
      "santa": 1564,
      "##az": 1565,
      "##away": 1566,
      "##kes": 1567,
      "##erve": 1568,
      "##ons": 1569,
      "style": 1570,
      "loves": 1571,
      "##ara": 1572,
      "##ars": 1573,
      "doll": 1574,
      "plan": 1575,
      "worse": 1576,
      "wast": 1577,
      "starlight": 1578,
      "though": 1579,
      "card": 1580,
      "playing": 1581,
      "foot": 1582,
      "drink": 1583,
      "guy": 1584,
      "##ized": 1585,
      "quiet": 1586,
      "##ross": 1587,
      "women": 1588,
      "##attle": 1589,
      "drag": 1590,
      "team": 1591,
      "months": 1592,
      "remind": 1593,
      "john": 1594,
      "merry": 1595,
      "fairytale": 1596,
      "brought": 1597,
      "dist": 1598,
      "es": 1599,
      "fre": 1600,
      "fil": 1601,
      "hide": 1602,
      "low": 1603,
      "ob": 1604,
      "por": 1605,
      "push": 1606,
      "rom": 1607,
      "rather": 1608,
      "sea": 1609,
      "tour": 1610,
      "und": 1611,
      "wine": 1612,
      "##ume": 1613,
      "##ought": 1614,
      "##eran": 1615,
      "mel": 1616,
      "become": 1617,
      "storm": 1618,
      "london": 1619,
      "sho": 1620,
      "whatever": 1621,
      "##ical": 1622,
      "##ope": 1623,
      "sheeran": 1624,
      "getaway": 1625,
      "##ield": 1626,
      "spe": 1627,
      "thousand": 1628,
      "dreaming": 1629,
      "flow": 1630,
      "truth": 1631,
      "holding": 1632,
      "twice": 1633,
      "leg": 1634,
      "forgot": 1635,
      "forgiven": 1636,
      "quick": 1637,
      "shined": 1638,
      "across": 1639,
      "passed": 1640,
      "scars": 1641,
      "mistakes": 1642,
      "north": 1643,
      "undone": 1644,
      "ai": 1645,
      "gown": 1646,
      "jo": 1647,
      "number": 1648,
      "ruth": 1649,
      "sup": 1650,
      "##aah": 1651,
      "##cial": 1652,
      "##uj": 1653,
      "##zier": 1654,
      "##ates": 1655,
      "##ense": 1656,
      "sol": 1657,
      "reven": 1658,
      "cand": 1659,
      "##ching": 1660,
      "##rain": 1661,
      "blame": 1662,
      "spoken": 1663,
      "staring": 1664,
      "wherever": 1665,
      "mov": 1666,
      "pack": 1667,
      "broke": 1668,
      "##ations": 1669,
      "least": 1670,
      "leaving": 1671,
      "talks": 1672,
      "stray": 1673,
      "##anted": 1674,
      "crazier": 1675,
      "skin": 1676,
      "memory": 1677,
      "kinda": 1678,
      "pictures": 1679,
      "oohoohoohoohooh": 1680,
      "warm": 1681,
      "killing": 1682,
      "angeles": 1683,
      "figured": 1684,
      "outside": 1685,
      "juliet": 1686,
      "super": 1687,
      "dying": 1688,
      "east": 1689,
      "pay": 1690,
      "rum": 1691,
      "such": 1692,
      "tight": 1693,
      "##ail": 1694,
      "##lo": 1695,
      "##ball": 1696,
      "##eal": 1697,
      "invis": 1698,
      "sha": 1699,
      "cant": 1700,
      "##ches": 1701,
      "saint": 1702,
      "space": 1703,
      "##umb": 1704,
      "##pping": 1705,
      "##igan": 1706,
      "cover": 1707,
      "paper": 1708,
      "breaking": 1709,
      "fool": 1710,
      "wonderland": 1711,
      "convers": 1712,
      "##ashville": 1713,
      "realize": 1714,
      "paint": 1715,
      "pickup": 1716,
      "pretenders": 1717,
      "hello": 1718,
      "haunt": 1719,
      "kids": 1720,
      "queen": 1721,
      "whisper": 1722,
      "##ancy": 1723,
      "terri": 1724,
      "person": 1725,
      "porch": 1726,
      "revenge": 1727,
      "invisible": 1728,
      "bought": 1729,
      "cou": 1730,
      "dou": 1731,
      "fami": 1732,
      "field": 1733,
      "heel": 1734,
      "lone": 1735,
      "nashville": 1736,
      "pow": 1737,
      "pie": 1738,
      "penn": 1739,
      "rough": 1740,
      "##dom": 1741,
      "##dream": 1742,
      "##com": 1743,
      "##cent": 1744,
      "##ges": 1745,
      "youll": 1746,
      "##ined": 1747,
      "##ats": 1748,
      "top": 1749,
      "##set": 1750,
      "knock": 1751,
      "reg": 1752,
      "##cept": 1753,
      "canada": 1754,
      "att": 1755,
      "##ics": 1756,
      "chick": 1757,
      "champ": 1758,
      "arent": 1759,
      "above": 1760,
      "oohah": 1761,
      "comp": 1762,
      "prince": 1763,
      "needed": 1764,
      "betty": 1765,
      "def": 1766,
      "keeping": 1767,
      "bye": 1768,
      "ohohoh": 1769,
      "marry": 1770,
      "crashed": 1771,
      "cried": 1772,
      "refrain": 1773,
      "stranger": 1774,
      "mama": 1775,
      "rules": 1776,
      "flawless": 1777,
      "conversation": 1778,
      "family": 1779,
      "fut": 1780,
      "fift": 1781,
      "fans": 1782,
      "gen": 1783,
      "oce": 1784,
      "sink": 1785,
      "ty": 1786,
      "use": 1787,
      "##pr": 1788,
      "##ime": 1789,
      "##iest": 1790,
      "##ner": 1791,
      "##non": 1792,
      "##la": 1793,
      "##ron": 1794,
      "##how": 1795,
      "##sent": 1796,
      "thre": 1797,
      "##nding": 1798,
      "##any": 1799,
      "##stic": 1800,
      "inno": 1801,
      "lip": 1802,
      "stare": 1803,
      "##ett": 1804,
      "knowing": 1805,
      "##ition": 1806,
      "thinkin": 1807,
      "blind": 1808,
      "daydream": 1809,
      "##eluj": 1810,
      "ago": 1811,
      "dev": 1812,
      "cru": 1813,
      "fox": 1814,
      "burned": 1815,
      "works": 1816,
      "marvel": 1817,
      "shining": 1818,
      "grace": 1819,
      "kingdom": 1820,
      "disc": 1821,
      "haunted": 1822,
      "halleluj": 1823,
      "voice": 1824,
      "assume": 1825,
      "honest": 1826,
      "enchanted": 1827,
      "esca": 1828,
      "forgiveness": 1829,
      "solve": 1830,
      "future": 1831,
      "marvelous": 1832,
      "hallelujah": 1833,
      "battle": 1834,
      "det": 1835,
      "eh": 1836,
      "ear": 1837,
      "fra": 1838,
      "fate": 1839,
      "fancy": 1840,
      "hor": 1841,
      "hol": 1842,
      "mis": 1843,
      "nd": 1844,
      "ride": 1845,
      "vot": 1846,
      "yester": 1847,
      "##ab": 1848,
      "##aid": 1849,
      "##iv": 1850,
      "##ience": 1851,
      "##den": 1852,
      "##let": 1853,
      "##con": 1854,
      "##cket": 1855,
      "##bt": 1856,
      "##ual": 1857,
      "##ward": 1858,
      "##erf": 1859,
      "##eren": 1860,
      "##ank": 1861,
      "##orrow": 1862,
      "##vember": 1863,
      "state": 1864,
      "ball": 1865,
      "shad": 1866,
      "shaking": 1867,
      "november": 1868,
      "##ird": 1869,
      "till": 1870,
      "safe": 1871,
      "##iment": 1872,
      "sevent": 1873,
      "book": 1874,
      "hook": 1875,
      "calling": 1876,
      "death": 1877,
      "tryna": 1878,
      "smoke": 1879,
      "smiles": 1880,
      "talked": 1881,
      "eng": 1882,
      "hoping": 1883,
      "played": 1884,
      "ahah": 1885,
      "ahaah": 1886,
      "older": 1887,
      "point": 1888,
      "guys": 1889,
      "craw": 1890,
      "aint": 1891,
      "flying": 1892,
      "sunsh": 1893,
      "sunset": 1894,
      "##acher": 1895,
      "firef": 1896,
      "promis": 1897,
      "country": 1898,
      "brave": 1899,
      "wearing": 1900,
      "##ubl": 1901,
      "instead": 1902,
      "wasted": 1903,
      "movie": 1904,
      "rumors": 1905,
      "heels": 1906,
      "lonely": 1907,
      "ocean": 1908,
      "yesterday": 1909,
      "seventeen": 1910,
      "sunshine": 1911,
      "born": 1912,
      "ee": 1913,
      "echo": 1914,
      "fit": 1915,
      "fol": 1916,
      "james": 1917,
      "later": 1918,
      "money": 1919,
      "names": 1920,
      "pat": 1921,
      "par": 1922,
      "park": 1923,
      "rush": 1924,
      "te": 1925,
      "wra": 1926,
      "##ped": 1927,
      "##app": 1928,
      "##case": 1929,
      "##br": 1930,
      "##808": 1931,
      "##lla": 1932,
      "##ren": 1933,
      "##anging": 1934,
      "##str": 1935,
      "thats": 1936,
      "bal": 1937,
      "kne": 1938,
      "short": 1939,
      "ohho": 1940,
      "##itt": 1941,
      "doin": 1942,
      "somehow": 1943,
      "thinks": 1944,
      "bless": 1945,
      "telling": 1946,
      "bott": 1947,
      "rose": 1948,
      "hero": 1949,
      "##ister": 1950,
      "scre": 1951,
      "plays": 1952,
      "turns": 1953,
      "driving": 1954,
      "perman": 1955,
      "##osed": 1956,
      "vernon": 1957,
      "learn": 1958,
      "cuts": 1959,
      "acc": 1960,
      "brand": 1961,
      "crowds": 1962,
      "corner": 1963,
      "disapp": 1964,
      "throwing": 1965,
      "surpr": 1966,
      "secret": 1967,
      "##heeheeh": 1968,
      "busy": 1969,
      "spelling": 1970,
      "twenty": 1971,
      "cardigan": 1972,
      "film": 1973,
      "special": 1974,
      "eeheeheeh": 1975,
      "permanent": 1976,
      "08": 1977,
      "00": 1978,
      "bas": 1979,
      "cow": 1980,
      "dj": 1981,
      "den": 1982,
      "fle": 1983,
      "fix": 1984,
      "feat": 1985,
      "hist": 1986,
      "hanging": 1987,
      "ii": 1988,
      "lay": 1989,
      "mot": 1990,
      "matt": 1991,
      "none": 1992,
      "si": 1993,
      "sy": 1994,
      "ser": 1995,
      "sight": 1996,
      "tree": 1997,
      "weren": 1998,
      "##nes": 1999,
      "##friend": 2000,
      "##over": 2001,
      "##go": 2002,
      "##read": 2003,
      "##rent": 2004,
      "##esome": 2005,
      "##eam": 2006,
      "lies": 2007,
      "lock": 2008,
      "##ides": 2009,
      "##ustry": 2010,
      "cast": 2011,
      "wash": 2012,
      "chee": 2013,
      "char": 2014,
      "swing": 2015,
      "whose": 2016,
      "##olin": 2017,
      "self": 2018,
      "hollow": 2019,
      "scene": 2020,
      "flames": 2021,
      "except": 2022,
      "drown": 2023,
      "phil": 2024,
      "others": 2025,
      "quest": 2026,
      "##ountain": 2027,
      "##room": 2028,
      "##ogn": 2029,
      "magnet": 2030,
      "windows": 2031,
      "recogn": 2032,
      "curs": 2033,
      "apolog": 2034,
      "treacher": 2035,
      "crashing": 2036,
      "awesome": 2037,
      "industry": 2038,
      "happened": 2039,
      "##boy": 2040,
      "faded": 2041,
      "riding": 2042,
      "fifteen": 2043,
      "knees": 2044,
      "magnetic": 2045,
      "treacherous": 2046,
      "bent": 2047,
      "bill": 2048,
      "bull": 2049,
      "draw": 2050,
      "full": 2051,
      "father": 2052,
      "sme": 2053,
      "sug": 2054,
      "val": 2055,
      "vote": 2056,
      "wound": 2057,
      "weak": 2058,
      "##ping": 2059,
      "##ten": 2060,
      "##li": 2061,
      "##lves": 2062,
      "##rit": 2063,
      "##vy": 2064,
      "##van": 2065,
      "##uff": 2066,
      "##so": 2067,
      "##walk": 2068,
      "##ky": 2069,
      "##je": 2070,
      "##ering": 2071,
      "##nda": 2072,
      "##ington": 2073,
      "##ange": 2074,
      "mend": 2075,
      "int": 2076,
      "livin": 2077,
      "haah": 2078,
      "reck": 2079,
      "nowhere": 2080,
      "ateam": 2081,
      "worry": 2082,
      "block": 2083,
      "sees": 2084,
      "class": 2085,
      "##amed": 2086,
      "heartbe": 2087,
      "ours": 2088,
      "holy": 2089,
      "tryin": 2090,
      "walks": 2091,
      "against": 2092,
      "##ahh": 2093,
      "finding": 2094,
      "existed": 2095,
      "stream": 2096,
      "asked": 2097,
      "realized": 2098,
      "danced": 2099,
      "##ship": 2100,
      "winter": 2101,
      "insane": 2102,
      "counting": 2103,
      "warning": 2104,
      "##ughter": 2105,
      "sparkling": 2106,
      "idea": 2107,
      "##board": 2108,
      "bitter": 2109,
      "##borough": 2110,
      "bleed": 2111,
      "ladies": 2112,
      "supposed": 2113,
      "rutherf": 2114,
      "chicks": 2115,
      "threw": 2116,
      "foxborough": 2117,
      "escape": 2118,
      "england": 2119,
      "flew": 2120,
      "cheeks": 2121,
      "recognize": 2122,
      "sugar": 2123,
      "reckless": 2124,
      "rutherford": 2125,
      "ach": 2126,
      "din": 2127,
      "dust": 2128,
      "ele": 2129,
      "fill": 2130,
      "hid": 2131,
      "hush": 2132,
      "joke": 2133,
      "jap": 2134,
      "lord": 2135,
      "mand": 2136,
      "mountain": 2137,
      "near": 2138,
      "nah": 2139,
      "sear": 2140,
      "sud": 2141,
      "six": 2142,
      "vi": 2143,
      "vers": 2144,
      "wide": 2145,
      "waking": 2146,
      "##pers": 2147,
      "##act": 2148,
      "##town": 2149,
      "##iar": 2150,
      "##lvan": 2151,
      "##fair": 2152,
      "##ced": 2153,
      "##vi": 2154,
      "##bie": 2155,
      "##zz": 2156,
      "##org": 2157,
      "inc": 2158,
      "##thin": 2159,
      "myster": 2160,
      "haa": 2161,
      "shit": 2162,
      "shade": 2163,
      "share": 2164,
      "forward": 2165,
      "##adel": 2166,
      "##icag": 2167,
      "##amil": 2168,
      "alread": 2169,
      "chicag": 2170,
      "##ife": 2171,
      "fact": 2172,
      "wants": 2173,
      "land": 2174,
      "clou": 2175,
      "willow": 2176,
      "##ota": 2177,
      "prod": 2178,
      "waited": 2179,
      "smil": 2180,
      "##ational": 2181,
      "##pty": 2182,
      "exc": 2183,
      "expl": 2184,
      "expect": 2185,
      "remembered": 2186,
      "drug": 2187,
      "phot": 2188,
      "##izing": 2189,
      "opin": 2190,
      "sidewalk": 2191,
      "##shirt": 2192,
      "glow": 2193,
      "fears": 2194,
      "empty": 2195,
      "shiny": 2196,
      "monolog": 2197,
      "uhuh": 2198,
      "actress": 2199,
      "actually": 2200,
      "deserve": 2201,
      "add": 2202,
      "crime": 2203,
      "stronger": 2204,
      "given": 2205,
      "decade": 2206,
      "choice": 2207,
      "contr": 2208,
      "compliment": 2209,
      "spotlight": 2210,
      "ghosts": 2211,
      "romant": 2212,
      "regre": 2213,
      "innocent": 2214,
      "cruel": 2215,
      "promises": 2216,
      "surprise": 2217,
      "question": 2218,
      "bullet": 2219,
      "smell": 2220,
      "heartbeat": 2221,
      "japan": 2222,
      "mandolin": 2223,
      "sudden": 2224,
      "already": 2225,
      "chicago": 2226,
      "monologue": 2227,
      "age": 2228,
      "bene": 2229,
      "five": 2230,
      "gun": 2231,
      "lake": 2232,
      "miles": 2233,
      "pop": 2234,
      "pian": 2235,
      "sent": 2236,
      "tang": 2237,
      "vow": 2238,
      "##ta": 2239,
      "##tar": 2240,
      "##tain": 2241,
      "##ez": 2242,
      "##yn": 2243,
      "##yes": 2244,
      "##yed": 2245,
      "##ring": 2246,
      "##cy": 2247,
      "##cing": 2248,
      "##ha": 2249,
      "##wood": 2250,
      "##ouri": 2251,
      "##atic": 2252,
      "toron": 2253,
      "##ealing": 2254,
      "##med": 2255,
      "##ism": 2256,
      "stories": 2257,
      "##selves": 2258,
      "##ided": 2259,
      "##ident": 2260,
      "having": 2261,
      "shatter": 2262,
      "##ards": 2263,
      "wit": 2264,
      "##raph": 2265,
      "##ices": 2266,
      "##ams": 2267,
      "plane": 2268,
      "faster": 2269,
      "usin": 2270,
      "reach": 2271,
      "brenda": 2272,
      "club": 2273,
      "clara": 2274,
      "hearts": 2275,
      "##used": 2276,
      "rocks": 2277,
      "pride": 2278,
      "woah": 2279,
      "mother": 2280,
      "lasts": 2281,
      "amount": 2282,
      "enem": 2283,
      "twist": 2284,
      "twisted": 2285,
      "pool": 2286,
      "wonderstr": 2287,
      "missed": 2288,
      "missouri": 2289,
      "putting": 2290,
      "trave": 2291,
      "track": 2292,
      "traged": 2293,
      "believed": 2294,
      "breathless": 2295,
      "dancin": 2296,
      "redne": 2297,
      "worked": 2298,
      "##agne": 2299,
      "colors": 2300,
      "columb": 2301,
      "lately": 2302,
      "eyeyes": 2303,
      "written": 2304,
      "daughter": 2305,
      "growing": 2306,
      "##phia": 2307,
      "buy": 2308,
      "minute": 2309,
      "contin": 2310,
      "internet": 2311,
      "##sylvan": 2312,
      "salute": 2313,
      "staircase": 2314,
      "dollars": 2315,
      "season": 2316,
      "shoes": 2317,
      "gowns": 2318,
      "shape": 2319,
      "covered": 2320,
      "pieces": 2321,
      "pennsylvan": 2322,
      "champagne": 2323,
      "crawling": 2324,
      "cowboy": 2325,
      "philadel": 2326,
      "version": 2327,
      "produ": 2328,
      "piano": 2329,
      "tangled": 2330,
      "toronto": 2331,
      "wonderstruck": 2332,
      "redneck": 2333,
      "pennsylvania": 2334,
      "philadelphia": 2335,
      "aut": 2336,
      "bir": 2337,
      "bones": 2338,
      "ce": 2339,
      "cat": 2340,
      "cas": 2341,
      "cir": 2342,
      "date": 2343,
      "eight": 2344,
      "jok": 2345,
      "jeal": 2346,
      "lee": 2347,
      "lines": 2348,
      "men": 2349,
      "oc": 2350,
      "pal": 2351,
      "path": 2352,
      "rings": 2353,
      "sle": 2354,
      "sister": 2355,
      "wid": 2356,
      "wings": 2357,
      "##tra": 2358,
      "##iams": 2359,
      "##fied": 2360,
      "##oid": 2361,
      "##cus": 2362,
      "##bour": 2363,
      "##und": 2364,
      "##ked": 2365,
      "##ino": 2366,
      "##llback": 2367,
      "tom": 2368,
      "toss": 2369,
      "meant": 2370,
      "##stick": 2371,
      "bec": 2372,
      "##edom": 2373,
      "knife": 2374,
      "##ley": 2375,
      "ohh": 2376,
      "cab": 2377,
      "capt": 2378,
      "##itter": 2379,
      "##ode": 2380,
      "atl": 2381,
      "ang": 2382,
      "seem": 2383,
      "chill": 2384,
      "aren": 2385,
      "shellback": 2386,
      "blush": 2387,
      "blank": 2388,
      "fro": 2389,
      "waves": 2390,
      "williams": 2391,
      "shoulda": 2392,
      "##eless": 2393,
      "wished": 2394,
      "brit": 2395,
      "crit": 2396,
      "cars": 2397,
      "carry": 2398,
      "sli": 2399,
      "players": 2400,
      "stands": 2401,
      "##call": 2402,
      "falls": 2403,
      "turning": 2404,
      "strange": 2405,
      "arm": 2406,
      "pebb": 2407,
      "concer": 2408,
      "affair": 2409,
      "grey": 2410,
      "skies": 2411,
      "dressed": 2412,
      "relation": 2413,
      "glass": 2414,
      "##ograph": 2415,
      "highest": 2416,
      "prove": 2417,
      "farm": 2418,
      "reasons": 2419,
      "careful": 2420,
      "snow": 2421,
      "america": 2422,
      "drama": 2423,
      "crowded": 2424,
      "rolled": 2425,
      "week": 2426,
      "complic": 2427,
      "secrets": 2428,
      "price": 2429,
      "dirtiest": 2430,
      "sneakin": 2431,
      "ruining": 2432,
      "midnights": 2433,
      "freedom": 2434,
      "obs": 2435,
      "melbour": 2436,
      "doubt": 2437,
      "gener": 2438,
      "horse": 2439,
      "##cony": 2440,
      "firefly": 2441,
      "folk": 2442,
      "balcony": 2443,
      "bottles": 2444,
      "history": 2445,
      "washington": 2446,
      "cursing": 2447,
      "control": 2448,
      "suddenly": 2449,
      "beneath": 2450,
      "birth": 2451,
      "cele": 2452,
      "jealous": 2453,
      "pebbles": 2454,
      "melbourne": 2455,
      "608": 2456,
      "aud": 2457,
      "bur": 2458,
      "dubl": 2459,
      "gary": 2460,
      "hum": 2461,
      "ire": 2462,
      "jak": 2463,
      "prou": 2464,
      "rd": 2465,
      "sin": 2466,
      "sna": 2467,
      "wed": 2468,
      "west": 2469,
      "##mers": 2470,
      "##matic": 2471,
      "##tin": 2472,
      "##not": 2473,
      "##year": 2474,
      "##line": 2475,
      "##vol": 2476,
      "##hy": 2477,
      "##008": 2478,
      "##ka": 2479,
      "ther": 2480,
      "##erm": 2481,
      "toky": 2482,
      "##res": 2483,
      "##ows": 2484,
      "##esaid": 2485,
      "med": 2486,
      "inf": 2487,
      "onto": 2488,
      "likes": 2489,
      "liked": 2490,
      "##ison": 2491,
      "##kend": 2492,
      "stick": 2493,
      "straw": 2494,
      "stealing": 2495,
      "##iday": 2496,
      "haim": 2497,
      "##aring": 2498,
      "recall": 2499,
      "##lem": 2500,
      "nelly": 2501,
      "button": 2502,
      "force": 2503,
      "caill": 2504,
      "##iting": 2505,
      "##itand": 2506,
      "tip": 2507,
      "##aded": 2508,
      "##urch": 2509,
      "##als": 2510,
      "upon": 2511,
      "##ically": 2512,
      "seeing": 2513,
      "##amond": 2514,
      "chas": 2515,
      "chase": 2516,
      "##akin": 2517,
      "##ored": 2518,
      "##ention": 2519,
      "worship": 2520,
      "##olis": 2521,
      "##ately": 2522,
      "ways": 2523,
      "##ots": 2524,
      "##oted": 2525,
      "box": 2526,
      "board": 2527,
      "rosy": 2528,
      "##ppin": 2529,
      "lightbody": 2530,
      "coll": 2531,
      "moves": 2532,
      "paul": 2533,
      "flick": 2534,
      "crown": 2535,
      "news": 2536,
      "carol": 2537,
      "hopeless": 2538,
      "slee": 2539,
      "slam": 2540,
      "slope": 2541,
      "ended": 2542,
      "chances": 2543,
      "poet": 2544,
      "##lights": 2545,
      "headlights": 2546,
      "arch": 2547,
      "boyfriend": 2548,
      "happens": 2549,
      "##iction": 2550,
      "handsome": 2551,
      "streets": 2552,
      "##shut": 2553,
      "harder": 2554,
      "repl": 2555,
      "openshut": 2556,
      "colbie": 2557,
      "table": 2558,
      "sleepless": 2559,
      "hurts": 2560,
      "messed": 2561,
      "roads": 2562,
      "careless": 2563,
      "bedroom": 2564,
      "##ments": 2565,
      "mistake": 2566,
      "grown": 2567,
      "brighter": 2568,
      "sounds": 2569,
      "awake": 2570,
      "indian": 2571,
      "cleaning": 2572,
      "apple": 2573,
      "whispers": 2574,
      "key": 2575,
      "choose": 2576,
      "greatest": 2577,
      "weeks": 2578,
      "weekend": 2579,
      "closest": 2580,
      "closure": 2581,
      "marker": 2582,
      "diamond": 2583,
      "impress": 2584,
      "blew": 2585,
      "lady": 2586,
      "salt": 2587,
      "support": 2588,
      "hung": 2589,
      "stairs": 2590,
      "pushed": 2591,
      "flowers": 2592,
      "superst": 2593,
      "lipstick": 2594,
      "##etti": 2595,
      "discover": 2596,
      "honestly": 2597,
      "detail": 2598,
      "voting": 2599,
      "screen": 2600,
      "accident": 2601,
      "##amiliar": 2602,
      "enemies": 2603,
      "tragedy": 2604,
      "occ": 2605,
      "tomorrow": 2606,
      "became": 2607,
      "atlanta": 2608,
      "angry": 2609,
      "obsess": 2610,
      "dublin": 2611,
      "ireland": 2612,
      "proud": 2613,
      "tokyo": 2614,
      "buttons": 2615,
      "caillat": 2616,
      "bone": 2617,
      "bath": 2618,
      "bound": 2619,
      "bitch": 2620,
      "dy": 2621,
      "dest": 2622,
      "dim": 2623,
      "deal": 2624,
      "ent": 2625,
      "ella": 2626,
      "fing": 2627,
      "fuck": 2628,
      "four": 2629,
      "ge": 2630,
      "gent": 2631,
      "hay": 2632,
      "hund": 2633,
      "ig": 2634,
      "jes": 2635,
      "kans": 2636,
      "kings": 2637,
      "kitch": 2638,
      "lam": 2639,
      "lull": 2640,
      "mas": 2641,
      "nat": 2642,
      "national": 2643,
      "pin": 2644,
      "peak": 2645,
      "ris": 2646,
      "rude": 2647,
      "sus": 2648,
      "sens": 2649,
      "squ": 2650,
      "sense": 2651,
      "tem": 2652,
      "tshirt": 2653,
      "vide": 2654,
      "##mm": 2655,
      "##ai": 2656,
      "##ib": 2657,
      "##ither": 2658,
      "##ium": 2659,
      "##ey": 2660,
      "##lies": 2661,
      "##lude": 2662,
      "##fet": 2663,
      "##ris": 2664,
      "##vious": 2665,
      "##vable": 2666,
      "##gin": 2667,
      "##zen": 2668,
      "##we": 2669,
      "##ww": 2670,
      "##writ": 2671,
      "##oustic": 2672,
      "thirt": 2673,
      "##nday": 2674,
      "##aters": 2675,
      "toast": 2676,
      "##ana": 2677,
      "##angh": 2678,
      "##ena": 2679,
      "##eap": 2680,
      "beds": 2681,
      "##ution": 2682,
      "ontar": 2683,
      "lived": 2684,
      "myst": 2685,
      "sto": 2686,
      "stage": 2687,
      "baitand": 2688,
      "weather": 2689,
      "##sequ": 2690,
      "##idada": 2691,
      "shirt": 2692,
      "shangh": 2693,
      "##aries": 2694,
      "rebel": 2695,
      "revol": 2696,
      "neck": 2697,
      "island": 2698,
      "forth": 2699,
      "ohio": 2700,
      "##irts": 2701,
      "evermore": 2702,
      "cance": 2703,
      "answ": 2704,
      "##unch": 2705,
      "also": 2706,
      "chain": 2707,
      "chand": 2708,
      "china": 2709,
      "church": 2710,
      "theyll": 2711,
      "##ified": 2712,
      "fault": 2713,
      "note": 2714,
      "swe": 2715,
      "sweat": 2716,
      "##ief": 2717,
      "bree": 2718,
      "spin": 2719,
      "spite": 2720,
      "dreamed": 2721,
      "##fending": 2722,
      "##ctor": 2723,
      "tells": 2724,
      "##els": 2725,
      "##elier": 2726,
      "bottle": 2727,
      "rock": 2728,
      "comm": 2729,
      "comb": 2730,
      "##ils": 2731,
      "##ility": 2732,
      "anyway": 2733,
      "needs": 2734,
      "leaves": 2735,
      "thoughts": 2736,
      "minds": 2737,
      "exlo": 2738,
      "exact": 2739,
      "ahead": 2740,
      "named": 2741,
      "##antly": 2742,
      "consequ": 2743,
      "beginning": 2744,
      "beauty": 2745,
      "breathing": 2746,
      "streetlight": 2747,
      "##ouchable": 2748,
      "memor": 2749,
      "glitter": 2750,
      "painted": 2751,
      "proof": 2752,
      "tax": 2753,
      "taste": 2754,
      "picked": 2755,
      "pretending": 2756,
      "acoustic": 2757,
      "heal": 2758,
      "colder": 2759,
      "dazz": 2760,
      "##ossible": 2761,
      "leads": 2762,
      "gray": 2763,
      "radidididid": 2764,
      "happening": 2765,
      "untouchable": 2766,
      "appla": 2767,
      "queens": 2768,
      "keys": 2769,
      "minnes": 2770,
      "hallway": 2771,
      "shots": 2772,
      "fading": 2773,
      "impossible": 2774,
      "polit": 2775,
      "##switch": 2776,
      "##idididididada": 2777,
      "dirty": 2778,
      "seconds": 2779,
      "twenties": 2780,
      "matches": 2781,
      "dragons": 2782,
      "distance": 2783,
      "whispered": 2784,
      "couple": 2785,
      "holes": 2786,
      "miser": 2787,
      "based": 2788,
      "streaming": 2789,
      "searching": 2790,
      "viol": 2791,
      "##orgia": 2792,
      "explain": 2793,
      "shattered": 2794,
      "columbus": 2795,
      "continue": 2796,
      "jokes": 2797,
      "palm": 2798,
      "frozen": 2799,
      "concerned": 2800,
      "theres": 2801,
      "##lemen": 2802,
      "carolina": 2803,
      "hopelessly": 2804,
      "slamming": 2805,
      "superstar": 2806,
      "georgia": 2807,
      "gentlemen": 2808,
      "hayley": 2809,
      "hundred": 2810,
      "ign": 2811,
      "kansas": 2812,
      "kitchen": 2813,
      "ontario": 2814,
      "baitandswitch": 2815,
      "shanghai": 2816,
      "chandelier": 2817,
      "exlovers": 2818,
      "consequence": 2819,
      "radidididididididididada": 2820,
      "minnesota": 2821,
      "708": 2822,
      "98": 2823,
      "aven": 2824,
      "bie": 2825,
      "cent": 2826,
      "cree": 2827,
      "dc": 2828,
      "dor": 2829,
      "fal": 2830,
      "fiction": 2831,
      "gle": 2832,
      "gro": 2833,
      "gather": 2834,
      "hour": 2835,
      "jer": 2836,
      "kend": 2837,
      "ling": 2838,
      "lakes": 2839,
      "mou": 2840,
      "pet": 2841,
      "pur": 2842,
      "pill": 2843,
      "patch": 2844,
      "ret": 2845,
      "rust": 2846,
      "son": 2847,
      "sie": 2848,
      "tp": 2849,
      "tat": 2850,
      "tee": 2851,
      "tend": 2852,
      "##mes": 2853,
      "##ient": 2854,
      "##ives": 2855,
      "##lest": 2856,
      "##oe": 2857,
      "##ost": 2858,
      "##old": 2859,
      "##cle": 2860,
      "##cul": 2861,
      "##val": 2862,
      "##bly": 2863,
      "##bby": 2864,
      "##bles": 2865,
      "##ux": 2866,
      "##uary": 2867,
      "##ground": 2868,
      "##gue": 2869,
      "##zie": 2870,
      "##0s": 2871,
      "##908": 2872,
      "##508": 2873,
      "##708": 2874,
      "##608": 2875,
      "##ndale": 2876,
      "##ona": 2877,
      "##anting": 2878,
      "##ences": 2879,
      "##ords": 2880,
      "wheel": 2881,
      "##sty": 2882,
      "##ston": 2883,
      "bein": 2884,
      "bell": 2885,
      "inv": 2886,
      "inez": 2887,
      "##utes": 2888,
      "##vement": 2889,
      "lifet": 2890,
      "lovin": 2891,
      "##eet": 2892,
      "bare": 2893,
      "##sey": 2894,
      "knelt": 2895,
      "iss": 2896,
      "##ities": 2897,
      "##itude": 2898,
      "tiww": 2899,
      "##chnt": 2900,
      "##chester": 2901,
      "##rick": 2902,
      "##tten": 2903,
      "##ico": 2904,
      "##icult": 2905,
      "asia": 2906,
      "able": 2907,
      "lame": 2908,
      "swore": 2909,
      "switch": 2910,
      "whos": 2911,
      "blink": 2912,
      "blues": 2913,
      "spir": 2914,
      "seven": 2915,
      "clim": 2916,
      "##ela": 2917,
      "hadn": 2918,
      "boat": 2919,
      "##umn": 2920,
      "##ters": 2921,
      "holly": 2922,
      "manchester": 2923,
      "calls": 2924,
      "coat": 2925,
      "cost": 2926,
      "coff": 2927,
      "cobb": 2928,
      "woke": 2929,
      "score": 2930,
      "##toes": 2931,
      "paid": 2932,
      "amaz": 2933,
      "brother": 2934,
      "trop": 2935,
      "trans": 2936,
      "crush": 2937,
      "hopes": 2938,
      "holds": 2939,
      "danger": 2940,
      "standin": 2941,
      "exp": 2942,
      "exper": 2943,
      "ahh": 2944,
      "pocket": 2945,
      "##lington": 2946,
      "arlington": 2947,
      "guard": 2948,
      "beach": 2949,
      "traff": 2950,
      "stress": 2951,
      "perf": 2952,
      "##redible": 2953,
      "kissing": 2954,
      "kissed": 2955,
      "meetings": 2956,
      "grew": 2957,
      "bigger": 2958,
      "##ships": 2959,
      "parties": 2960,
      "working": 2961,
      "summers": 2962,
      "tape": 2963,
      "taught": 2964,
      "screams": 2965,
      "moments": 2966,
      "steph": 2967,
      "message": 2968,
      "curious": 2969,
      "deser": 2970,
      "desper": 2971,
      "hits": 2972,
      "mistlet": 2973,
      "speaking": 2974,
      "trend": 2975,
      "trees": 2976,
      "beating": 2977,
      "difficult": 2978,
      "##othea": 2979,
      "decided": 2980,
      "mirac": 2981,
      "kept": 2982,
      "minutes": 2983,
      "rule": 2984,
      "##steps": 2985,
      "blows": 2986,
      "interlude": 2987,
      "closer": 2988,
      "tallest": 2989,
      "strangers": 2990,
      "setting": 2991,
      "mirrorball": 2992,
      "imagine": 2993,
      "imagined": 2994,
      "confetti": 2995,
      "planned": 2996,
      "footsteps": 2997,
      "drinking": 2998,
      "reminds": 2999,
      "distra": 3000,
      "fresh": 3001,
      "obvious": 3002,
      "quicker": 3003,
      "candle": 3004,
      "superman": 3005,
      "shawn": 3006,
      "terribly": 3007,
      "power": 3008,
      "##comes": 3009,
      "knocked": 3010,
      "devoted": 3011,
      "holiday": 3012,
      "shadows": 3013,
      "echoes": 3014,
      "wrapped": 3015,
      "disappear": 3016,
      "denver": 3017,
      "sixt": 3018,
      "##rents": 3019,
      "drowning": 3020,
      "apologize": 3021,
      "weakness": 3022,
      "mendes": 3023,
      "dinner": 3024,
      "elect": 3025,
      "filled": 3026,
      "hiding": 3027,
      "mountains": 3028,
      "incredible": 3029,
      "smiled": 3030,
      "opinion": 3031,
      "witches": 3032,
      "tossing": 3033,
      "britney": 3034,
      "critic": 3035,
      "slipped": 3036,
      "audience": 3037,
      "tiptoes": 3038,
      "sleeve": 3039,
      "accidents": 3040,
      "natur": 3041,
      "risk": 3042,
      "video": 3043,
      "answer": 3044,
      "breeze": 3045,
      "combat": 3046,
      "dazzling": 3047,
      "applause": 3048,
      "violence": 3049,
      "bieber": 3050,
      "dorothea": 3051,
      "false": 3052,
      "glendale": 3053,
      "tatto": 3054,
      "##lestones": 3055,
      "tiwwchnt": 3056,
      "coffee": 3057,
      "cobblestones": 3058,
      "traffic": 3059,
      "stephen": 3060,
      "mistletoe": 3061,
      "ari": 3062,
      "aim": 3063,
      "ber": 3064,
      "bri": 3065,
      "borrow": 3066,
      "cie": 3067,
      "cure": 3068,
      "civ": 3069,
      "dies": 3070,
      "dare": 3071,
      "er": 3072,
      "fur": 3073,
      "fant": 3074,
      "freck": 3075,
      "familiar": 3076,
      "haters": 3077,
      "jan": 3078,
      "mart": 3079,
      "mich": 3080,
      "om": 3081,
      "owe": 3082,
      "pit": 3083,
      "pitt": 3084,
      "rare": 3085,
      "rode": 3086,
      "rico": 3087,
      "sides": 3088,
      "vall": 3089,
      "yo": 3090,
      "yard": 3091,
      "ze": 3092,
      "##ily": 3093,
      "##iation": 3094,
      "##ether": 3095,
      "##ns": 3096,
      "##ding": 3097,
      "##long": 3098,
      "##rze": 3099,
      "##oot": 3100,
      "##cal": 3101,
      "##cious": 3102,
      "##bur": 3103,
      "##bab": 3104,
      "##hood": 3105,
      "##gs": 3106,
      "##gas": 3107,
      "##gic": 3108,
      "##ses": 3109,
      "##szy": 3110,
      "##kirts": 3111,
      "##xas": 3112,
      "thin": 3113,
      "youd": 3114,
      "##ero": 3115,
      "##erv": 3116,
      "##atin": 3117,
      "##ator": 3118,
      "##resent": 3119,
      "whether": 3120,
      "##isz": 3121,
      "##kets": 3122,
      "stone": 3123,
      "stol": 3124,
      "stones": 3125,
      "lots": 3126,
      "##asion": 3127,
      "bab": 3128,
      "weird": 3129,
      "##ida": 3130,
      "haze": 3131,
      "ship": 3132,
      "##aroid": 3133,
      "##cked": 3134,
      "camer": 3135,
      "##ited": 3136,
      "##chet": 3137,
      "doctor": 3138,
      "##ado": 3139,
      "##ohoh": 3140,
      "##oking": 3141,
      "sayin": 3142,
      "vegas": 3143,
      "everyday": 3144,
      "chest": 3145,
      "chair": 3146,
      "theyre": 3147,
      "fail": 3148,
      "notice": 3149,
      "present": 3150,
      "usually": 3151,
      "abs": 3152,
      "label": 3153,
      "swim": 3154,
      "##imp": 3155,
      "frustr": 3156,
      "letting": 3157,
      "##ievable": 3158,
      "spee": 3159,
      "sex": 3160,
      "send": 3161,
      "wave": 3162,
      "##cted": 3163,
      "cliff": 3164,
      "##otion": 3165,
      "songwrit": 3166,
      "boss": 3167,
      "roof": 3168,
      "comin": 3169,
      "comple": 3170,
      "##ilt": 3171,
      "needing": 3172,
      "lightning": 3173,
      "hole": 3174,
      "makeup": 3175,
      "bette": 3176,
      "hometown": 3177,
      "##ures": 3178,
      "dep": 3179,
      "defending": 3180,
      "moj": 3181,
      "pavement": 3182,
      "parents": 3183,
      "breaks": 3184,
      "flight": 3185,
      "brad": 3186,
      "truly": 3187,
      "##ninger": 3188,
      "##aha": 3189,
      "endless": 3190,
      "changing": 3191,
      "exile": 3192,
      "focus": 3193,
      "themselves": 3194,
      "mall": 3195,
      "master": 3196,
      "overd": 3197,
      "tragic": 3198,
      "##allen": 3199,
      "believes": 3200,
      "doorste": 3201,
      "realizing": 3202,
      "sung": 3203,
      "musical": 3204,
      "verse": 3205,
      "closet": 3206,
      "glad": 3207,
      "stopped": 3208,
      "##ogne": 3209,
      "cologne": 3210,
      "sweeter": 3211,
      "probab": 3212,
      "learning": 3213,
      "forgetting": 3214,
      "picking": 3215,
      "steps": 3216,
      "sweetest": 3217,
      "unbel": 3218,
      "christmases": 3219,
      "grab": 3220,
      "scarlet": 3221,
      "davis": 3222,
      "finish": 3223,
      "sunday": 3224,
      "##quest": 3225,
      "rais": 3226,
      "rabb": 3227,
      "houston": 3228,
      "jumping": 3229,
      "teach": 3230,
      "lessons": 3231,
      "grass": 3232,
      "bars": 3233,
      "refle": 3234,
      "catching": 3235,
      "outskirts": 3236,
      "diary": 3237,
      "flashbacks": 3238,
      "polaroid": 3239,
      "letters": 3240,
      "honor": 3241,
      "recording": 3242,
      "enchanting": 3243,
      "angels": 3244,
      "respect": 3245,
      "shoot": 3246,
      "terrified": 3247,
      "piece": 3248,
      "pennies": 3249,
      "attitude": 3250,
      "company": 3251,
      "devil": 3252,
      "early": 3253,
      "voted": 3254,
      "smokey": 3255,
      "##ublic": 3256,
      "texas": 3257,
      "wrap": 3258,
      "motion": 3259,
      "sipped": 3260,
      "drawer": 3261,
      "mystery": 3262,
      "photograph": 3263,
      "romantics": 3264,
      "autumn": 3265,
      "blushing": 3266,
      "relationships": 3267,
      "generation": 3268,
      "birthday": 3269,
      "celebr": 3270,
      "boarded": 3271,
      "archer": 3272,
      "replace": 3273,
      "discovered": 3274,
      "details": 3275,
      "occasion": 3276,
      "destro": 3277,
      "entire": 3278,
      "fingers": 3279,
      "lamar": 3280,
      "revolution": 3281,
      "canceled": 3282,
      "exactly": 3283,
      "taxi": 3284,
      "avenue": 3285,
      "hours": 3286,
      "kendrick": 3287,
      "mouth": 3288,
      "spirit": 3289,
      "climb": 3290,
      "miracle": 3291,
      "distraction": 3292,
      "berninger": 3293,
      "borrowed": 3294,
      "fantasy": 3295,
      "january": 3296,
      "martin": 3297,
      "ricochet": 3298,
      "valley": 3299,
      "stolen": 3300,
      "complex": 3301,
      "doorstep": 3302,
      "probably": 3303,
      "unbelievable": 3304,
      "rabbit": 3305,
      "508": 3306,
      "7708": 3307,
      "808": 3308,
      "908": 3309,
      "av": 3310,
      "bon": 3311,
      "bear": 3312,
      "dom": 3313,
      "due": 3314,
      "ft": 3315,
      "fak": 3316,
      "flor": 3317,
      "ger": 3318,
      "gay": 3319,
      "gate": 3320,
      "hind": 3321,
      "hot": 3322,
      "icy": 3323,
      "ja": 3324,
      "kent": 3325,
      "luck": 3326,
      "lump": 3327,
      "mn": 3328,
      "muse": 3329,
      "mass": 3330,
      "nj": 3331,
      "psy": 3332,
      "public": 3333,
      "sid": 3334,
      "sell": 3335,
      "serve": 3336,
      "tx": 3337,
      "tune": 3338,
      "tying": 3339,
      "tsw": 3340,
      "tamp": 3341,
      "vint": 3342,
      "wore": 3343,
      "wand": 3344,
      "##min": 3345,
      "##may": 3346,
      "##mont": 3347,
      "##ples": 3348,
      "##pro": 3349,
      "##ax": 3350,
      "##aad": 3351,
      "##ired": 3352,
      "##eg": 3353,
      "##ym": 3354,
      "##yy": 3355,
      "##damn": 3356,
      "##dney": 3357,
      "##ler": 3358,
      "##lit": 3359,
      "##face": 3360,
      "##oved": 3361,
      "##cers": 3362,
      "##ccess": 3363,
      "##vice": 3364,
      "##he": 3365,
      "##hips": 3366,
      "##gl": 3367,
      "##gun": 3368,
      "##gile": 3369,
      "##sight": 3370,
      "##side": 3371,
      "##zona": 3372,
      "##wh": 3373,
      "##work": 3374,
      "##ko": 3375,
      "##408": 3376,
      "thr": 3377,
      "thе": 3378,
      "thro": 3379,
      "third": 3380,
      "youve": 3381,
      "##iny": 3382,
      "##ins": 3383,
      "##inted": 3384,
      "##ative": 3385,
      "tor": 3386,
      "tow": 3387,
      "toys": 3388,
      "##owing": 3389,
      "##enger": 3390,
      "means": 3391,
      "##each": 3392,
      "myth": 3393,
      "stad": 3394,
      "stuck": 3395,
      "stakes": 3396,
      "stuff": 3397,
      "lobby": 3398,
      "##aska": 3399,
      "##arter": 3400,
      "rey": 3401,
      "rece": 3402,
      "nebr": 3403,
      "neither": 3404,
      "isnt": 3405,
      "##usting": 3406,
      "cam": 3407,
      "ticket": 3408,
      "cannot": 3409,
      "##ried": 3410,
      "##ramatic": 3411,
      "ant": 3412,
      "##usett": 3413,
      "##ung": 3414,
      "seein": 3415,
      "everywhere": 3416,
      "alber": 3417,
      "onemay": 3418,
      "##ained": 3419,
      "downtown": 3420,
      "couldnt": 3421,
      "prey": 3422,
      "law": 3423,
      "swall": 3424,
      "reaching": 3425,
      "blur": 3426,
      "bleach": 3427,
      "spent": 3428,
      "sel": 3429,
      "seattle": 3430,
      "wax": 3431,
      "tellin": 3432,
      "oohooh": 3433,
      "##usion": 3434,
      "rob": 3435,
      "roots": 3436,
      "prote": 3437,
      "herd": 3438,
      "dean": 3439,
      "coast": 3440,
      "office": 3441,
      "moving": 3442,
      "##itely": 3443,
      "amen": 3444,
      "brown": 3445,
      "##arks": 3446,
      "##ially": 3447,
      "beloved": 3448,
      "holdin": 3449,
      "##ptions": 3450,
      "playground": 3451,
      "singer": 3452,
      "singap": 3453,
      "exist": 3454,
      "wont": 3455,
      "rainy": 3456,
      "pointed": 3457,
      "max": 3458,
      "strug": 3459,
      "headlong": 3460,
      "hasn": 3461,
      "const": 3462,
      "##ashion": 3463,
      "trace": 3464,
      "plastic": 3465,
      "younger": 3466,
      "doors": 3467,
      "fights": 3468,
      "##tsbur": 3469,
      "##osc": 3470,
      "winderm": 3471,
      "ski": 3472,
      "hardwood": 3473,
      "##roit": 3474,
      "glo": 3475,
      "glimp": 3476,
      "glaad": 3477,
      "##achusett": 3478,
      "highly": 3479,
      "twoj": 3480,
      "afterno": 3481,
      "firework": 3482,
      "tapping": 3483,
      "insp": 3484,
      "dada": 3485,
      "hurry": 3486,
      "magaz": 3487,
      "##iedz": 3488,
      "wars": 3489,
      "shines": 3490,
      "goddamn": 3491,
      "grand": 3492,
      "passenger": 3493,
      "##ortant": 3494,
      "##heets": 3495,
      "##iffer": 3496,
      "current": 3497,
      "illino": 3498,
      "success": 3499,
      "adela": 3500,
      "dropped": 3501,
      "edge": 3502,
      "edmont": 3503,
      "##iana": 3504,
      "##brella": 3505,
      "slowly": 3506,
      "sadness": 3507,
      "decide": 3508,
      "##many": 3509,
      "uma": 3510,
      "umbrella": 3511,
      "##ovember": 3512,
      "build": 3513,
      "surface": 3514,
      "##apolis": 3515,
      "blowing": 3516,
      "moonlight": 3517,
      "voices": 3518,
      "bandaid": 3519,
      "shotgun": 3520,
      "listening": 3521,
      "ridin": 3522,
      "important": 3523,
      "colorado": 3524,
      "business": 3525,
      "priv": 3526,
      "spending": 3527,
      "differently": 3528,
      "sett": 3529,
      "mamas": 3530,
      "childhood": 3531,
      "understands": 3532,
      "louisiana": 3533,
      "hunters": 3534,
      "confess": 3535,
      "confused": 3536,
      "miami": 3537,
      "river": 3538,
      "resist": 3539,
      "satis": 3540,
      "wasting": 3541,
      "romance": 3542,
      "melody": 3543,
      "ruthless": 3544,
      "candid": 3545,
      "candles": 3546,
      "double": 3547,
      "powiedz": 3548,
      "##coming": 3549,
      "defense": 3550,
      "sinking": 3551,
      "type": 3552,
      "stares": 3553,
      "detroit": 3554,
      "earl": 3555,
      "frames": 3556,
      "fragile": 3557,
      "fireflies": 3558,
      "echoed": 3559,
      "iii": 3560,
      "mattress": 3561,
      "sydney": 3562,
      "castle": 3563,
      "haahah": 3564,
      "classic": 3565,
      "bitterness": 3566,
      "ache": 3567,
      "mysterious": 3568,
      "clouds": 3569,
      "cloudy": 3570,
      "exciting": 3571,
      "romantic": 3572,
      "regret": 3573,
      "##ynie": 3574,
      "travell": 3575,
      "producers": 3576,
      "slept": 3577,
      "carrying": 3578,
      "priceless": 3579,
      "chasing": 3580,
      "colle": 3581,
      "flickering": 3582,
      "poets": 3583,
      "indianapolis": 3584,
      "jesus": 3585,
      "peaks": 3586,
      "thirteen": 3587,
      "bedsheets": 3588,
      "mystified": 3589,
      "stole": 3590,
      "misery": 3591,
      "creek": 3592,
      "grocer": 3593,
      "jersey": 3594,
      "linger": 3595,
      "peter": 3596,
      "pillow": 3597,
      "tpain": 3598,
      "amazing": 3599,
      "ahhahh": 3600,
      "sixteen": 3601,
      "tattoo": 3602,
      "arizona": 3603,
      "eras": 3604,
      "freckles": 3605,
      "omaha": 3606,
      "pittsbur": 3607,
      "babies": 3608,
      "frustrated": 3609,
      "cliffside": 3610,
      "overdramatic": 3611,
      "polaroids": 3612,
      "florida": 3613,
      "germany": 3614,
      "hindsight": 3615,
      "kentucky": 3616,
      "massachusett": 3617,
      "psycho": 3618,
      "tampa": 3619,
      "vintage": 3620,
      "throat": 3621,
      "stadium": 3622,
      "recei": 3623,
      "nebraska": 3624,
      "alberta": 3625,
      "swallowing": 3626,
      "singapore": 3627,
      "strugg": 3628,
      "windermere": 3629,
      "glimpse": 3630,
      "afternoon": 3631,
      "illinois": 3632,
      "adelaide": 3633,
      "edmonton": 3634,
      "bandaids": 3635,
      "pittsburgh": 3636,
      "massachusetts": 3637,
      "90s": 3638,
      "ais": 3639,
      "ayy": 3640,
      "bite": 3641,
      "base": 3642,
      "batt": 3643,
      "cer": 3644,
      "cong": 3645,
      "cash": 3646,
      "cour": 3647,
      "couch": 3648,
      "dry": 3649,
      "dice": 3650,
      "dire": 3651,
      "dign": 3652,
      "dzie": 3653,
      "ep": 3654,
      "eas": 3655,
      "eur": 3656,
      "equ": 3657,
      "este": 3658,
      "fashion": 3659,
      "gig": 3660,
      "gym": 3661,
      "hors": 3662,
      "hesaid": 3663,
      "hmm": 3664,
      "iis": 3665,
      "ivy": 3666,
      "jed": 3667,
      "jew": 3668,
      "jud": 3669,
      "las": 3670,
      "lana": 3671,
      "lunch": 3672,
      "mod": 3673,
      "mil": 3674,
      "makin": 3675,
      "mention": 3676,
      "nick": 3677,
      "nerv": 3678,
      "pir": 3679,
      "pra": 3680,
      "pier": 3681,
      "rent": 3682,
      "rhy": 3683,
      "san": 3684,
      "sen": 3685,
      "tal": 3686,
      "test": 3687,
      "tough": 3688,
      "tues": 3689,
      "ut": 3690,
      "vis": 3691,
      "var": 3692,
      "vac": 3693,
      "wy": 3694,
      "wszy": 3695,
      "zn": 3696,
      "##mos": 3697,
      "##pit": 3698,
      "##pical": 3699,
      "##post": 3700,
      "##aur": 3701,
      "##action": 3702,
      "##tw": 3703,
      "##time": 3704,
      "##do": 3705,
      "##der": 3706,
      "##list": 3707,
      "##love": 3708,
      "##faction": 3709,
      "##oy": 3710,
      "##ook": 3711,
      "##cl": 3712,
      "##cur": 3713,
      "##cie": 3714,
      "##cade": 3715,
      "##ckets": 3716,
      "##bs": 3717,
      "##bed": 3718,
      "##bane": 3719,
      "##hand": 3720,
      "##uc": 3721,
      "##ully": 3722,
      "##ups": 3723,
      "##sa": 3724,
      "##wa": 3725,
      "##wo": 3726,
      "##king": 3727,
      "##xe": 3728,
      "thri": 3729,
      "##ati": 3730,
      "##ators": 3731,
      "toy": 3732,
      "toler": 3733,
      "##owa": 3734,
      "##eare": 3735,
      "##met": 3736,
      "##stain": 3737,
      "##stem": 3738,
      "##stko": 3739,
      "##veland": 3740,
      "lit": 3741,
      "liar": 3742,
      "##veral": 3743,
      "##isbane": 3744,
      "stalk": 3745,
      "loaded": 3746,
      "soft": 3747,
      "bags": 3748,
      "shop": 3749,
      "shift": 3750,
      "ships": 3751,
      "request": 3752,
      "nev": 3753,
      "neon": 3754,
      "form": 3755,
      "wasnt": 3756,
      "##ched": 3757,
      "dog": 3758,
      "##ury": 3759,
      "lovely": 3760,
      "sac": 3761,
      "saved": 3762,
      "outta": 3763,
      "anth": 3764,
      "veil": 3765,
      "##icip": 3766,
      "chalk": 3767,
      "chim": 3768,
      "chose": 3769,
      "chos": 3770,
      "challen": 3771,
      "##aks": 3772,
      "oneway": 3773,
      "fame": 3774,
      "ash": 3775,
      "wanting": 3776,
      "##ently": 3777,
      "hears": 3778,
      "preced": 3779,
      "gettin": 3780,
      "sweep": 3781,
      "##estim": 3782,
      "blan": 3783,
      "##olute": 3784,
      "lettin": 3785,
      "spill": 3786,
      "sequ": 3787,
      "several": 3788,
      "clown": 3789,
      "##otland": 3790,
      "aroundcomes": 3791,
      "bond": 3792,
      "bother": 3793,
      "##uss": 3794,
      "roses": 3795,
      "anybody": 3796,
      "anytime": 3797,
      "##ished": 3798,
      "prop": 3799,
      "ourselves": 3800,
      "staying": 3801,
      "hood": 3802,
      "ages": 3803,
      "starting": 3804,
      "wishes": 3805,
      "cond": 3806,
      "cock": 3807,
      "cook": 3808,
      "scr": 3809,
      "scotland": 3810,
      "movin": 3811,
      "dreamer": 3812,
      "pair": 3813,
      "pacing": 3814,
      "flush": 3815,
      "lasted": 3816,
      "brisbane": 3817,
      "leavin": 3818,
      "runs": 3819,
      "tweet": 3820,
      "changes": 3821,
      "##ptide": 3822,
      "exes": 3823,
      "##cao": 3824,
      "lean": 3825,
      "levi": 3826,
      "fallout": 3827,
      "pockets": 3828,
      "maj": 3829,
      "wonderful": 3830,
      "drum": 3831,
      "arrow": 3832,
      "drives": 3833,
      "drivin": 3834,
      "cons": 3835,
      "showing": 3836,
      "trait": 3837,
      "believing": 3838,
      "sort": 3839,
      "underne": 3840,
      "underestim": 3841,
      "##osisz": 3842,
      "harm": 3843,
      "skirt": 3844,
      "laughed": 3845,
      "darkest": 3846,
      "reading": 3847,
      "relief": 3848,
      "momma": 3849,
      "glist": 3850,
      "bloodstain": 3851,
      "represent": 3852,
      "followed": 3853,
      "touching": 3854,
      "##ages": 3855,
      "wins": 3856,
      "winning": 3857,
      "emotion": 3858,
      "tables": 3859,
      "cheat": 3860,
      "cheers": 3861,
      "unf": 3862,
      "unless": 3863,
      "signal": 3864,
      "trip": 3865,
      "tricks": 3866,
      "gravity": 3867,
      "south": 3868,
      "passing": 3869,
      "writers": 3870,
      "brain": 3871,
      "dawn": 3872,
      "bedpost": 3873,
      "killed": 3874,
      "leading": 3875,
      "suit": 3876,
      "cleveland": 3877,
      "ideas": 3878,
      "jumped": 3879,
      "silent": 3880,
      "treat": 3881,
      "soundtra": 3882,
      "adm": 3883,
      "aware": 3884,
      "indiffer": 3885,
      "##bbed": 3886,
      "magical": 3887,
      "built": 3888,
      "choir": 3889,
      "choices": 3890,
      "##aws": 3891,
      "rolling": 3892,
      "heartbreakers": 3893,
      "peaceful": 3894,
      "create": 3895,
      "apartment": 3896,
      "setlist": 3897,
      "prayer": 3898,
      "praying": 3899,
      "instantly": 3900,
      "children": 3901,
      "louisville": 3902,
      "ribb": 3903,
      "riptide": 3904,
      "resp": 3905,
      "planning": 3906,
      "football": 3907,
      "films": 3908,
      "joy": 3909,
      "numbers": 3910,
      "champion": 3911,
      "defin": 3912,
      "typical": 3913,
      "disco": 3914,
      "##abies": 3915,
      "shades": 3916,
      "ahahah": 3917,
      "fits": 3918,
      "folks": 3919,
      "patience": 3920,
      "parade": 3921,
      "parking": 3922,
      "bottom": 3923,
      "cornered": 3924,
      "motown": 3925,
      "system": 3926,
      "apology": 3927,
      "billboard": 3928,
      "##like": 3929,
      "bleedin": 3930,
      "smiling": 3931,
      "opinions": 3932,
      "regrets": 3933,
      "casually": 3934,
      "wider": 3935,
      "ohhuh": 3936,
      "capture": 3937,
      "armor": 3938,
      "complicated": 3939,
      "jealousy": 3940,
      "infl": 3941,
      "diamonds": 3942,
      "lullabies": 3943,
      "susp": 3944,
      "temper": 3945,
      "sweater": 3946,
      "memorize": 3947,
      "health": 3948,
      "politics": 3949,
      "989": 3950,
      "return": 3951,
      "lifetime": 3952,
      "switched": 3953,
      "trophy": 3954,
      "deserved": 3955,
      "desperately": 3956,
      "electric": 3957,
      "civil": 3958,
      "camera": 3959,
      "absolute": 3960,
      "speech": 3961,
      "sexual": 3962,
      "celebrated": 3963,
      "fakers": 3964,
      "wander": 3965,
      "##proof": 3966,
      "mythical": 3967,
      "anticip": 3968,
      "protect": 3969,
      "skipping": 3970,
      "inspir": 3971,
      "settle": 3972,
      "satisfaction": 3973,
      "travelled": 3974,
      "ahhahhahh": 3975,
      "aisle": 3976,
      "battles": 3977,
      "dignity": 3978,
      "europe": 3979,
      "horses": 3980,
      "iisland": 3981,
      "jedynie": 3982,
      "judge": 3983,
      "nervous": 3984,
      "tuesday": 3985,
      "variation": 3986,
      "wszystko": 3987,
      "znosisz": 3988,
      "##pital": 3989,
      "tolerate": 3990,
      "chimney": 3991,
      "chosen": 3992,
      "underneath": 3993,
      "emotional": 3994,
      "soundtrack": 3995,
      "absolutely": 3996,
      "0608": 3997,
      "7008": 3998,
      "8808": 3999,
      "8408": 4000,
      "9808": 4001,
      "axe": 4002,
      "bе": 4003,
      "bow": 4004,
      "bes": 4005,
      "ben": 4006,
      "bore": 4007,
      "bass": 4008,
      "bird": 4009,
      "core": 4010,
      "cell": 4011,
      "cyn": 4012,
      "dent": 4013,
      "dive": 4014,
      "dating": 4015,
      "fan": 4016,
      "fri": 4017,
      "fem": 4018,
      "gł": 4019,
      "grou": 4020,
      "gend": 4021,
      "glor": 4022,
      "hes": 4023,
      "hust": 4024,
      "hom": 4025,
      "hill": 4026,
      "hips": 4027,
      "il": 4028,
      "ir": 4029,
      "ice": 4030,
      "jet": 4031,
      "jack": 4032,
      "jag": 4033,
      "ki": 4034,
      "kany": 4035,
      "md": 4036,
      "mic": 4037,
      "ment": 4038,
      "mix": 4039,
      "ni": 4040,
      "nar": 4041,
      "nic": 4042,
      "norm": 4043,
      "nines": 4044,
      "ori": 4045,
      "opt": 4046,
      "pen": 4047,
      "ped": 4048,
      "pas": 4049,
      "pink": 4050,
      "pure": 4051,
      "port": 4052,
      "pitch": 4053,
      "ry": 4054,
      "rope": 4055,
      "sir": 4056,
      "sire": 4057,
      "sied": 4058,
      "tn": 4059,
      "tis": 4060,
      "tux": 4061,
      "tiny": 4062,
      "ur": 4063,
      "vill": 4064,
      "vanc": 4065,
      "yach": 4066,
      "##mith": 4067,
      "##par": 4068,
      "##port": 4069,
      "##aby": 4070,
      "##ture": 4071,
      "##ił": 4072,
      "##nel": 4073,
      "##nter": 4074,
      "##number": 4075,
      "##neap": 4076,
      "##yond": 4077,
      "##dest": 4078,
      "##dies": 4079,
      "##dict": 4080,
      "##leep": 4081,
      "##lash": 4082,
      "##fic": 4083,
      "##first": 4084,
      "##fort": 4085,
      "##foot": 4086,
      "##rated": 4087,
      "##oad": 4088,
      "##cut": 4089,
      "##cip": 4090,
      "##vide": 4091,
      "##vive": 4092,
      "##ba": 4093,
      "##bow": 4094,
      "##bot": 4095,
      "##burn": 4096,
      "##hou": 4097,
      "##hear": 4098,
      "##hal": 4099,
      "##hany": 4100,
      "##under": 4101,
      "##gan": 4102,
      "##spital": 4103,
      "##zing": 4104,
      "##zle": 4105,
      "##wam": 4106,
      "##word": 4107,
      "##00": 4108,
      "##kn": 4109,
      "##kah": 4110,
      "##еn": 4111,
      "##еr": 4112,
      "##ouver": 4113,
      "thug": 4114,
      "##ining": 4115,
      "##erg": 4116,
      "##erati": 4117,
      "##ndy": 4118,
      "##aton": 4119,
      "tore": 4120,
      "##ret": 4121,
      "##rec": 4122,
      "##eared": 4123,
      "##eaming": 4124,
      "##stage": 4125,
      "beyond": 4126,
      "##eds": 4127,
      "inse": 4128,
      "incon": 4129,
      "##thear": 4130,
      "online": 4131,
      "lift": 4132,
      "##key": 4133,
      "sta": 4134,
      "sting": 4135,
      "store": 4136,
      "steel": 4137,
      "loss": 4138,
      "soak": 4139,
      "social": 4140,
      "##eeyed": 4141,
      "wendy": 4142,
      "##ids": 4143,
      "##ider": 4144,
      "haul": 4145,
      "knives": 4146,
      "##ete": 4147,
      "shy": 4148,
      "shout": 4149,
      "shakin": 4150,
      "rebe": 4151,
      "rehear": 4152,
      "neigh": 4153,
      "butter": 4154,
      "nos": 4155,
      "noose": 4156,
      "noise": 4157,
      "nothin": 4158,
      "wire": 4159,
      "wife": 4160,
      "wicked": 4161,
      "cafe": 4162,
      "cages": 4163,
      "tires": 4164,
      "doc": 4165,
      "##adise": 4166,
      "##adena": 4167,
      "whatif": 4168,
      "sabot": 4169,
      "##rous": 4170,
      "outnumber": 4171,
      "##tte": 4172,
      "backup": 4173,
      "##icit": 4174,
      "##icious": 4175,
      "##nasty": 4176,
      "everythin": 4177,
      "cher": 4178,
      "##aken": 4179,
      "plus": 4180,
      "##ify": 4181,
      "faces": 4182,
      "aside": 4183,
      "asleep": 4184,
      "##entation": 4185,
      "##entions": 4186,
      "didnt": 4187,
      "ability": 4188,
      "laid": 4189,
      "##estine": 4190,
      "##illy": 4191,
      "bluff": 4192,
      "##ella": 4193,
      "lets": 4194,
      "##andestine": 4195,
      "spring": 4196,
      "##ateboard": 4197,
      "rights": 4198,
      "clut": 4199,
      "click": 4200,
      "clip": 4201,
      "clock": 4202,
      "clues": 4203,
      "claws": 4204,
      "clandestine": 4205,
      "willing": 4206,
      "shoulders": 4207,
      "madness": 4208,
      "##elines": 4209,
      "hadid": 4210,
      "##ulations": 4211,
      "boots": 4212,
      "roaring": 4213,
      "comfort": 4214,
      "##umptions": 4215,
      "girlfriend": 4216,
      "prog": 4217,
      "##ssib": 4218,
      "hoax": 4219,
      "hospital": 4220,
      "##igion": 4221,
      "handful": 4222,
      "swifts": 4223,
      "agree": 4224,
      "longest": 4225,
      "callin": 4226,
      "homeland": 4227,
      "starring": 4228,
      "dem": 4229,
      "moje": 4230,
      "mosa": 4231,
      "smart": 4232,
      "smarter": 4233,
      "dreamt": 4234,
      "dreamland": 4235,
      "pages": 4236,
      "breakup": 4237,
      "breakable": 4238,
      "flame": 4239,
      "britt": 4240,
      "broad": 4241,
      "traded": 4242,
      "crumb": 4243,
      "crook": 4244,
      "newer": 4245,
      "cara": 4246,
      "cards": 4247,
      "slick": 4248,
      "slip": 4249,
      "twin": 4250,
      "endings": 4251,
      "##pts": 4252,
      "thanks": 4253,
      "standard": 4254,
      "exit": 4255,
      "extra": 4256,
      "exlove": 4257,
      "##cap": 4258,
      "lem": 4259,
      "rainbow": 4260,
      "forevermore": 4261,
      "poke": 4262,
      "poison": 4263,
      "possib": 4264,
      "watchin": 4265,
      "wondered": 4266,
      "headfirst": 4267,
      "mission": 4268,
      "argue": 4269,
      "theirs": 4270,
      "worlds": 4271,
      "conne": 4272,
      "cracks": 4273,
      "travel": 4274,
      "tracks": 4275,
      "stret": 4276,
      "forgive": 4277,
      "nasty": 4278,
      "affect": 4279,
      "kissin": 4280,
      "kisses": 4281,
      "##ization": 4282,
      "##izzle": 4283,
      "doorway": 4284,
      "##osition": 4285,
      "winds": 4286,
      "dances": 4287,
      "greens": 4288,
      "skateboard": 4289,
      "rooms": 4290,
      "##ighs": 4291,
      "##sha": 4292,
      "religion": 4293,
      "gleaming": 4294,
      "winner": 4295,
      "emily": 4296,
      "tails": 4297,
      "daddies": 4298,
      "mary": 4299,
      "marsha": 4300,
      "counted": 4301,
      "countdown": 4302,
      "warn": 4303,
      "helmet": 4304,
      "cheats": 4305,
      "chevy": 4306,
      "steppin": 4307,
      "pretended": 4308,
      "unp": 4309,
      "uni": 4310,
      "heavy": 4311,
      "trick": 4312,
      "##iphany": 4313,
      "reputations": 4314,
      "gramm": 4315,
      "gracie": 4316,
      "passion": 4317,
      "monster": 4318,
      "snl": 4319,
      "snuck": 4320,
      "grows": 4321,
      "curve": 4322,
      "curse": 4323,
      "curtain": 4324,
      "pulling": 4325,
      "illicit": 4326,
      "morris": 4327,
      "##ression": 4328,
      "floors": 4329,
      "acting": 4330,
      "race": 4331,
      "rage": 4332,
      "blackburn": 4333,
      "drawn": 4334,
      "dramatic": 4335,
      "mmh": 4336,
      "barn": 4337,
      "barging": 4338,
      "deeply": 4339,
      "award": 4340,
      "flashing": 4341,
      "drops": 4342,
      "educ": 4343,
      "trusts": 4344,
      "trusted": 4345,
      "figment": 4346,
      "stripped": 4347,
      "strikes": 4348,
      "worthwh": 4349,
      "appro": 4350,
      "##rope": 4351,
      "whiskey": 4352,
      "diego": 4353,
      "crossing": 4354,
      "crossed": 4355,
      "buying": 4356,
      "minneap": 4357,
      "surround": 4358,
      "survive": 4359,
      "remarks": 4360,
      "pageant": 4361,
      "begins": 4362,
      "vocal": 4363,
      "range": 4364,
      "problem": 4365,
      "crept": 4366,
      "marked": 4367,
      "faithless": 4368,
      "fades": 4369,
      "teraz": 4370,
      "##ennial": 4371,
      "assumptions": 4372,
      "##heeheeheehee": 4373,
      "hangs": 4374,
      "prize": 4375,
      "restaur": 4376,
      "##boro": 4377,
      "sales": 4378,
      "ruined": 4379,
      "hunt": 4380,
      "ruled": 4381,
      "seats": 4382,
      "flaws": 4383,
      "imagin": 4384,
      "espe": 4385,
      "quickly": 4386,
      "movies": 4387,
      "payback": 4388,
      "tightrope": 4389,
      "terrif": 4390,
      "couples": 4391,
      "register": 4392,
      "attack": 4393,
      "chicken": 4394,
      "marrying": 4395,
      "genre": 4396,
      "sinks": 4397,
      "sinkin": 4398,
      "foxes": 4399,
      "frame": 4400,
      "crawl": 4401,
      "promised": 4402,
      "patient": 4403,
      "patrze": 4404,
      "paradise": 4405,
      "tele": 4406,
      "disappo": 4407,
      "009": 4408,
      "basically": 4409,
      "denim": 4410,
      "histor": 4411,
      "service": 4412,
      "##nesday": 4413,
      "locked": 4414,
      "charming": 4415,
      "swinging": 4416,
      "drowned": 4417,
      "bills": 4418,
      "value": 4419,
      "values": 4420,
      "wounds": 4421,
      "wounded": 4422,
      "intentions": 4423,
      "achie": 4424,
      "diner": 4425,
      "filling": 4426,
      "landover": 4427,
      "expecting": 4428,
      "uhuhuh": 4429,
      "address": 4430,
      "traveled": 4431,
      "seasons": 4432,
      "producer": 4433,
      "cascade": 4434,
      "circ": 4435,
      "circus": 4436,
      "eighty": 4437,
      "wideeyed": 4438,
      "captiv": 4439,
      "affairs": 4440,
      "relationship": 4441,
      "bury": 4442,
      "human": 4443,
      "snakes": 4444,
      "wednesday": 4445,
      "medal": 4446,
      "chasin": 4447,
      "bathroom": 4448,
      "dyin": 4449,
      "dynasty": 4450,
      "lullaby": 4451,
      "maserati": 4452,
      "pining": 4453,
      "rudely": 4454,
      "suspect": 4455,
      "sensual": 4456,
      "squee": 4457,
      "swept": 4458,
      "sweatshirt": 4459,
      "ignore": 4460,
      "ignored": 4461,
      "centennial": 4462,
      "purple": 4463,
      "bells": 4464,
      "issue": 4465,
      "issues": 4466,
      "transition": 4467,
      "dangerous": 4468,
      "perfume": 4469,
      "criticized": 4470,
      "criticism": 4471,
      "natural": 4472,
      "naturally": 4473,
      "bricks": 4474,
      "furious": 4475,
      "michigan": 4476,
      "##eroom": 4477,
      "presents": 4478,
      "swimming": 4479,
      "moja": 4480,
      "raised": 4481,
      "reflect": 4482,
      "shooting": 4483,
      "destroy": 4484,
      "avoid": 4485,
      "sidelines": 4486,
      "thrown": 4487,
      "torture": 4488,
      "towards": 4489,
      "bleachers": 4490,
      "robber": 4491,
      "constantly": 4492,
      "candidate": 4493,
      "earlier": 4494,
      "grocery": 4495,
      "erased": 4496,
      "baseball": 4497,
      "certain": 4498,
      "epiphany": 4499,
      "easier": 4500,
      "gigi": 4501,
      "rhyme": 4502,
      "senate": 4503,
      "sacred": 4504,
      "anthem": 4505,
      "challenge": 4506,
      "precedes": 4507,
      "spilled": 4508,
      "sequin": 4509,
      "clowns": 4510,
      "cookies": 4511,
      "scratch": 4512,
      "underestimated": 4513,
      "glisten": 4514,
      "indifference": 4515,
      "ribbon": 4516,
      "definitely": 4517,
      "influ": 4518,
      "suspicious": 4519,
      "beside": 4520,
      "female": 4521,
      "gender": 4522,
      "homeroom": 4523,
      "kanye": 4524,
      "nikes": 4525,
      "normal": 4526,
      "optim": 4527,
      "pasadena": 4528,
      "ryan": 4529,
      "sirens": 4530,
      "siedze": 4531,
      "vancouver": 4532,
      "yacht": 4533,
      "inconven": 4534,
      "rebekah": 4535,
      "neighbor": 4536,
      "butterf": 4537,
      "whatifs": 4538,
      "sabotage": 4539,
      "outnumbered": 4540,
      "brittle": 4541,
      "greensboro": 4542,
      "worthwhile": 4543,
      "minneapolis": 4544,
      "restaurant": 4545,
      "008": 4546,
      "0year": 4547,
      "az": 4548,
      "ale": 4549,
      "bom": 4550,
      "bump": 4551,
      "baton": 4552,
      "ci": 4553,
      "cy": 4554,
      "cor": 4555,
      "cop": 4556,
      "cze": 4557,
      "cats": 4558,
      "cities": 4559,
      "cups": 4560,
      "dw": 4561,
      "dak": 4562,
      "dig": 4563,
      "dash": 4564,
      "dall": 4565,
      "dag": 4566,
      "ditch": 4567,
      "drought": 4568,
      "dates": 4569,
      "derm": 4570,
      "eat": 4571,
      "est": 4572,
      "era": 4573,
      "eff": 4574,
      "event": 4575,
      "either": 4576,
      "fe": 4577,
      "fir": 4578,
      "fel": 4579,
      "fish": 4580,
      "fath": 4581,
      "faking": 4582,
      "fence": 4583,
      "fought": 4584,
      "fences": 4585,
      "fero": 4586,
      "grie": 4587,
      "gates": 4588,
      "hi": 4589,
      "hus": 4590,
      "iver": 4591,
      "iowa": 4592,
      "jon": 4593,
      "jest": 4594,
      "jim": 4595,
      "jour": 4596,
      "jac": 4597,
      "jail": 4598,
      "jamil": 4599,
      "kl": 4600,
      "ken": 4601,
      "kar": 4602,
      "kale": 4603,
      "khal": 4604,
      "led": 4605,
      "lenn": 4606,
      "mud": 4607,
      "mont": 4608,
      "mates": 4609,
      "nin": 4610,
      "nak": 4611,
      "nie": 4612,
      "nine": 4613,
      "nia": 4614,
      "nerve": 4615,
      "oil": 4616,
      "opp": 4617,
      "otta": 4618,
      "pan": 4619,
      "pad": 4620,
      "pun": 4621,
      "pot": 4622,
      "pane": 4623,
      "para": 4624,
      "rh": 4625,
      "rou": 4626,
      "row": 4627,
      "rif": 4628,
      "rip": 4629,
      "rich": 4630,
      "sess": 4631,
      "sig": 4632,
      "sang": 4633,
      "seas": 4634,
      "tun": 4635,
      "tame": 4636,
      "ul": 4637,
      "vin": 4638,
      "van": 4639,
      "vain": 4640,
      "vict": 4641,
      "wre": 4642,
      "wakes": 4643,
      "weap": 4644,
      "xc": 4645,
      "zw": 4646,
      "zro": 4647,
      "##mind": 4648,
      "##pink": 4649,
      "##pie": 4650,
      "##phere": 4651,
      "##pression": 4652,
      "##agh": 4653,
      "##aster": 4654,
      "##ty": 4655,
      "##tre": 4656,
      "##ii": 4657,
      "##iately": 4658,
      "##iences": 4659,
      "##nie": 4660,
      "##yeah": 4661,
      "##de": 4662,
      "##dam": 4663,
      "##dles": 4664,
      "##ls": 4665,
      "##lin": 4666,
      "##lan": 4667,
      "##lore": 4668,
      "##lie": 4669,
      "##lish": 4670,
      "##lined": 4671,
      "##fit": 4672,
      "##fall": 4673,
      "##fork": 4674,
      "##fully": 4675,
      "##rat": 4676,
      "##rid": 4677,
      "##obe": 4678,
      "##oise": 4679,
      "##off": 4680,
      "##otten": 4681,
      "##can": 4682,
      "##cri": 4683,
      "##cism": 4684,
      "##cially": 4685,
      "##vest": 4686,
      "##view": 4687,
      "##ban": 4688,
      "##bir": 4689,
      "##bal": 4690,
      "##bone": 4691,
      "##brow": 4692,
      "##hies": 4693,
      "##hour": 4694,
      "##hlan": 4695,
      "##uim": 4696,
      "##uct": 4697,
      "##uation": 4698,
      "##uable": 4699,
      "##uars": 4700,
      "##gow": 4701,
      "##gate": 4702,
      "##gers": 4703,
      "##gged": 4704,
      "##see": 4705,
      "##sion": 4706,
      "##zo": 4707,
      "##zw": 4708,
      "##zes": 4709,
      "##who": 4710,
      "##kin": 4711,
      "##łosc": 4712,
      "##xic": 4713,
      "##xington": 4714,
      "##xpression": 4715,
      "##june": 4716,
      "##joy": 4717,
      "##еs": 4718,
      "##oun": 4719,
      "thy": 4720,
      "thirst": 4721,
      "thorn": 4722,
      "thunder": 4723,
      "##inna": 4724,
      "##ered": 4725,
      "##ndrous": 4726,
      "##ndsee": 4727,
      "##ata": 4728,
      "##onovember": 4729,
      "##real": 4730,
      "##owed": 4731,
      "##owie": 4732,
      "##anation": 4733,
      "##anches": 4734,
      "##ese": 4735,
      "##esh": 4736,
      "##ency": 4737,
      "##ormed": 4738,
      "##eandsee": 4739,
      "##mez": 4740,
      "##mely": 4741,
      "##sters": 4742,
      "##storm": 4743,
      "bee": 4744,
      "bend": 4745,
      "beck": 4746,
      "becomes": 4747,
      "becoming": 4748,
      "##edly": 4749,
      "##tha": 4750,
      "onstage": 4751,
      "lim": 4752,
      "lily": 4753,
      "liqu": 4754,
      "liars": 4755,
      "myle": 4756,
      "##isy": 4757,
      "##isin": 4758,
      "##ises": 4759,
      "stall": 4760,
      "stations": 4761,
      "loose": 4762,
      "locket": 4763,
      "soc": 4764,
      "sold": 4765,
      "##asz": 4766,
      "##asgow": 4767,
      "weight": 4768,
      "##seat": 4769,
      "goss": 4770,
      "gomez": 4771,
      "##idosc": 4772,
      "haha": 4773,
      "haux": 4774,
      "##ets": 4775,
      "shes": 4776,
      "shut": 4777,
      "shock": 4778,
      "sharing": 4779,
      "repe": 4780,
      "revel": 4781,
      "##leving": 4782,
      "##leigh": 4783,
      "##legged": 4784,
      "nether": 4785,
      "allowed": 4786,
      "nose": 4787,
      "wiem": 4788,
      "isol": 4789,
      "likely": 4790,
      "ohwho": 4791,
      "cap": 4792,
      "tie": 4793,
      "##ads": 4794,
      "##ades": 4795,
      "##ural": 4796,
      "##urring": 4797,
      "lovebir": 4798,
      "waneg": 4799,
      "##rified": 4800,
      "sam": 4801,
      "sand": 4802,
      "savi": 4803,
      "##ram": 4804,
      "##ract": 4805,
      "upd": 4806,
      "somethin": 4807,
      "ate": 4808,
      "atmos": 4809,
      "##inkling": 4810,
      "anx": 4811,
      "backy": 4812,
      "backro": 4813,
      "backseat": 4814,
      "##unic": 4815,
      "##unity": 4816,
      "##icy": 4817,
      "##ample": 4818,
      "chess": 4819,
      "chap": 4820,
      "chara": 4821,
      "theyve": 4822,
      "##ops": 4823,
      "##opping": 4824,
      "plain": 4825,
      "notes": 4826,
      "notch": 4827,
      "##ential": 4828,
      "hearing": 4829,
      "prep": 4830,
      "precip": 4831,
      "usual": 4832,
      "abig": 4833,
      "absent": 4834,
      "landing": 4835,
      "sworn": 4836,
      "sword": 4837,
      "swords": 4838,
      "##estal": 4839,
      "blo": 4840,
      "blake": 4841,
      "##elle": 4842,
      "##immer": 4843,
      "##gend": 4844,
      "eyel": 4845,
      "sem": 4846,
      "separ": 4847,
      "waste": 4848,
      "nightstand": 4849,
      "##fexpression": 4850,
      "cla": 4851,
      "cling": 4852,
      "yeahyeah": 4853,
      "##ular": 4854,
      "rovers": 4855,
      "comment": 4856,
      "comments": 4857,
      "##ila": 4858,
      "##umes": 4859,
      "##umble": 4860,
      "przy": 4861,
      "orange": 4862,
      "order": 4863,
      "organ": 4864,
      "##tern": 4865,
      "##tertain": 4866,
      "stayin": 4867,
      "mansion": 4868,
      "goodnight": 4869,
      "handle": 4870,
      "longer": 4871,
      "starlit": 4872,
      "deleving": 4873,
      "coats": 4874,
      "coaster": 4875,
      "byc": 4876,
      "wondrous": 4877,
      "scare": 4878,
      "scoot": 4879,
      "moines": 4880,
      "smoking": 4881,
      "##ilege": 4882,
      "dreamin": 4883,
      "pale": 4884,
      "pace": 4885,
      "pause": 4886,
      "papers": 4887,
      "amster": 4888,
      "bru": 4889,
      "brush": 4890,
      "brings": 4891,
      "branches": 4892,
      "ohohahh": 4893,
      "carve": 4894,
      "carly": 4895,
      "energ": 4896,
      "enjoy": 4897,
      "entertain": 4898,
      "twonovember": 4899,
      "##ahoh": 4900,
      "finds": 4901,
      "changin": 4902,
      "playful": 4903,
      "sings": 4904,
      "extre": 4905,
      "example": 4906,
      "level": 4907,
      "lexington": 4908,
      "legend": 4909,
      "immed": 4910,
      "raining": 4911,
      "rained": 4912,
      "rainstorm": 4913,
      "male": 4914,
      "maren": 4915,
      "struck": 4916,
      "heads": 4917,
      "missile": 4918,
      "##bec": 4919,
      "##antom": 4920,
      "pecul": 4921,
      "dried": 4922,
      "constr": 4923,
      "showdown": 4924,
      "friendships": 4925,
      "forgotten": 4926,
      "nap": 4927,
      "naive": 4928,
      "nails": 4929,
      "phones": 4930,
      "phantom": 4931,
      "reality": 4932,
      "sorrow": 4933,
      "meeting": 4934,
      "##osmith": 4935,
      "harbor": 4936,
      "greater": 4937,
      "dreamscap": 4938,
      "laughs": 4939,
      "darkness": 4940,
      "flyin": 4941,
      "meaning": 4942,
      "dresses": 4943,
      "elba": 4944,
      "eloise": 4945,
      "##shesaid": 4946,
      "##lands": 4947,
      "glasgow": 4948,
      "stops": 4949,
      "stopping": 4950,
      "painting": 4951,
      "followers": 4952,
      "feelings": 4953,
      "highway": 4954,
      "highgate": 4955,
      "opens": 4956,
      "##aged": 4957,
      "##agram": 4958,
      "##nedy": 4959,
      "sweethear": 4960,
      "proved": 4961,
      "fargo": 4962,
      "situation": 4963,
      "aftergl": 4964,
      "tab": 4965,
      "insur": 4966,
      "posted": 4967,
      "married": 4968,
      "martha": 4969,
      "county": 4970,
      "counts": 4971,
      "darlin": 4972,
      "cheer": 4973,
      "accept": 4974,
      "messy": 4975,
      "messages": 4976,
      "unl": 4977,
      "unres": 4978,
      "united": 4979,
      "unkn": 4980,
      "##pled": 4981,
      "trial": 4982,
      "helping": 4983,
      "helped": 4984,
      "grave": 4985,
      "career": 4986,
      "delusion": 4987,
      "clearly": 4988,
      "brag": 4989,
      "snake": 4990,
      "##intments": 4991,
      "##ensive": 4992,
      "##ortunity": 4993,
      "daw": 4994,
      "final": 4995,
      "freezing": 4996,
      "##iety": 4997,
      "kills": 4998,
      "floats": 4999,
      "rap": 5000,
      "racism": 5001,
      "raleigh": 5002,
      "sometime": 5003,
      "clever": 5004,
      "descri": 5005,
      "idris": 5006,
      "tren": 5007,
      "##phone": 5008,
      "##nyard": 5009,
      "barbed": 5010,
      "barnyard": 5011,
      "disg": 5012,
      "deepest": 5013,
      "advent": 5014,
      "awards": 5015,
      "surely": 5016,
      "cries": 5017,
      "##ianovember": 5018,
      "slows": 5019,
      "lyrical": 5020,
      "heavens": 5021,
      "heavenly": 5022,
      "kidding": 5023,
      "##box": 5024,
      "decor": 5025,
      "##uba": 5026,
      "refren": 5027,
      "albums": 5028,
      "americana": 5029,
      "quebec": 5030,
      "takin": 5031,
      "crosslegged": 5032,
      "kehlan": 5033,
      "survi": 5034,
      "louder": 5035,
      "gardens": 5036,
      "blowin": 5037,
      "roller": 5038,
      "voc": 5039,
      "greener": 5040,
      "difference": 5041,
      "intertw": 5042,
      "crew": 5043,
      "created": 5044,
      "creators": 5045,
      "creaks": 5046,
      "complete": 5047,
      "##pective": 5048,
      "divor": 5049,
      "diaries": 5050,
      "divide": 5051,
      "riddles": 5052,
      "polite": 5053,
      "restore": 5054,
      "##sweet": 5055,
      "johan": 5056,
      "perspective": 5057,
      "sneaking": 5058,
      "recorder": 5059,
      "mmmm": 5060,
      "instagram": 5061,
      "julia": 5062,
      "angelina": 5063,
      "miłosc": 5064,
      "ripped": 5065,
      "johnson": 5066,
      "distant": 5067,
      "lower": 5068,
      "pushing": 5069,
      "storming": 5070,
      "shoe": 5071,
      "specul": 5072,
      "job": 5073,
      "join": 5074,
      "superfic": 5075,
      "##lotte": 5076,
      "foolish": 5077,
      "personal": 5078,
      "counter": 5079,
      "powinna": 5080,
      "##comm": 5081,
      "knocks": 5082,
      "knockout": 5083,
      "attention": 5084,
      "compar": 5085,
      "defined": 5086,
      "fifty": 5087,
      "thread": 5088,
      "innov": 5089,
      "##ette": 5090,
      "##etty": 5091,
      "cruisin": 5092,
      "horan": 5093,
      "##erfold": 5094,
      "baller": 5095,
      "books": 5096,
      "oceanianovember": 5097,
      "patron": 5098,
      "balance": 5099,
      "screamed": 5100,
      "surprises": 5101,
      "twentyyear": 5102,
      "cowrit": 5103,
      "sym": 5104,
      "serving": 5105,
      "serious": 5106,
      "washed": 5107,
      "charli": 5108,
      "charlotte": 5109,
      "selfp": 5110,
      "cursed": 5111,
      "drawing": 5112,
      "valuable": 5113,
      "blocks": 5114,
      "bittersweet": 5115,
      "bleeding": 5116,
      "dusty": 5117,
      "hideandsee": 5118,
      "search": 5119,
      "facts": 5120,
      "explanation": 5121,
      "photo": 5122,
      "photos": 5123,
      "bulletproof": 5124,
      "japanese": 5125,
      "guns": 5126,
      "witness": 5127,
      "columbia": 5128,
      "autograph": 5129,
      "circle": 5130,
      "tossed": 5131,
      "british": 5132,
      "slipping": 5133,
      "complication": 5134,
      "complications": 5135,
      "folklore": 5136,
      "celebrow": 5137,
      "jakos": 5138,
      "snap": 5139,
      "snaps": 5140,
      "wedding": 5141,
      "media": 5142,
      "sticking": 5143,
      "crowns": 5144,
      "indiana": 5145,
      "weekends": 5146,
      "supportive": 5147,
      "obsessin": 5148,
      "obsessive": 5149,
      "proudly": 5150,
      "boundaries": 5151,
      "jesli": 5152,
      "pinned": 5153,
      "square": 5154,
      "mystical": 5155,
      "chains": 5156,
      "commit": 5157,
      "political": 5158,
      "miserable": 5159,
      "centerfold": 5160,
      "invest": 5161,
      "inviting": 5162,
      "lifetimes": 5163,
      "barefoot": 5164,
      "hollywood": 5165,
      "costumes": 5166,
      "trophies": 5167,
      "expired": 5168,
      "expensive": 5169,
      "experience": 5170,
      "stressin": 5171,
      "desperate": 5172,
      "obviously": 5173,
      "rodeo": 5174,
      "##ciously": 5175,
      "##atinum": 5176,
      "failing": 5177,
      "labels": 5178,
      "songwriter": 5179,
      "bossier": 5180,
      "raising": 5181,
      "photographs": 5182,
      "destroyed": 5183,
      "publicly": 5184,
      "tswift": 5185,
      "selena": 5186,
      "selfexpression": 5187,
      "gloves": 5188,
      "twojuly": 5189,
      "fireworks": 5190,
      "magazine": 5191,
      "magazines": 5192,
      "private": 5193,
      "privilege": 5194,
      "college": 5195,
      "struggles": 5196,
      "congrat": 5197,
      "course": 5198,
      "direct": 5199,
      "dzieje": 5200,
      "fashioned": 5201,
      "hesaidshesaid": 5202,
      "jewel": 5203,
      "milky": 5204,
      "utah": 5205,
      "##door": 5206,
      "thrill": 5207,
      "##earest": 5208,
      "nevada": 5209,
      "proposition": 5210,
      "condition": 5211,
      "leaned": 5212,
      "major": 5213,
      "traitors": 5214,
      "unfamiliar": 5215,
      "suitcase": 5216,
      "respons": 5217,
      "inspiration": 5218,
      "battleships": 5219,
      "europejune": 5220,
      "bench": 5221,
      "friction": 5222,
      "głowie": 5223,
      "irre": 5224,
      "jaguars": 5225,
      "nicer": 5226,
      "pedestal": 5227,
      "pitchfork": 5228,
      "urges": 5229,
      "insecur": 5230,
      "stabbed": 5231,
      "rehearse": 5232,
      "clutch": 5233,
      "progress": 5234,
      "demons": 5235,
      "mojej": 5236,
      "mosaic": 5237,
      "broadway": 5238,
      "crooked": 5239,
      "stretch": 5240,
      "affected": 5241,
      "univers": 5242,
      "grammys": 5243,
      "curtains": 5244,
      "surrounded": 5245,
      "especially": 5246,
      "patiently": 5247,
      "disappointments": 5248,
      "uhuhuhi": 5249,
      "captivated": 5250,
      "squeeze": 5251,
      "purplepink": 5252,
      "scratches": 5253,
      "optimism": 5254,
      "inconvenient": 5255,
      "butterflies": 5256,
      "copout": 5257,
      "dakota": 5258,
      "dallas": 5259,
      "dermot": 5260,
      "fishing": 5261,
      "fathers": 5262,
      "jacket": 5263,
      "kennedy": 5264,
      "kaleidosc": 5265,
      "montreal": 5266,
      "ninet": 5267,
      "niall": 5268,
      "opportunity": 5269,
      "ottawa": 5270,
      "rouge": 5271,
      "session": 5272,
      "wreath": 5273,
      "weapons": 5274,
      "xcx": 5275,
      "zrob": 5276,
      "##mindedly": 5277,
      "##uimos": 5278,
      "thorns": 5279,
      "liquor": 5280,
      "gossip": 5281,
      "netherlands": 5282,
      "lovebirds": 5283,
      "wanegbt": 5284,
      "saviour": 5285,
      "atmosphere": 5286,
      "backroads": 5287,
      "charact": 5288,
      "precipice": 5289,
      "abigail": 5290,
      "absentmindedly": 5291,
      "delevingne": 5292,
      "scooter": 5293,
      "amsterdam": 5294,
      "energy": 5295,
      "extremely": 5296,
      "immediately": 5297,
      "peculiar": 5298,
      "construimos": 5299,
      "dreamscapes": 5300,
      "sweetheart": 5301,
      "afterglow": 5302,
      "unresol": 5303,
      "unknown": 5304,
      "kehlani": 5305,
      "intertwined": 5306,
      "completely": 5307,
      "superficial": 5308,
      "hideandseek": 5309,
      "celebrowana": 5310,
      "congratulations": 5311,
      "pitchforks": 5312,
      "kaleidoscope": 5313,
      "09": 5314,
      "04": 5315,
      "07": 5316,
      "58": 5317,
      "5808": 5318,
      "5908": 5319,
      "5508": 5320,
      "6908": 5321,
      "6508": 5322,
      "6608": 5323,
      "75": 5324,
      "7808": 5325,
      "7608": 5326,
      "7408": 5327,
      "8008": 5328,
      "8508": 5329,
      "8708": 5330,
      "94": 5331,
      "9908": 5332,
      "9508": 5333,
      "ald": 5334,
      "aur": 5335,
      "auck": 5336,
      "aching": 5337,
      "bł": 5338,
      "ban": 5339,
      "bry": 5340,
      "bud": 5341,
      "bang": 5342,
      "bored": 5343,
      "bunch": 5344,
      "coney": 5345,
      "cult": 5346,
      "code": 5347,
      "cider": 5348,
      "du": 5349,
      "dur": 5350,
      "dal": 5351,
      "dam": 5352,
      "dum": 5353,
      "dier": 5354,
      "dated": 5355,
      "dix": 5356,
      "dyed": 5357,
      "dealing": 5358,
      "ell": 5359,
      "ech": 5360,
      "eul": 5361,
      "ess": 5362,
      "eag": 5363,
      "ease": 5364,
      "ecl": 5365,
      "eheeheeheehee": 5366,
      "fat": 5367,
      "fif": 5368,
      "fie": 5369,
      "file": 5370,
      "fever": 5371,
      "fountain": 5372,
      "fired": 5373,
      "fully": 5374,
      "fuss": 5375,
      "gd": 5376,
      "gas": 5377,
      "gar": 5378,
      "git": 5379,
      "gri": 5380,
      "gest": 5381,
      "gall": 5382,
      "gang": 5383,
      "gats": 5384,
      "hy": 5385,
      "hed": 5386,
      "hatch": 5387,
      "hans": 5388,
      "hire": 5389,
      "hip": 5390,
      "hated": 5391,
      "hats": 5392,
      "iron": 5393,
      "ju": 5394,
      "jin": 5395,
      "jeep": 5396,
      "jame": 5397,
      "jum": 5398,
      "jup": 5399,
      "jord": 5400,
      "jury": 5401,
      "ky": 5402,
      "kes": 5403,
      "kick": 5404,
      "lg": 5405,
      "lan": 5406,
      "lur": 5407,
      "lun": 5408,
      "lew": 5409,
      "lang": 5410,
      "latt": 5411,
      "lanc": 5412,
      "lany": 5413,
      "mr": 5414,
      "mu": 5415,
      "mе": 5416,
      "main": 5417,
      "mile": 5418,
      "mitt": 5419,
      "matin": 5420,
      "mural": 5421,
      "nz": 5422,
      "nе": 5423,
      "nes": 5424,
      "net": 5425,
      "nur": 5426,
      "nina": 5427,
      "nearest": 5428,
      "od": 5429,
      "ol": 5430,
      "os": 5431,
      "oath": 5432,
      "ought": 5433,
      "oli": 5434,
      "onda": 5435,
      "ogl": 5436,
      "pi": 5437,
      "ply": 5438,
      "patter": 5439,
      "punch": 5440,
      "petty": 5441,
      "ray": 5442,
      "rear": 5443,
      "rans": 5444,
      "raking": 5445,
      "rise": 5446,
      "ratt": 5447,
      "rub": 5448,
      "reel": 5449,
      "sz": 5450,
      "ske": 5451,
      "sway": 5452,
      "size": 5453,
      "tl": 5454,
      "tv": 5455,
      "tan": 5456,
      "ted": 5457,
      "tit": 5458,
      "tong": 5459,
      "tone": 5460,
      "tent": 5461,
      "tide": 5462,
      "tuck": 5463,
      "tease": 5464,
      "tup": 5465,
      "teen": 5466,
      "tank": 5467,
      "ugh": 5468,
      "uzy": 5469,
      "uzo": 5470,
      "vs": 5471,
      "ven": 5472,
      "vir": 5473,
      "vol": 5474,
      "vast": 5475,
      "vult": 5476,
      "wis": 5477,
      "wol": 5478,
      "weep": 5479,
      "wise": 5480,
      "wester": 5481,
      "waters": 5482,
      "yell": 5483,
      "yog": 5484,
      "za": 5485,
      "z9": 5486,
      "##mi": 5487,
      "##my": 5488,
      "##mount": 5489,
      "##mmer": 5490,
      "##mates": 5491,
      "##mpled": 5492,
      "##por": 5493,
      "##ply": 5494,
      "##pion": 5495,
      "##pting": 5496,
      "##present": 5497,
      "##peare": 5498,
      "##af": 5499,
      "##ald": 5500,
      "##ault": 5501,
      "##aels": 5502,
      "##acao": 5503,
      "##tune": 5504,
      "##iat": 5505,
      "##ior": 5506,
      "##iod": 5507,
      "##iate": 5508,
      "##iot": 5509,
      "##ians": 5510,
      "##iant": 5511,
      "##ios": 5512,
      "##ippin": 5513,
      "##ems": 5514,
      "##ehe": 5515,
      "##nin": 5516,
      "##nif": 5517,
      "##nons": 5518,
      "##you": 5519,
      "##yal": 5520,
      "##yok": 5521,
      "##des": 5522,
      "##low": 5523,
      "##lved": 5524,
      "##lud": 5525,
      "##lace": 5526,
      "##lines": 5527,
      "##lsey": 5528,
      "##for": 5529,
      "##fire": 5530,
      "##ffect": 5531,
      "##ford": 5532,
      "##fors": 5533,
      "##fast": 5534,
      "##fallen": 5535,
      "##fried": 5536,
      "##ru": 5537,
      "##rot": 5538,
      "##ruck": 5539,
      "##rity": 5540,
      "##rise": 5541,
      "##oc": 5542,
      "##ox": 5543,
      "##ole": 5544,
      "##ott": 5545,
      "##ooohooh": 5546,
      "##otty": 5547,
      "##oaks": 5548,
      "##cz": 5549,
      "##cе": 5550,
      "##cere": 5551,
      "##cee": 5552,
      "##ciss": 5553,
      "##cart": 5554,
      "##cence": 5555,
      "##cara": 5556,
      "##cense": 5557,
      "##cret": 5558,
      "##va": 5559,
      "##vid": 5560,
      "##vict": 5561,
      "##vator": 5562,
      "##vited": 5563,
      "##voc": 5564,
      "##bl": 5565,
      "##but": 5566,
      "##bid": 5567,
      "##bit": 5568,
      "##band": 5569,
      "##bling": 5570,
      "##bute": 5571,
      "##bition": 5572,
      "##bitt": 5573,
      "##han": 5574,
      "##hake": 5575,
      "##huh": 5576,
      "##ued": 5577,
      "##uage": 5578,
      "##ubb": 5579,
      "##gre": 5580,
      "##gen": 5581,
      "##get": 5582,
      "##git": 5583,
      "##gent": 5584,
      "##gies": 5585,
      "##grow": 5586,
      "##gained": 5587,
      "##sse": 5588,
      "##sure": 5589,
      "##well": 5590,
      "##wint": 5591,
      "##wreck": 5592,
      "##0908": 5593,
      "##ker": 5594,
      "##ken": 5595,
      "##kke": 5596,
      "##kam": 5597,
      "##kwint": 5598,
      "##ła": 5599,
      "##łe": 5600,
      "##łam": 5601,
      "##łami": 5602,
      "##5808": 5603,
      "##ja": 5604,
      "##jle": 5605,
      "##jszy": 5606,
      "##justing": 5607,
      "##jury": 5608,
      "##еd": 5609,
      "##6808": 5610,
      "##6008": 5611,
      "thie": 5612,
      "thigh": 5613,
      "thief": 5614,
      "youth": 5615,
      "##inis": 5616,
      "##intt": 5617,
      "##ints": 5618,
      "##incer": 5619,
      "##invited": 5620,
      "##ern": 5621,
      "##erade": 5622,
      "##nded": 5623,
      "##ndled": 5624,
      "##ndett": 5625,
      "##inge": 5626,
      "##inging": 5627,
      "##atives": 5628,
      "andre": 5629,
      "##ony": 5630,
      "##onade": 5631,
      "##llent": 5632,
      "tod": 5633,
      "tove": 5634,
      "toward": 5635,
      "toxic": 5636,
      "##reet": 5637,
      "##reate": 5638,
      "##rect": 5639,
      "##reds": 5640,
      "##retty": 5641,
      "##anis": 5642,
      "##ening": 5643,
      "##ened": 5644,
      "##encing": 5645,
      "##oras": 5646,
      "##oral": 5647,
      "##orman": 5648,
      "##orization": 5649,
      "##orpion": 5650,
      "##orrect": 5651,
      "meat": 5652,
      "mending": 5653,
      "##eable": 5654,
      "##eaze": 5655,
      "whom": 5656,
      "whim": 5657,
      "whist": 5658,
      "##medown": 5659,
      "##stal": 5660,
      "##state": 5661,
      "##stuck": 5662,
      "##stud": 5663,
      "##stopping": 5664,
      "##stfallen": 5665,
      "##street": 5666,
      "beer": 5667,
      "bets": 5668,
      "##edo": 5669,
      "ina": 5670,
      "invent": 5671,
      "injury": 5672,
      "##through": 5673,
      "##three": 5674,
      "lime": 5675,
      "lied": 5676,
      "lizz": 5677,
      "license": 5678,
      "##iska": 5679,
      "offending": 5680,
      "stom": 5681,
      "stain": 5682,
      "stead": 5683,
      "station": 5684,
      "stings": 5685,
      "stitch": 5686,
      "static": 5687,
      "stained": 5688,
      "stages": 5689,
      "stella": 5690,
      "stormed": 5691,
      "stumble": 5692,
      "loca": 5693,
      "local": 5694,
      "lovest": 5695,
      "loaf": 5696,
      "soy": 5697,
      "soho": 5698,
      "soph": 5699,
      "baking": 5700,
      "weeds": 5701,
      "##sell": 5702,
      "##seven": 5703,
      "goal": 5704,
      "gotten": 5705,
      "##idet": 5706,
      "hack": 5707,
      "halsey": 5708,
      "habit": 5709,
      "knee": 5710,
      "knuck": 5711,
      "##etic": 5712,
      "shr": 5713,
      "shar": 5714,
      "shakes": 5715,
      "shap": 5716,
      "shield": 5717,
      "shesaid": 5718,
      "sharks": 5719,
      "shimmer": 5720,
      "shreds": 5721,
      "##arian": 5722,
      "rever": 5723,
      "remo": 5724,
      "##leans": 5725,
      "##lement": 5726,
      "##cko": 5727,
      "##cking": 5728,
      "butt": 5729,
      "noss": 5730,
      "nova": 5731,
      "wives": 5732,
      "wister": 5733,
      "ford": 5734,
      "forming": 5735,
      "forcing": 5736,
      "fortune": 5737,
      "forbid": 5738,
      "ohso": 5739,
      "ohwo": 5740,
      "cad": 5741,
      "cake": 5742,
      "cage": 5743,
      "caus": 5744,
      "caval": 5745,
      "##ito": 5746,
      "##iter": 5747,
      "##ites": 5748,
      "##itous": 5749,
      "##itions": 5750,
      "##cepting": 5751,
      "##cellent": 5752,
      "tire": 5753,
      "ties": 5754,
      "ticking": 5755,
      "heat": 5756,
      "heir": 5757,
      "heist": 5758,
      "heath": 5759,
      "everpresent": 5760,
      "evergre": 5761,
      "cancer": 5762,
      "cannon": 5763,
      "cancao": 5764,
      "cannons": 5765,
      "##che": 5766,
      "##chy": 5767,
      "##chang": 5768,
      "##chem": 5769,
      "within": 5770,
      "##adam": 5771,
      "##adada": 5772,
      "##urt": 5773,
      "##urd": 5774,
      "##urity": 5775,
      "whatso": 5776,
      "##ries": 5777,
      "##riger": 5778,
      "##rimin": 5779,
      "##ribute": 5780,
      "sale": 5781,
      "sail": 5782,
      "saving": 5783,
      "saintt": 5784,
      "##rait": 5785,
      "##rage": 5786,
      "##raged": 5787,
      "##ravity": 5788,
      "outdoor": 5789,
      "outgrow": 5790,
      "outraged": 5791,
      "uplo": 5792,
      "upcoming": 5793,
      "someones": 5794,
      "##inkle": 5795,
      "anim": 5796,
      "anton": 5797,
      "annie": 5798,
      "therein": 5799,
      "##tting": 5800,
      "##ttime": 5801,
      "##ttiest": 5802,
      "background": 5803,
      "backlash": 5804,
      "##indul": 5805,
      "##indling": 5806,
      "vendett": 5807,
      "##unwa": 5808,
      "##iced": 5809,
      "##ication": 5810,
      "timeless": 5811,
      "seemed": 5812,
      "##aming": 5813,
      "##amitous": 5814,
      "##essed": 5815,
      "alph": 5816,
      "alma": 5817,
      "altar": 5818,
      "altern": 5819,
      "alanis": 5820,
      "choke": 5821,
      "chips": 5822,
      "chris": 5823,
      "cheap": 5824,
      "onehand": 5825,
      "one5808": 5826,
      "##rywam": 5827,
      "arena": 5828,
      "##oper": 5829,
      "##aining": 5830,
      "platinum": 5831,
      "lookin": 5832,
      "lookout": 5833,
      "shelf": 5834,
      "shelved": 5835,
      "downs": 5836,
      "noticed": 5837,
      "##ented": 5838,
      "##entially": 5839,
      "couldve": 5840,
      "pres": 5841,
      "press": 5842,
      "preacher": 5843,
      "preval": 5844,
      "predict": 5845,
      "prettiest": 5846,
      "ush": 5847,
      "lawn": 5848,
      "lapt": 5849,
      "laughter": 5850,
      "swind": 5851,
      "swam": 5852,
      "swings": 5853,
      "swiat": 5854,
      "reauth": 5855,
      "worn": 5856,
      "##estic": 5857,
      "##illes": 5858,
      "bled": 5859,
      "bleep": 5860,
      "blond": 5861,
      "blaz": 5862,
      "##ello": 5863,
      "##ellig": 5864,
      "##bert": 5865,
      "##olet": 5866,
      "fray": 5867,
      "frown": 5868,
      "friday": 5869,
      "dayold": 5870,
      "##ando": 5871,
      "bredes": 5872,
      "spr": 5873,
      "sphere": 5874,
      "splash": 5875,
      "spagh": 5876,
      "dreary": 5877,
      "sean": 5878,
      "sending": 5879,
      "selves": 5880,
      "waving": 5881,
      "feelin": 5882,
      "clones": 5883,
      "clap": 5884,
      "clung": 5885,
      "cloaks": 5886,
      "##thern": 5887,
      "shoulder": 5888,
      "0508": 5889,
      "however": 5890,
      "madrze": 5891,
      "maddest": 5892,
      "heartach": 5893,
      "heartstopping": 5894,
      "##elo": 5895,
      "##ula": 5896,
      "##ulars": 5897,
      "bold": 5898,
      "boost": 5899,
      "bobby": 5900,
      "oohwo": 5901,
      "##uses": 5902,
      "##usale": 5903,
      "tayla": 5904,
      "comr": 5905,
      "##iler": 5906,
      "##iled": 5907,
      "##ilar": 5908,
      "##ilities": 5909,
      "##iliation": 5910,
      "prose": 5911,
      "prison": 5912,
      "##ppet": 5913,
      "##ppled": 5914,
      "orleans": 5915,
      "##term": 5916,
      "lighting": 5917,
      "lightly": 5918,
      "stayho": 5919,
      "host": 5920,
      "##igo": 5921,
      "manip": 5922,
      "handled": 5923,
      "handwrit": 5924,
      "handmedown": 5925,
      "longing": 5926,
      "starin": 5927,
      "starry": 5928,
      "wishin": 5929,
      "wishful": 5930,
      "dej": 5931,
      "deed": 5932,
      "devin": 5933,
      "keepin": 5934,
      "##istication": 5935,
      "cooper": 5936,
      "bystreet": 5937,
      "##athing": 5938,
      "wool": 5939,
      "scen": 5940,
      "scorpion": 5941,
      "scathing": 5942,
      "##nte": 5943,
      "offer": 5944,
      "offic": 5945,
      "monday": 5946,
      "waitress": 5947,
      "breakin": 5948,
      "breakups": 5949,
      "breakfast": 5950,
      "breakthrough": 5951,
      "flies": 5952,
      "flings": 5953,
      "flung": 5954,
      "flesh": 5955,
      "lifeless": 5956,
      "##itect": 5957,
      "ambition": 5958,
      "brides": 5959,
      "bridet": 5960,
      "trash": 5961,
      "cringe": 5962,
      "caring": 5963,
      "himself": 5964,
      "friendly": 5965,
      "runnin": 5966,
      "##iach": 5967,
      "##ia0908": 5968,
      "foreign": 5969,
      "below": 5970,
      "thoughtful": 5971,
      "mindless": 5972,
      "mindtw": 5973,
      "slim": 5974,
      "slates": 5975,
      "sleaze": 5976,
      "twinkling": 5977,
      "##ounds": 5978,
      "changer": 5979,
      "##ptation": 5980,
      "playboy": 5981,
      "exman": 5982,
      "examp": 5983,
      "exha": 5984,
      "excellent": 5985,
      "exchang": 5986,
      "namedrop": 5987,
      "fond": 5988,
      "fosse": 5989,
      "leo": 5990,
      "evening": 5991,
      "fallen": 5992,
      "pond": 5993,
      "remembering": 5994,
      "mach": 5995,
      "maps": 5996,
      "małe": 5997,
      "wonders": 5998,
      "wonderin": 5999,
      "wonderment": 6000,
      "timing": 6001,
      "drove": 6002,
      "drzw": 6003,
      "headed": 6004,
      "aringing": 6005,
      "guest": 6006,
      "guilt": 6007,
      "hasnt": 6008,
      "beaches": 6009,
      "overnight": 6010,
      "overrated": 6011,
      "drivers": 6012,
      "puts": 6013,
      "conquest": 6014,
      "convict": 6015,
      "shows": 6016,
      "cracked": 6017,
      "trap": 6018,
      "trape": 6019,
      "trampled": 6020,
      "trailer": 6021,
      "begun": 6022,
      "beggin": 6023,
      "streak": 6024,
      "streng": 6025,
      "##uche": 6026,
      "najle": 6027,
      "perth": 6028,
      "perry": 6029,
      "perched": 6030,
      "period": 6031,
      "philly": 6032,
      "youngest": 6033,
      "burnt": 6034,
      "##alls": 6035,
      "believer": 6036,
      "realization": 6037,
      "boyish": 6038,
      "##psze": 6039,
      "##asses": 6040,
      "underlined": 6041,
      "understud": 6042,
      "##mson": 6043,
      "##osure": 6044,
      "hargit": 6045,
      "gap": 6046,
      "gauche": 6047,
      "handshake": 6048,
      "quit": 6049,
      "quarter": 6050,
      "breathed": 6051,
      "driveway": 6052,
      "greet": 6053,
      "comingof": 6054,
      "skip": 6055,
      "laughin": 6056,
      "darker": 6057,
      "sunny": 6058,
      "sunlit": 6059,
      "sunrise": 6060,
      "opal": 6061,
      "storyline": 6062,
      "dressing": 6063,
      "musicians": 6064,
      "##should": 6065,
      "hardly": 6066,
      "##roves": 6067,
      "memo": 6068,
      "mement": 6069,
      "kinds": 6070,
      "relate": 6071,
      "reluct": 6072,
      "midterm": 6073,
      "verdict": 6074,
      "##xture": 6075,
      "tearing": 6076,
      "closely": 6077,
      "closets": 6078,
      "gloss": 6079,
      "glance": 6080,
      "whoaahoh": 6081,
      "cryin": 6082,
      "##ogize": 6083,
      "touchin": 6084,
      "opening": 6085,
      "opened": 6086,
      "lykke": 6087,
      "twoje": 6088,
      "two6008": 6089,
      "##ording": 6090,
      "doesnt": 6091,
      "farby": 6092,
      "sits": 6093,
      "winless": 6094,
      "emb": 6095,
      "mccart": 6096,
      "tale": 6097,
      "troubling": 6098,
      "insult": 6099,
      "insincer": 6100,
      "forgets": 6101,
      "##easy": 6102,
      "wildfire": 6103,
      "posts": 6104,
      "hurd": 6105,
      "hurting": 6106,
      "march": 6107,
      "market": 6108,
      "mariska": 6109,
      "pickin": 6110,
      "magnif": 6111,
      "warned": 6112,
      "shiniest": 6113,
      "wallet": 6114,
      "cute": 6115,
      "cutting": 6116,
      "chem": 6117,
      "cooler": 6118,
      "steven": 6119,
      "stepping": 6120,
      "steering": 6121,
      "calcul": 6122,
      "calamitous": 6123,
      "acing": 6124,
      "accepting": 6125,
      "messing": 6126,
      "godfors": 6127,
      "unfair": 6128,
      "unsure": 6129,
      "uninvited": 6130,
      "unstuck": 6131,
      "##plet": 6132,
      "##place": 6133,
      "##plac": 6134,
      "##plify": 6135,
      "healing": 6136,
      "healed": 6137,
      "tripped": 6138,
      "trials": 6139,
      "trippin": 6140,
      "lovers": 6141,
      "pastry": 6142,
      "pastel": 6143,
      "graces": 6144,
      "grabbed": 6145,
      "southern": 6146,
      "##iera": 6147,
      "##elty": 6148,
      "delight": 6149,
      "passport": 6150,
      "password": 6151,
      "clearing": 6152,
      "writer": 6153,
      "braid": 6154,
      "braced": 6155,
      "braids": 6156,
      "monsters": 6157,
      "snide": 6158,
      "snotty": 6159,
      "##enses": 6160,
      "##ension": 6161,
      "##ortion": 6162,
      "scarf": 6163,
      "scarred": 6164,
      "middlecl": 6165,
      "dared": 6166,
      "daisy": 6167,
      "dappled": 6168,
      "uhhuh": 6169,
      "##heehe": 6170,
      "recent": 6171,
      "records": 6172,
      "recently": 6173,
      "recreate": 6174,
      "curves": 6175,
      "starszy": 6176,
      "wooden": 6177,
      "##ossessed": 6178,
      "americans": 6179,
      "freeze": 6180,
      "souls": 6181,
      "killer": 6182,
      "leader": 6183,
      "leaders": 6184,
      "##querade": 6185,
      "floating": 6186,
      "acts": 6187,
      "acted": 6188,
      "actual": 6189,
      "rae": 6190,
      "rape": 6191,
      "rapping": 6192,
      "raided": 6193,
      "hella": 6194,
      "decei": 6195,
      "desp": 6196,
      "desk": 6197,
      "desire": 6198,
      "design": 6199,
      "drastic": 6200,
      "ident": 6201,
      "idiot": 6202,
      "mma": 6203,
      "mistress": 6204,
      "mistaken": 6205,
      "teal": 6206,
      "grind": 6207,
      "grumb": 6208,
      "grunwa": 6209,
      "silver": 6210,
      "silhou": 6211,
      "##phones": 6212,
      "##nymi": 6213,
      "barren": 6214,
      "bargained": 6215,
      "##empts": 6216,
      "brighten": 6217,
      "deepfried": 6218,
      "sounded": 6219,
      "mostly": 6220,
      "adore": 6221,
      "advice": 6222,
      "aduba": 6223,
      "adjusting": 6224,
      "awful": 6225,
      "deadend": 6226,
      "##ysk": 6227,
      "##attered": 6228,
      "beaten": 6229,
      "flashes": 6230,
      "flashed": 6231,
      "trains": 6232,
      "trained": 6233,
      "crimson": 6234,
      "indis": 6235,
      "india": 6236,
      "indentation": 6237,
      "indigo": 6238,
      "##brei": 6239,
      "gives": 6240,
      "saddest": 6241,
      "magician": 6242,
      "floorbo": 6243,
      "decides": 6244,
      "decades": 6245,
      "wears": 6246,
      "throwback": 6247,
      "refuse": 6248,
      "refused": 6249,
      "refriger": 6250,
      "appear": 6251,
      "appease": 6252,
      "apprec": 6253,
      "appalls": 6254,
      "simply": 6255,
      "similar": 6256,
      "simplify": 6257,
      "takers": 6258,
      "##ropez": 6259,
      "fairly": 6260,
      "sickening": 6261,
      "##ancin": 6262,
      "crossword": 6263,
      "bully": 6264,
      "buzz": 6265,
      "bundled": 6266,
      "keyed": 6267,
      "bringing": 6268,
      "thankin": 6269,
      "drunken": 6270,
      "loudest": 6271,
      "threeyear": 6272,
      "shameless": 6273,
      "remote": 6274,
      "reminis": 6275,
      "fella": 6276,
      "contest": 6277,
      "contact": 6278,
      "contract": 6279,
      "##standing": 6280,
      "heartbreaks": 6281,
      "prints": 6282,
      "ranting": 6283,
      "interview": 6284,
      "interru": 6285,
      "bands": 6286,
      "bandit": 6287,
      "closed": 6288,
      "creative": 6289,
      "crestfallen": 6290,
      "marks": 6291,
      "##ipsed": 6292,
      "listenin": 6293,
      "listened": 6294,
      "secrecy": 6295,
      "rides": 6296,
      "terms": 6297,
      "assault": 6298,
      "##heeheeheehe": 6299,
      "busier": 6300,
      "prior": 6301,
      "prizes": 6302,
      "politely": 6303,
      "policy": 6304,
      "##acy": 6305,
      "spends": 6306,
      "ghostly": 6307,
      "ladadada": 6308,
      "mercur": 6309,
      "persist": 6310,
      "ruins": 6311,
      "##maid": 6312,
      "hunting": 6313,
      "stairwell": 6314,
      "halfway": 6315,
      "images": 6316,
      "rihan": 6317,
      "result": 6318,
      "saturn": 6319,
      "dolls": 6320,
      "planet": 6321,
      "footpr": 6322,
      "drinks": 6323,
      "drinkin": 6324,
      "quietly": 6325,
      "reminded": 6326,
      "johnny": 6327,
      "frente": 6328,
      "lowest": 6329,
      "roman": 6330,
      "seal": 6331,
      "melting": 6332,
      "speed": 6333,
      "flower": 6334,
      "flowing": 6335,
      "quicksand": 6336,
      "joe": 6337,
      "joint": 6338,
      "##aahaah": 6339,
      "##uje": 6340,
      "solid": 6341,
      "packed": 6342,
      "paying": 6343,
      "##ails": 6344,
      "paperthin": 6345,
      "courage": 6346,
      "fields": 6347,
      "regulars": 6348,
      "attempts": 6349,
      "champions": 6350,
      "compens": 6351,
      "comparing": 6352,
      "compasses": 6353,
      "composure": 6354,
      "defy": 6355,
      "defenses": 6356,
      "ohohohi": 6357,
      "ohohohohoh": 6358,
      "generic": 6359,
      "##imed": 6360,
      "innocence": 6361,
      "devils": 6362,
      "cruelty": 6363,
      "discrimin": 6364,
      "escaped": 6365,
      "ehehe": 6366,
      "earth": 6367,
      "horrified": 6368,
      "miscomm": 6369,
      "##ablish": 6370,
      "##btq": 6371,
      "ballet": 6372,
      "shady": 6373,
      "shadow": 6374,
      "oceania0908": 6375,
      "seventeenth": 6376,
      "fitz": 6377,
      "parx": 6378,
      "paris": 6379,
      "parttime": 6380,
      "rushes": 6381,
      "balancin": 6382,
      "shorty": 6383,
      "heroes": 6384,
      "screw": 6385,
      "accused": 6386,
      "according": 6387,
      "disappeared": 6388,
      "disapproves": 6389,
      "twentythree": 6390,
      "007": 6391,
      "denied": 6392,
      "laying": 6393,
      "sera": 6394,
      "sights": 6395,
      "##gotten": 6396,
      "locking": 6397,
      "casting": 6398,
      "castles": 6399,
      "charade": 6400,
      "selfindul": 6401,
      "questions": 6402,
      "bentley": 6403,
      "billie": 6404,
      "draws": 6405,
      "valid": 6406,
      "voteorg": 6407,
      "weaker": 6408,
      "##ject": 6409,
      "mended": 6410,
      "integ": 6411,
      "intellig": 6412,
      "worrying": 6413,
      "blocking": 6414,
      "classmates": 6415,
      "winters": 6416,
      "bleeds": 6417,
      "achilles": 6418,
      "elevator": 6419,
      "elegies": 6420,
      "hidden": 6421,
      "nearly": 6422,
      "violin": 6423,
      "##violet": 6424,
      "##orgiven": 6425,
      "excited": 6426,
      "glowing": 6427,
      "contrarian": 6428,
      "regretting": 6429,
      "smells": 6430,
      "fivehour": 6431,
      "popular": 6432,
      "sentiment": 6433,
      "vows": 6434,
      "##ynine": 6435,
      "shatterproof": 6436,
      "enemy": 6437,
      "twistin": 6438,
      "pools": 6439,
      "traveling": 6440,
      "tragedies": 6441,
      "continued": 6442,
      "eightynine": 6443,
      "pathetic": 6444,
      "sleight": 6445,
      "sleighs": 6446,
      "widow": 6447,
      "##traviolet": 6448,
      "##inoes": 6449,
      "cabello": 6450,
      "captain": 6451,
      "frost": 6452,
      "army": 6453,
      "general": 6454,
      "audiences": 6455,
      "burrow": 6456,
      "burton": 6457,
      "humiliation": 6458,
      "sins": 6459,
      "sinner": 6460,
      "sincere": 6461,
      "##yearold": 6462,
      "info": 6463,
      "boxes": 6464,
      "collide": 6465,
      "flickers": 6466,
      "sleeves": 6467,
      "architect": 6468,
      "replay": 6469,
      "impressed": 6470,
      "saltbox": 6471,
      "occurring": 6472,
      "obsessed": 6473,
      "obsession": 6474,
      "bathe": 6475,
      "bitches": 6476,
      "finger": 6477,
      "lambert": 6478,
      "mascara": 6479,
      "masquerade": 6480,
      "senses": 6481,
      "squad": 6482,
      "temptation": 6483,
      "##ibility": 6484,
      "thirties": 6485,
      "stoł": 6486,
      "revolved": 6487,
      "necklace": 6488,
      "cancel": 6489,
      "rocky": 6490,
      "common": 6491,
      "command": 6492,
      "beginnings": 6493,
      "memorized": 6494,
      "memorizing": 6495,
      "tasteful": 6496,
      "hundredth": 6497,
      "creeping": 6498,
      "gathered": 6499,
      "jerusale": 6500,
      "lingering": 6501,
      "purse": 6502,
      "pillars": 6503,
      "rusty": 6504,
      "rusting": 6505,
      "rusted": 6506,
      "tpizzle": 6507,
      "teeth": 6508,
      "tendency": 6509,
      "wheels": 6510,
      "bellion": 6511,
      "asia008": 6512,
      "switching": 6513,
      "amazon": 6514,
      "crushed": 6515,
      "expert": 6516,
      "guarded": 6517,
      "perform": 6518,
      "performan": 6519,
      "deserves": 6520,
      "freshman": 6521,
      "holidays": 6522,
      "disappearing": 6523,
      "elections": 6524,
      "tattoos": 6525,
      "ciebie": 6526,
      "civility": 6527,
      "further": 6528,
      "michaels": 6529,
      "shipwreck": 6530,
      "cameras": 6531,
      "failure": 6532,
      "absurd": 6533,
      "swims": 6534,
      "speeches": 6535,
      "songwriting": 6536,
      "songwriters": 6537,
      "depravity": 6538,
      "masterpie": 6539,
      "reflection": 6540,
      "bonnet": 6541,
      "domestic": 6542,
      "dominoes": 6543,
      "mnie": 6544,
      "sellin": 6545,
      "tswizzle": 6546,
      "throne": 6547,
      "camp": 6548,
      "camila": 6549,
      "lawless": 6550,
      "blurry": 6551,
      "robisz": 6552,
      "coastal": 6553,
      "constell": 6554,
      "global": 6555,
      "building": 6556,
      "businesses": 6557,
      "confessions": 6558,
      "candidates": 6559,
      "haahahah": 6560,
      "collected": 6561,
      "groceries": 6562,
      "stadiums": 6563,
      "received": 6564,
      "receipts": 6565,
      "congress": 6566,
      "court": 6567,
      "dziecko": 6568,
      "equal": 6569,
      "equity": 6570,
      "jewels": 6571,
      "models": 6572,
      "milk": 6573,
      "pirates": 6574,
      "pract": 6575,
      "pierce": 6576,
      "pierdo": 6577,
      "tales": 6578,
      "talent": 6579,
      "tests": 6580,
      "vision": 6581,
      "visions": 6582,
      "vacant": 6583,
      "vacancy": 6584,
      "wykwint": 6585,
      "thrive": 6586,
      "stalking": 6587,
      "shopping": 6588,
      "shifting": 6589,
      "nevеr": 6590,
      "formula": 6591,
      "chalkboard": 6592,
      "ashes": 6593,
      "blanks": 6594,
      "blanket": 6595,
      "proportion": 6596,
      "flushed": 6597,
      "majid": 6598,
      "arrows": 6599,
      "consider": 6600,
      "represents": 6601,
      "representatives": 6602,
      "unforgiven": 6603,
      "admit": 6604,
      "admir": 6605,
      "choirs": 6606,
      "systemic": 6607,
      "anticipation": 6608,
      "anticipatin": 6609,
      "inspirational": 6610,
      "europe6808": 6611,
      "nervously": 6612,
      "bеtty": 6613,
      "bowl": 6614,
      "corey": 6615,
      "cynical": 6616,
      "cynics": 6617,
      "group": 6618,
      "glorious": 6619,
      "hustling": 6620,
      "hustled": 6621,
      "kiyok": 6622,
      "mente": 6623,
      "mental": 6624,
      "narr": 6625,
      "narciss": 6626,
      "origin": 6627,
      "orientation": 6628,
      "portret": 6629,
      "portrait": 6630,
      "tuxedo": 6631,
      "villain": 6632,
      "village": 6633,
      "##iła": 6634,
      "##house": 6635,
      "soaked": 6636,
      "shouted": 6637,
      "cherry": 6638,
      "cherish": 6639,
      "crumbs": 6640,
      "slicked": 6641,
      "lemonade": 6642,
      "lembrei": 6643,
      "poisoned": 6644,
      "possibilities": 6645,
      "missionaries": 6646,
      "connect": 6647,
      "connection": 6648,
      "unpretty": 6649,
      "passionate": 6650,
      "educate": 6651,
      "educating": 6652,
      "approval": 6653,
      "imagination": 6654,
      "imaginary": 6655,
      "terrifies": 6656,
      "terrifying": 6657,
      "televis": 6658,
      "telephone": 6659,
      "historia": 6660,
      "achieve": 6661,
      "circles": 6662,
      "eightyseven": 6663,
      "suspected": 6664,
      "reflects": 6665,
      "thrownout": 6666,
      "robbers": 6667,
      "influence": 6668,
      "bomb": 6669,
      "ciara": 6670,
      "cycle": 6671,
      "coracao": 6672,
      "czekam": 6673,
      "dwindling": 6674,
      "digging": 6675,
      "daggers": 6676,
      "establish": 6677,
      "effort": 6678,
      "events": 6679,
      "feud": 6680,
      "firin": 6681,
      "feline": 6682,
      "ferociously": 6683,
      "grief": 6684,
      "husband": 6685,
      "jestes": 6686,
      "journey": 6687,
      "jailer": 6688,
      "kloss": 6689,
      "karlie": 6690,
      "khalid": 6691,
      "lennox": 6692,
      "nakrywam": 6693,
      "panic": 6694,
      "punish": 6695,
      "potential": 6696,
      "rhode": 6697,
      "rifle": 6698,
      "tunnel": 6699,
      "ultraviolet": 6700,
      "vincent": 6701,
      "vanished": 6702,
      "victim": 6703,
      "zwrot": 6704,
      "##ridge": 6705,
      "##ounced": 6706,
      "limit": 6707,
      "soccer": 6708,
      "repeating": 6709,
      "revelers": 6710,
      "isolating": 6711,
      "ohwhoa": 6712,
      "update": 6713,
      "anxiety": 6714,
      "backyard": 6715,
      "##unications": 6716,
      "chapter": 6717,
      "bloody": 6718,
      "separated": 6719,
      "claps": 6720,
      "bruis": 6721,
      "entertainment": 6722,
      "napkin": 6723,
      "tablo": 6724,
      "insurmount": 6725,
      "accepted": 6726,
      "unlucky": 6727,
      "dawson": 6728,
      "rapid": 6729,
      "describe": 6730,
      "trenches": 6731,
      "disgusting": 6732,
      "adventures": 6733,
      "survived": 6734,
      "vocals": 6735,
      "divorcee": 6736,
      "speculate": 6737,
      "comparison": 6738,
      "cowriter": 6739,
      "seriously": 6740,
      "selfpossessed": 6741,
      "witnessed": 6742,
      "pinnedup": 6743,
      "investment": 6744,
      "directly": 6745,
      "jewelry": 6746,
      "responsibility": 6747,
      "irreplac": 6748,
      "insecurity": 6749,
      "universal": 6750,
      "nineteen": 6751,
      "zrobił": 6752,
      "character": 6753,
      "unresolved": 6754,
      "aldridge": 6755,
      "auroras": 6756,
      "auckland": 6757,
      "during": 6758,
      "dali": 6759,
      "damse": 6760,
      "dierks": 6761,
      "dixie": 6762,
      "echosmith": 6763,
      "eulogize": 6764,
      "eclipsed": 6765,
      "eheeheeheeheeheeheeheehe": 6766,
      "fifth": 6767,
      "fiend": 6768,
      "gdzie": 6769,
      "gestures": 6770,
      "gangster": 6771,
      "gatsby": 6772,
      "hatchets": 6773,
      "jinx": 6774,
      "jameela": 6775,
      "jumps": 6776,
      "jupiter": 6777,
      "jordan": 6778,
      "kesha": 6779,
      "lgbtq": 6780,
      "lurking": 6781,
      "lewis": 6782,
      "language": 6783,
      "latte": 6784,
      "lanco": 6785,
      "muito": 6786,
      "mittens": 6787,
      "matinee": 6788,
      "nеver": 6789,
      "nesbitt": 6790,
      "nurses": 6791,
      "ogladam": 6792,
      "plywood": 6793,
      "pattern": 6794,
      "ransom": 6795,
      "rattling": 6796,
      "swaying": 6797,
      "tlc": 6798,
      "tedder": 6799,
      "tupelo": 6800,
      "uzywam": 6801,
      "virgin": 6802,
      "vultures": 6803,
      "wiser": 6804,
      "wolves": 6805,
      "weepin": 6806,
      "westerly": 6807,
      "yelling": 6808,
      "yogurt": 6809,
      "##forgotten": 6810,
      "##ooohoohooh": 6811,
      "thieves": 6812,
      "whistle": 6813,
      "lizzo": 6814,
      "stomach": 6815,
      "steady": 6816,
      "lovestruck": 6817,
      "sophistication": 6818,
      "hackney": 6819,
      "habits": 6820,
      "knuckles": 6821,
      "shakespeare": 6822,
      "shaped": 6823,
      "shimmering": 6824,
      "wisteria": 6825,
      "ohsoeasy": 6826,
      "causing": 6827,
      "cavalry": 6828,
      "evergreen": 6829,
      "##chemes": 6830,
      "whatsoever": 6831,
      "sainttropez": 6832,
      "upload": 6833,
      "antonoff": 6834,
      "vendettata": 6835,
      "alpha": 6836,
      "alternate": 6837,
      "prevalent": 6838,
      "laptop": 6839,
      "reauthorization": 6840,
      "blazing": 6841,
      "bredesen": 6842,
      "splashed": 6843,
      "spaghetti": 6844,
      "madrzejszy": 6845,
      "heartache": 6846,
      "oohwoooohoohooh": 6847,
      "manipul": 6848,
      "handwriting": 6849,
      "mondays": 6850,
      "bridesmaid": 6851,
      "bridetobe": 6852,
      "mindtwist": 6853,
      "examples": 6854,
      "exhausting": 6855,
      "exchanged": 6856,
      "namedropping": 6857,
      "drzwiach": 6858,
      "guilty": 6859,
      "convictions": 6860,
      "trapeze": 6861,
      "strength": 6862,
      "najlepsze": 6863,
      "understudy": 6864,
      "hargitay": 6865,
      "comingofage": 6866,
      "reluctant": 6867,
      "mccartney": 6868,
      "insincerity": 6869,
      "magnific": 6870,
      "godforsaken": 6871,
      "middleclass": 6872,
      "drastically": 6873,
      "idiotic": 6874,
      "grumbling": 6875,
      "grunwald": 6876,
      "silhouette": 6877,
      "floorboards": 6878,
      "refrigerator": 6879,
      "appreciate": 6880,
      "interruptions": 6881,
      "mercurial": 6882,
      "rihanna": 6883,
      "footprints": 6884,
      "ohohohohohohoh": 6885,
      "discrimination": 6886,
      "eheheh": 6887,
      "miscommunications": 6888,
      "selfindulgent": 6889,
      "integrity": 6890,
      "intelligent": 6891,
      "jerusalem": 6892,
      "performance": 6893,
      "masterpiece": 6894,
      "pierdołami": 6895,
      "wykwintnymi": 6896,
      "kiyoko": 6897,
      "narcissist": 6898,
      "zwrotka": 6899,
      "insurmountable": 6900,
      "irreplaceable": 6901,
      "45": 6902,
      "44": 6903,
      "4am": 6904,
      "50": 6905,
      "54": 6906,
      "69": 6907,
      "64": 6908,
      "6foot": 6909,
      "600": 6910,
      "70s": 6911,
      "80": 6912,
      "80s": 6913,
      "800": 6914,
      "97": 6915,
      "aj": 6916,
      "aer": 6917,
      "aes": 6918,
      "ast": 6919,
      "aar": 6920,
      "ace": 6921,
      "amber": 6922,
      "aper": 6923,
      "apl": 6924,
      "aqu": 6925,
      "aact": 6926,
      "alem": 6927,
      "aval": 6928,
      "bi": 6929,
      "bø": 6930,
      "bust": 6931,
      "bod": 6932,
      "biz": 6933,
      "bush": 6934,
      "bio": 6935,
      "bord": 6936,
      "brist": 6937,
      "bub": 6938,
      "brie": 6939,
      "beren": 6940,
      "bank": 6941,
      "bows": 6942,
      "bba": 6943,
      "boun": 6944,
      "battered": 6945,
      "cz": 6946,
      "cit": 6947,
      "cly": 6948,
      "cate": 6949,
      "cig": 6950,
      "cous": 6951,
      "cred": 6952,
      "czy": 6953,
      "cord": 6954,
      "cric": 6955,
      "cena": 6956,
      "cels": 6957,
      "cords": 6958,
      "cuss": 6959,
      "ccan": 6960,
      "cuba": 6961,
      "dd": 6962,
      "dе": 6963,
      "der": 6964,
      "dun": 6965,
      "dand": 6966,
      "dil": 6967,
      "duck": 6968,
      "duch": 6969,
      "diz": 6970,
      "dict": 6971,
      "douch": 6972,
      "diet": 6973,
      "dial": 6974,
      "dorm": 6975,
      "dues": 6976,
      "denn": 6977,
      "dude": 6978,
      "dumb": 6979,
      "diction": 6980,
      "eu": 6981,
      "ew": 6982,
      "eve": 6983,
      "ena": 6984,
      "ery": 6985,
      "ember": 6986,
      "eil": 6987,
      "eup": 6988,
      "emer": 6989,
      "econ": 6990,
      "ego": 6991,
      "evol": 6992,
      "effect": 6993,
      "evoc": 6994,
      "fn": 6995,
      "fx": 6996,
      "fea": 6997,
      "fain": 6998,
      "fim": 6999,
      "furn": 7000,
      "fist": 7001,
      "fiz": 7002,
      "files": 7003,
      "fund": 7004,
      "fakin": 7005,
      "fives": 7006,
      "feared": 7007,
      "fetty": 7008,
      "gg": 7009,
      "g5": 7010,
      "ging": 7011,
      "gea": 7012,
      "gut": 7013,
      "gould": 7014,
      "gam": 7015,
      "gain": 7016,
      "gift": 7017,
      "gart": 7018,
      "gdy": 7019,
      "hu": 7020,
      "hе": 7021,
      "hous": 7022,
      "hug": 7023,
      "hating": 7024,
      "huff": 7025,
      "hhal": 7026,
      "ist": 7027,
      "ira": 7028,
      "irie": 7029,
      "iphone": 7030,
      "iphones": 7031,
      "jh": 7032,
      "jj": 7033,
      "jing": 7034,
      "jay": 7035,
      "jas": 7036,
      "jar": 7037,
      "jun": 7038,
      "jam": 7039,
      "jess": 7040,
      "jill": 7041,
      "jane": 7042,
      "jenn": 7043,
      "jars": 7044,
      "jung": 7045,
      "kt": 7046,
      "ko": 7047,
      "kk": 7048,
      "kat": 7049,
      "kay": 7050,
      "kra": 7051,
      "kol": 7052,
      "kim": 7053,
      "kah": 7054,
      "kud": 7055,
      "kied": 7056,
      "kane": 7057,
      "kary": 7058,
      "kyle": 7059,
      "kels": 7060,
      "kobe": 7061,
      "ls": 7062,
      "lе": 7063,
      "len": 7064,
      "lth": 7065,
      "lust": 7066,
      "lark": 7067,
      "lard": 7068,
      "lined": 7069,
      "lena": 7070,
      "lux": 7071,
      "lining": 7072,
      "mk": 7073,
      "mat": 7074,
      "mal": 7075,
      "mun": 7076,
      "mie": 7077,
      "mum": 7078,
      "math": 7079,
      "mick": 7080,
      "mugh": 7081,
      "mater": 7082,
      "mort": 7083,
      "mild": 7084,
      "mult": 7085,
      "muff": 7086,
      "nn": 7087,
      "nf": 7088,
      "nu": 7089,
      "non": 7090,
      "nst": 7091,
      "nal": 7092,
      "nig": 7093,
      "nied": 7094,
      "nico": 7095,
      "naming": 7096,
      "ov": 7097,
      "og": 7098,
      "oth": 7099,
      "oas": 7100,
      "ole": 7101,
      "oun": 7102,
      "oooh": 7103,
      "oones": 7104,
      "oops": 7105,
      "pn": 7106,
      "pu": 7107,
      "pj": 7108,
      "pou": 7109,
      "pon": 7110,
      "pes": 7111,
      "pod": 7112,
      "pok": 7113,
      "pry": 7114,
      "pim": 7115,
      "pfe": 7116,
      "piss": 7117,
      "pile": 7118,
      "pper": 7119,
      "pater": 7120,
      "pote": 7121,
      "pump": 7122,
      "pint": 7123,
      "pens": 7124,
      "pub": 7125,
      "panc": 7126,
      "puff": 7127,
      "purch": 7128,
      "pounds": 7129,
      "pounced": 7130,
      "qr": 7131,
      "rz": 7132,
      "rе": 7133,
      "ron": 7134,
      "rout": 7135,
      "rop": 7136,
      "rus": 7137,
      "rig": 7138,
      "rick": 7139,
      "rice": 7140,
      "rug": 7141,
      "rang": 7142,
      "rach": 7143,
      "rys": 7144,
      "rha": 7145,
      "ss": 7146,
      "sł": 7147,
      "sake": 7148,
      "sly": 7149,
      "site": 7150,
      "sways": 7151,
      "sour": 7152,
      "sier": 7153,
      "sane": 7154,
      "sket": 7155,
      "sons": 7156,
      "siv": 7157,
      "seren": 7158,
      "sched": 7159,
      "sеn": 7160,
      "silly": 7161,
      "sighs": 7162,
      "schemes": 7163,
      "tt": 7164,
      "tou": 7165,
      "tar": 7166,
      "tur": 7167,
      "tink": 7168,
      "tate": 7169,
      "tant": 7170,
      "tug": 7171,
      "tsh": 7172,
      "tag": 7173,
      "tyle": 7174,
      "taming": 7175,
      "tension": 7176,
      "uw": 7177,
      "una": 7178,
      "uunder": 7179,
      "vе": 7180,
      "vit": 7181,
      "vom": 7182,
      "vind": 7183,
      "vine": 7184,
      "vul": 7185,
      "vence": 7186,
      "vines": 7187,
      "vma": 7188,
      "viv": 7189,
      "vww": 7190,
      "vida": 7191,
      "vented": 7192,
      "wе": 7193,
      "wal": 7194,
      "wink": 7195,
      "wease": 7196,
      "waded": 7197,
      "wzie": 7198,
      "xx": 7199,
      "xyy": 7200,
      "ye": 7201,
      "yy": 7202,
      "yon": 7203,
      "yay": 7204,
      "yup": 7205,
      "yoke": 7206,
      "zy": 7207,
      "zone": 7208,
      "zam": 7209,
      "zak": 7210,
      "zac": 7211,
      "zab": 7212,
      "zost": 7213,
      "zaws": 7214,
      "zysk": 7215,
      "##mе": 7216,
      "##mat": 7217,
      "##mst": 7218,
      "##mad": 7219,
      "##mly": 7220,
      "##mok": 7221,
      "##mate": 7222,
      "##mish": 7223,
      "##miss": 7224,
      "##mile": 7225,
      "##mare": 7226,
      "##po": 7227,
      "##pre": 7228,
      "##pen": 7229,
      "##pest": 7230,
      "##pose": 7231,
      "##pass": 7232,
      "##poken": 7233,
      "##pace": 7234,
      "##paw": 7235,
      "##posed": 7236,
      "##pism": 7237,
      "##pnot": 7238,
      "##public": 7239,
      "##position": 7240,
      "##pisy": 7241,
      "##aa": 7242,
      "##ao": 7243,
      "##aj": 7244,
      "##ait": 7245,
      "##aly": 7246,
      "##aging": 7247,
      "##aign": 7248,
      "##aze": 7249,
      "##avity": 7250,
      "##abor": 7251,
      "##tu": 7252,
      "##tz": 7253,
      "##tere": 7254,
      "##tit": 7255,
      "##tod": 7256,
      "##tif": 7257,
      "##tim": 7258,
      "##ties": 7259,
      "##teen": 7260,
      "##tible": 7261,
      "##tub": 7262,
      "##tasz": 7263,
      "##tuje": 7264,
      "##tails": 7265,
      "##ik": 7266,
      "##iq": 7267,
      "##ien": 7268,
      "##ige": 7269,
      "##ius": 7270,
      "##iers": 7271,
      "##ipl": 7272,
      "##iating": 7273,
      "##iara": 7274,
      "##iked": 7275,
      "##ielle": 7276,
      "##ippet": 7277,
      "##eb": 7278,
      "##ex": 7279,
      "##ean": 7280,
      "##eld": 7281,
      "##ebo": 7282,
      "##epping": 7283,
      "##eyed": 7284,
      "##exe": 7285,
      "##nis": 7286,
      "##nal": 7287,
      "##ners": 7288,
      "##nia": 7289,
      "##nity": 7290,
      "##nment": 7291,
      "##nible": 7292,
      "##nolog": 7293,
      "##nels": 7294,
      "##nched": 7295,
      "##nished": 7296,
      "##nounced": 7297,
      "##yer": 7298,
      "##yling": 7299,
      "##yals": 7300,
      "##ycie": 7301,
      "##don": 7302,
      "##dre": 7303,
      "##del": 7304,
      "##danc": 7305,
      "##diction": 7306,
      "##lе": 7307,
      "##lou": 7308,
      "##lon": 7309,
      "##lake": 7310,
      "##lic": 7311,
      "##lot": 7312,
      "##lus": 7313,
      "##lead": 7314,
      "##lile": 7315,
      "##lation": 7316,
      "##lson": 7317,
      "##log": 7318,
      "##last": 7319,
      "##liness": 7320,
      "##liest": 7321,
      "##liv": 7322,
      "##lona": 7323,
      "##lusion": 7324,
      "##fs": 7325,
      "##fj": 7326,
      "##fes": 7327,
      "##fee": 7328,
      "##fight": 7329,
      "##fway": 7330,
      "##fter": 7331,
      "##file": 7332,
      "##five": 7333,
      "##fting": 7334,
      "##found": 7335,
      "##father": 7336,
      "##form": 7337,
      "##fac": 7338,
      "##fense": 7339,
      "##fcase": 7340,
      "##frent": 7341,
      "##fha": 7342,
      "##fters": 7343,
      "##fashion": 7344,
      "##fining": 7345,
      "##ror": 7346,
      "##ras": 7347,
      "##rom": 7348,
      "##rate": 7349,
      "##rus": 7350,
      "##rum": 7351,
      "##rue": 7352,
      "##rass": 7353,
      "##ritt": 7354,
      "##rational": 7355,
      "##rns": 7356,
      "##rins": 7357,
      "##ruc": 7358,
      "##oo": 7359,
      "##oll": 7360,
      "##oes": 7361,
      "##oia": 7362,
      "##oft": 7363,
      "##ovin": 7364,
      "##ocious": 7365,
      "##oiled": 7366,
      "##cd": 7367,
      "##cou": 7368,
      "##cin": 7369,
      "##cet": 7370,
      "##cic": 7371,
      "##core": 7372,
      "##col": 7373,
      "##cure": 7374,
      "##catch": 7375,
      "##cia": 7376,
      "##corn": 7377,
      "##cond": 7378,
      "##cross": 7379,
      "##cla": 7380,
      "##clude": 7381,
      "##correct": 7382,
      "##crom": 7383,
      "##cocious": 7384,
      "##vе": 7385,
      "##vit": 7386,
      "##vig": 7387,
      "##vant": 7388,
      "##vial": 7389,
      "##vancy": 7390,
      "##vvy": 7391,
      "##vado": 7392,
      "##voking": 7393,
      "##viera": 7394,
      "##bł": 7395,
      "##bee": 7396,
      "##bad": 7397,
      "##bri": 7398,
      "##bra": 7399,
      "##bind": 7400,
      "##bate": 7401,
      "##bts": 7402,
      "##born": 7403,
      "##bull": 7404,
      "##bled": 7405,
      "##baz": 7406,
      "##bla": 7407,
      "##bino": 7408,
      "##billy": 7409,
      "##bulations": 7410,
      "##bops": 7411,
      "##bounds": 7412,
      "##bject": 7413,
      "##hing": 7414,
      "##hor": 7415,
      "##has": 7416,
      "##hone": 7417,
      "##ham": 7418,
      "##head": 7419,
      "##hos": 7420,
      "##hip": 7421,
      "##hren": 7422,
      "##hib": 7423,
      "##hey": 7424,
      "##haha": 7425,
      "##uw": 7426,
      "##uet": 7427,
      "##uce": 7428,
      "##uest": 7429,
      "##uca": 7430,
      "##uise": 7431,
      "##uade": 7432,
      "##uition": 7433,
      "##ga": 7434,
      "##gon": 7435,
      "##gth": 7436,
      "##gar": 7437,
      "##gle": 7438,
      "##gone": 7439,
      "##gest": 7440,
      "##gie": 7441,
      "##gul": 7442,
      "##gum": 7443,
      "##girl": 7444,
      "##gia": 7445,
      "##gory": 7446,
      "##graph": 7447,
      "##gеs": 7448,
      "##gmat": 7449,
      "##grass": 7450,
      "##sing": 7451,
      "##sid": 7452,
      "##sca": 7453,
      "##suck": 7454,
      "##seas": 7455,
      "##salia": 7456,
      "##siven": 7457,
      "##slo": 7458,
      "##scent": 7459,
      "##sition": 7460,
      "##schemes": 7461,
      "##space": 7462,
      "##zi": 7463,
      "##zer": 7464,
      "##zed": 7465,
      "##zar": 7466,
      "##zce": 7467,
      "##zel": 7468,
      "##zart": 7469,
      "##zens": 7470,
      "##zcz": 7471,
      "##wit": 7472,
      "##wom": 7473,
      "##wra": 7474,
      "##wind": 7475,
      "##wol": 7476,
      "##wie": 7477,
      "##ware": 7478,
      "##wich": 7479,
      "##wife": 7480,
      "##wards": 7481,
      "##words": 7482,
      "##writt": 7483,
      "##06": 7484,
      "##ki": 7485,
      "##kers": 7486,
      "##kia": 7487,
      "##kippin": 7488,
      "##ktuje": 7489,
      "##ło": 7490,
      "##łes": 7491,
      "##ład": 7492,
      "##łby": 7493,
      "##xie": 7494,
      "##jer": 7495,
      "##jor": 7496,
      "##jit": 7497,
      "##jic": 7498,
      "##jam": 7499,
      "##jace": 7500,
      "##jsca": 7501,
      "##еnd": 7502,
      "##еlf": 7503,
      "##еaking": 7504,
      "##еrze": 7505,
      "thig": 7506,
      "thist": 7507,
      "thick": 7508,
      "thighs": 7509,
      "you4": 7510,
      "youme": 7511,
      "youtu": 7512,
      "##ini": 7513,
      "##iner": 7514,
      "##inas": 7515,
      "##inate": 7516,
      "##infe": 7517,
      "##ination": 7518,
      "##inting": 7519,
      "##inos": 7520,
      "##inne": 7521,
      "##inated": 7522,
      "##inary": 7523,
      "##invent": 7524,
      "##inction": 7525,
      "##inhand": 7526,
      "##ery": 7527,
      "##eres": 7528,
      "##eral": 7529,
      "##erving": 7530,
      "##erved": 7531,
      "##erds": 7532,
      "##erations": 7533,
      "##erife": 7534,
      "##erring": 7535,
      "##eruje": 7536,
      "##ercrom": 7537,
      "##ndous": 7538,
      "thee": 7539,
      "theat": 7540,
      "theme": 7541,
      "thena": 7542,
      "theory": 7543,
      "thedream": 7544,
      "##aten": 7545,
      "##atom": 7546,
      "##ature": 7547,
      "##atable": 7548,
      "##atime": 7549,
      "##atient": 7550,
      "##atitude": 7551,
      "##atform": 7552,
      "andy": 7553,
      "anders": 7554,
      "##oning": 7555,
      "##onse": 7556,
      "##only": 7557,
      "##onna": 7558,
      "##onies": 7559,
      "##onne": 7560,
      "##onizing": 7561,
      "##onatime": 7562,
      "##llis": 7563,
      "##lliant": 7564,
      "##llex": 7565,
      "toes": 7566,
      "tool": 7567,
      "tops": 7568,
      "token": 7569,
      "##reas": 7570,
      "##render": 7571,
      "##regul": 7572,
      "##anes": 7573,
      "##anic": 7574,
      "##anie": 7575,
      "##ances": 7576,
      "##annel": 7577,
      "##anhour": 7578,
      "##anche": 7579,
      "##anoia": 7580,
      "##anhas": 7581,
      "##esar": 7582,
      "##esce": 7583,
      "##escent": 7584,
      "##escap": 7585,
      "##eno": 7586,
      "##ench": 7587,
      "##enium": 7588,
      "##oring": 7589,
      "##oric": 7590,
      "##orts": 7591,
      "##orms": 7592,
      "##orze": 7593,
      "##ayy": 7594,
      "##ayah": 7595,
      "meth": 7596,
      "meas": 7597,
      "member": 7598,
      "megan": 7599,
      "##eague": 7600,
      "##eazer": 7601,
      "iti": 7602,
      "itself": 7603,
      "item": 7604,
      "itha": 7605,
      "whine": 7606,
      "whets": 7607,
      "whippin": 7608,
      "##mendous": 7609,
      "##stes": 7610,
      "##stra": 7611,
      "##steen": 7612,
      "##stac": 7613,
      "##stille": 7614,
      "##stance": 7615,
      "##stances": 7616,
      "beers": 7617,
      "beho": 7618,
      "##edown": 7619,
      "##edeep": 7620,
      "##edress": 7621,
      "ink": 7622,
      "init": 7623,
      "inne": 7624,
      "intend": 7625,
      "inner": 7626,
      "inund": 7627,
      "ingen": 7628,
      "inescap": 7629,
      "##uto": 7630,
      "##utter": 7631,
      "##utally": 7632,
      "##utiny": 7633,
      "##ghthear": 7634,
      "##thm": 7635,
      "##this": 7636,
      "##thet": 7637,
      "##thus": 7638,
      "##though": 7639,
      "##vey": 7640,
      "ono": 7641,
      "onе": 7642,
      "onere": 7643,
      "liz": 7644,
      "liam": 7645,
      "liven": 7646,
      "liter": 7647,
      "lisa": 7648,
      "lifes": 7649,
      "lighthear": 7650,
      "myspace": 7651,
      "##vering": 7652,
      "##vertible": 7653,
      "##vernment": 7654,
      "##isse": 7655,
      "##ision": 7656,
      "##isies": 7657,
      "##isite": 7658,
      "##isps": 7659,
      "often": 7660,
      "stok": 7661,
      "stam": 7662,
      "stif": 7663,
      "stig": 7664,
      "stack": 7665,
      "stated": 7666,
      "stap": 7667,
      "stared": 7668,
      "states": 7669,
      "stumb": 7670,
      "stab": 7671,
      "stank": 7672,
      "stubb": 7673,
      "stern": 7674,
      "styling": 7675,
      "stanie": 7676,
      "storms": 7677,
      "lol": 7678,
      "lore": 7679,
      "load": 7680,
      "looted": 7681,
      "loyal": 7682,
      "sober": 7683,
      "soaking": 7684,
      "socall": 7685,
      "socal": 7686,
      "somе": 7687,
      "softer": 7688,
      "##asp": 7689,
      "##asu": 7690,
      "##ases": 7691,
      "##ased": 7692,
      "##asue": 7693,
      "##asia": 7694,
      "##eem": 7695,
      "##eezy": 7696,
      "##eeful": 7697,
      "##eeming": 7698,
      "bag": 7699,
      "baile": 7700,
      "baff": 7701,
      "baez": 7702,
      "baker": 7703,
      "bastille": 7704,
      "wet": 7705,
      "webs": 7706,
      "gods": 7707,
      "gosh": 7708,
      "goof": 7709,
      "goals": 7710,
      "government": 7711,
      "##idi": 7712,
      "##iding": 7713,
      "##idel": 7714,
      "##idence": 7715,
      "##iddle": 7716,
      "##idual": 7717,
      "##iderm": 7718,
      "hail": 7719,
      "hallow": 7720,
      "havent": 7721,
      "halo": 7722,
      "havan": 7723,
      "hammer": 7724,
      "hahaha": 7725,
      "knit": 7726,
      "##etra": 7727,
      "##eties": 7728,
      "##etite": 7729,
      "##etition": 7730,
      "##etoric": 7731,
      "shay": 7732,
      "shown": 7733,
      "shore": 7734,
      "shark": 7735,
      "shred": 7736,
      "shied": 7737,
      "shove": 7738,
      "shared": 7739,
      "shaw": 7740,
      "shuff": 7741,
      "shored": 7742,
      "shеlf": 7743,
      "##ari": 7744,
      "##arre": 7745,
      "##arting": 7746,
      "##arant": 7747,
      "##ario": 7748,
      "##arming": 7749,
      "##argo": 7750,
      "##arfs": 7751,
      "rex": 7752,
      "rely": 7753,
      "rect": 7754,
      "requ": 7755,
      "reward": 7756,
      "rebounds": 7757,
      "rewind": 7758,
      "reinvent": 7759,
      "##leball": 7760,
      "##levancy": 7761,
      "nemes": 7762,
      "neiked": 7763,
      "negle": 7764,
      "##ightful": 7765,
      "allen": 7766,
      "allian": 7767,
      "allows": 7768,
      "alley": 7769,
      "knowget": 7770,
      "noah": 7771,
      "nobel": 7772,
      "nomin": 7773,
      "nostal": 7774,
      "nodon": 7775,
      "nokia": 7776,
      "wiz": 7777,
      "wield": 7778,
      "wilson": 7779,
      "forts": 7780,
      "forms": 7781,
      "forces": 7782,
      "caged": 7783,
      "caused": 7784,
      "capital": 7785,
      "caesar": 7786,
      "##iti": 7787,
      "##itate": 7788,
      "##iture": 7789,
      "##itos": 7790,
      "##itful": 7791,
      "##earing": 7792,
      "##eardrops": 7793,
      "##oms": 7794,
      "##omic": 7795,
      "##omically": 7796,
      "donna": 7797,
      "donations": 7798,
      "donald": 7799,
      "##irk": 7800,
      "justice": 7801,
      "timber": 7802,
      "tips": 7803,
      "tiff": 7804,
      "hender": 7805,
      "heather": 7806,
      "heating": 7807,
      "hehe": 7808,
      "heidi": 7809,
      "everch": 7810,
      "everlast": 7811,
      "##cha": 7812,
      "##chal": 7813,
      "##chun": 7814,
      "##child": 7815,
      "##chief": 7816,
      "##chasz": 7817,
      "##chnolog": 7818,
      "dois": 7819,
      "dope": 7820,
      "domed": 7821,
      "doja": 7822,
      "dozens": 7823,
      "withstand": 7824,
      "##ongst": 7825,
      "##adle": 7826,
      "##adal": 7827,
      "##ados": 7828,
      "##urday": 7829,
      "##urred": 7830,
      "##urize": 7831,
      "##urative": 7832,
      "##urposed": 7833,
      "whats": 7834,
      "whatcha": 7835,
      "##lyzed": 7836,
      "##ales": 7837,
      "##alent": 7838,
      "##alie": 7839,
      "##alog": 7840,
      "##alified": 7841,
      "##oder": 7842,
      "##odic": 7843,
      "##odist": 7844,
      "##odating": 7845,
      "##odiment": 7846,
      "##ril": 7847,
      "##riers": 7848,
      "##rica": 7849,
      "##rived": 7850,
      "##rippin": 7851,
      "##rigue": 7852,
      "##rific": 7853,
      "##rillex": 7854,
      "llet": 7855,
      "lloy": 7856,
      "##things": 7857,
      "sack": 7858,
      "sable": 7859,
      "safet": 7860,
      "savvy": 7861,
      "sauce": 7862,
      "##oneering": 7863,
      "##oks": 7864,
      "##bym": 7865,
      "##rap": 7866,
      "##race": 7867,
      "##raca": 7868,
      "##ravel": 7869,
      "outright": 7870,
      "outla": 7871,
      "outward": 7872,
      "outfit": 7873,
      "ups": 7874,
      "upper": 7875,
      "upset": 7876,
      "upstate": 7877,
      "upstanding": 7878,
      "someplace": 7879,
      "anna": 7880,
      "anger": 7881,
      "anac": 7882,
      "announced": 7883,
      "anatom": 7884,
      "babylon": 7885,
      "##tti": 7886,
      "##tter": 7887,
      "##ttes": 7888,
      "##tted": 7889,
      "##ttopping": 7890,
      "backi": 7891,
      "backing": 7892,
      "backbone": 7893,
      "backlog": 7894,
      "backwards": 7895,
      "vending": 7896,
      "##unt": 7897,
      "##untar": 7898,
      "##ica": 7899,
      "##icul": 7900,
      "##icles": 7901,
      "##icular": 7902,
      "seeker": 7903,
      "##ama": 7904,
      "##ament": 7905,
      "##amins": 7906,
      "##essa": 7907,
      "##essia": 7908,
      "##naway": 7909,
      "alig": 7910,
      "alab": 7911,
      "alison": 7912,
      "alib": 7913,
      "although": 7914,
      "alessia": 7915,
      "chink": 7916,
      "chore": 7917,
      "chord": 7918,
      "chatter": 7919,
      "chords": 7920,
      "choking": 7921,
      "chesh": 7922,
      "choral": 7923,
      "oneoff": 7924,
      "##oping": 7925,
      "##opia": 7926,
      "##aints": 7927,
      "plent": 7928,
      "plate": 7929,
      "plot": 7930,
      "platt": 7931,
      "plates": 7932,
      "planted": 7933,
      "plott": 7934,
      "platform": 7935,
      "pleno": 7936,
      "##ifa": 7937,
      "##ifying": 7938,
      "fables": 7939,
      "facet": 7940,
      "fahren": 7941,
      "fajit": 7942,
      "asian": 7943,
      "aspect": 7944,
      "sheph": 7945,
      "downish": 7946,
      "downfall": 7947,
      "notce": 7948,
      "notices": 7949,
      "##ents": 7950,
      "preho": 7951,
      "prepping": 7952,
      "previous": 7953,
      "precious": 7954,
      "prepar": 7955,
      "prediction": 7956,
      "precocious": 7957,
      "getlove": 7958,
      "using": 7959,
      "uses": 7960,
      "##ional": 7961,
      "abercrom": 7962,
      "lazy": 7963,
      "lavig": 7964,
      "lahey": 7965,
      "swane": 7966,
      "swerve": 7967,
      "reaction": 7968,
      "reaches": 7969,
      "whoever": 7970,
      "##estained": 7971,
      "##estepping": 7972,
      "##esteem": 7973,
      "##illa": 7974,
      "wouldnt": 7975,
      "blown": 7976,
      "bliss": 7977,
      "blog": 7978,
      "blaze": 7979,
      "blige": 7980,
      "bluest": 7981,
      "blunt": 7982,
      "##ellum": 7983,
      "werewol": 7984,
      "##berts": 7985,
      "##berries": 7986,
      "##olate": 7987,
      "##olete": 7988,
      "##oliła": 7989,
      "##iminate": 7990,
      "##gema": 7991,
      "eyеs": 7992,
      "franc": 7993,
      "france": 7994,
      "fruto": 7995,
      "frightful": 7996,
      "saidsh": 7997,
      "comet": 7998,
      "##iel": 7999,
      "daybreak": 8000,
      "dayget": 8001,
      "daytod": 8002,
      "daydre": 8003,
      "##anda": 8004,
      "##andescent": 8005,
      "bread": 8006,
      "brett": 8007,
      "spy": 8008,
      "spare": 8009,
      "spoke": 8010,
      "sport": 8011,
      "spac": 8012,
      "spread": 8013,
      "sprit": 8014,
      "spattered": 8015,
      "spoiled": 8016,
      "drenched": 8017,
      "##ateful": 8018,
      "seize": 8019,
      "section": 8020,
      "semin": 8021,
      "wap": 8022,
      "waist": 8023,
      "wages": 8024,
      "wagon": 8025,
      "nightfall": 8026,
      "nightmare": 8027,
      "##few": 8028,
      "##feat": 8029,
      "##ctator": 8030,
      "rightlike": 8031,
      "clan": 8032,
      "clair": 8033,
      "clover": 8034,
      "clerg": 8035,
      "clearest": 8036,
      "clubb": 8037,
      "shouldnt": 8038,
      "##ends": 8039,
      "##ended": 8040,
      "##otes": 8041,
      "##otions": 8042,
      "##otstra": 8043,
      "##amel": 8044,
      "madly": 8045,
      "madden": 8046,
      "madison": 8047,
      "madhouse": 8048,
      "heartstr": 8049,
      "heartdel": 8050,
      "songbl": 8051,
      "##eled": 8052,
      "##elve": 8053,
      "##elmed": 8054,
      "##ulo": 8055,
      "##uled": 8056,
      "##ulant": 8057,
      "##ulsiven": 8058,
      "bob": 8059,
      "boom": 8060,
      "boil": 8061,
      "boating": 8062,
      "boats": 8063,
      "boards": 8064,
      "boston": 8065,
      "bootstra": 8066,
      "##lorian": 8067,
      "##usole": 8068,
      "rover": 8069,
      "roar": 8070,
      "role": 8071,
      "roster": 8072,
      "robb": 8073,
      "rooted": 8074,
      "rogue": 8075,
      "rotten": 8076,
      "rogers": 8077,
      "royal": 8078,
      "royals": 8079,
      "rooft": 8080,
      "rosalia": 8081,
      "roberts": 8082,
      "como": 8083,
      "commer": 8084,
      "##ilo": 8085,
      "##ilight": 8086,
      "##ilway": 8087,
      "##ilous": 8088,
      "##ishness": 8089,
      "##ishments": 8090,
      "##umpled": 8091,
      "##umented": 8092,
      "##umstances": 8093,
      "##irls": 8094,
      "girlcle": 8095,
      "prank": 8096,
      "hers": 8097,
      "herre": 8098,
      "heres": 8099,
      "herself": 8100,
      "##pper": 8101,
      "##ppie": 8102,
      "wrinkle": 8103,
      "##terns": 8104,
      "hostage": 8105,
      "hovering": 8106,
      "##igence": 8107,
      "##igious": 8108,
      "manage": 8109,
      "handed": 8110,
      "handwritt": 8111,
      "handinhand": 8112,
      "aging": 8113,
      "agency": 8114,
      "aglow": 8115,
      "agonizing": 8116,
      "agents": 8117,
      "betting": 8118,
      "bettеr": 8119,
      "longstanding": 8120,
      "longforgotten": 8121,
      "homeless": 8122,
      "homecoming": 8123,
      "stardom": 8124,
      "wishеs": 8125,
      "##ured": 8126,
      "deere": 8127,
      "deck": 8128,
      "devel": 8129,
      "debt": 8130,
      "deeds": 8131,
      "debut": 8132,
      "degen": 8133,
      "debate": 8134,
      "defeat": 8135,
      "##ists": 8136,
      "##isting": 8137,
      "##istry": 8138,
      "##istant": 8139,
      "##isturize": 8140,
      "coz": 8141,
      "coin": 8142,
      "cole": 8143,
      "covers": 8144,
      "colla": 8145,
      "coax": 8146,
      "coexe": 8147,
      "cobra": 8148,
      "bys": 8149,
      "byline": 8150,
      "byłam": 8151,
      "bygone": 8152,
      "było": 8153,
      "woo": 8154,
      "scent": 8155,
      "scree": 8156,
      "scour": 8157,
      "scott": 8158,
      "scrap": 8159,
      "##ntly": 8160,
      "offense": 8161,
      "offering": 8162,
      "offdanc": 8163,
      "throughout": 8164,
      "mole": 8165,
      "mood": 8166,
      "mozart": 8167,
      "moisturize": 8168,
      "walki": 8169,
      "waits": 8170,
      "##toon": 8171,
      "smoo": 8172,
      "smirk": 8173,
      "dreamy": 8174,
      "paces": 8175,
      "paix": 8176,
      "paced": 8177,
      "pauses": 8178,
      "pacin": 8179,
      "fling": 8180,
      "flat": 8181,
      "flay": 8182,
      "flood": 8183,
      "flag": 8184,
      "flip": 8185,
      "flatter": 8186,
      "flannel": 8187,
      "flutter": 8188,
      "lifeline": 8189,
      "lifelong": 8190,
      "amy": 8191,
      "amnes": 8192,
      "amused": 8193,
      "amongst": 8194,
      "brow": 8195,
      "bride": 8196,
      "brеaking": 8197,
      "brutally": 8198,
      "tray": 8199,
      "troy": 8200,
      "troll": 8201,
      "##ickschemes": 8202,
      "crumble": 8203,
      "crisps": 8204,
      "cradle": 8205,
      "crumpled": 8206,
      "newest": 8207,
      "newfound": 8208,
      "ohohi": 8209,
      "leak": 8210,
      "leaver": 8211,
      "carin": 8212,
      "carved": 8213,
      "carrie": 8214,
      "carwe": 8215,
      "carried": 8216,
      "carlie": 8217,
      "carlile": 8218,
      "caramel": 8219,
      "enters": 8220,
      "enfrent": 8221,
      "encou": 8222,
      "enthus": 8223,
      "##tingly": 8224,
      "##iaway": 8225,
      "##iastic": 8226,
      "forest": 8227,
      "firstgl": 8228,
      "firsthand": 8229,
      "belt": 8230,
      "intoxic": 8231,
      "holdings": 8232,
      "slight": 8233,
      "slips": 8234,
      "slides": 8235,
      "twister": 8236,
      "twitter": 8237,
      "twins": 8238,
      "twinkle": 8239,
      "twelve": 8240,
      "twilight": 8241,
      "twirls": 8242,
      "##ahohoh": 8243,
      "danny": 8244,
      "danielle": 8245,
      "daniel": 8246,
      "endearing": 8247,
      "findings": 8248,
      "channel": 8249,
      "channels": 8250,
      "##ptics": 8251,
      "##ptrippin": 8252,
      "playthings": 8253,
      "singin": 8254,
      "##lessly": 8255,
      "exqu": 8256,
      "exiled": 8257,
      "exhib": 8258,
      "exgirl": 8259,
      "fogs": 8260,
      "foyer": 8261,
      "oldfashion": 8262,
      "leon": 8263,
      "leona": 8264,
      "lebl": 8265,
      "levit": 8266,
      "yearn": 8267,
      "yearning": 8268,
      "immers": 8269,
      "pov": 8270,
      "poems": 8271,
      "pochy": 8272,
      "pobł": 8273,
      "position": 8274,
      "watches": 8275,
      "map": 8276,
      "mai": 8277,
      "mais": 8278,
      "mail": 8279,
      "maple": 8280,
      "mausole": 8281,
      "wellbe": 8282,
      "welllit": 8283,
      "drut": 8284,
      "drake": 8285,
      "faceless": 8286,
      "heading": 8287,
      "headline": 8288,
      "headphones": 8289,
      "arcade": 8290,
      "argum": 8291,
      "arrived": 8292,
      "guarant": 8293,
      "guadal": 8294,
      "hashing": 8295,
      "##beha": 8296,
      "hopeful": 8297,
      "hopefully": 8298,
      "beam": 8299,
      "beams": 8300,
      "oversh": 8301,
      "overlo": 8302,
      "overwh": 8303,
      "overpass": 8304,
      "overrate": 8305,
      "overcorrect": 8306,
      "overbla": 8307,
      "overseas": 8308,
      "peke": 8309,
      "pejic": 8310,
      "driver": 8311,
      "drift": 8312,
      "drifting": 8313,
      "##artment": 8314,
      "contend": 8315,
      "convin": 8316,
      "concent": 8317,
      "consent": 8318,
      "concret": 8319,
      "conclude": 8320,
      "convey": 8321,
      "convertible": 8322,
      "mayer": 8323,
      "##ashes": 8324,
      "shower": 8325,
      "crave": 8326,
      "craft": 8327,
      "tracing": 8328,
      "tractor": 8329,
      "tracе": 8330,
      "traktuje": 8331,
      "began": 8332,
      "begged": 8333,
      "plaid": 8334,
      "##ucham": 8335,
      "friendship": 8336,
      "naaa": 8337,
      "afar": 8338,
      "afford": 8339,
      "aftere": 8340,
      "perign": 8341,
      "perilous": 8342,
      "phase": 8343,
      "phair": 8344,
      "phys": 8345,
      "phases": 8346,
      "##redict": 8347,
      "asks": 8348,
      "onceup": 8349,
      "funeral": 8350,
      "burnin": 8351,
      "##ugging": 8352,
      "##ouring": 8353,
      "believable": 8354,
      "##izon": 8355,
      "##izens": 8356,
      "##izational": 8357,
      "realise": 8358,
      "realign": 8359,
      "soros": 8360,
      "##psen": 8361,
      "##psody": 8362,
      "meets": 8363,
      "meetis": 8364,
      "##assination": 8365,
      "underval": 8366,
      "undercut": 8367,
      "##osity": 8368,
      "##osaur": 8369,
      "windsh": 8370,
      "harsh": 8371,
      "harold": 8372,
      "harvest": 8373,
      "harlow": 8374,
      "gaze": 8375,
      "gabri": 8376,
      "gaga": 8377,
      "##zyma": 8378,
      "##upable": 8379,
      "leftwich": 8380,
      "quake": 8381,
      "quote": 8382,
      "quik": 8383,
      "qualified": 8384,
      "quotes": 8385,
      "sorrywh": 8386,
      "##uded": 8387,
      "##udible": 8388,
      "##udges": 8389,
      "##ughing": 8390,
      "greed": 8391,
      "greta": 8392,
      "##ires": 8393,
      "bluegrass": 8394,
      "dreamsench": 8395,
      "hateful": 8396,
      "redbone": 8397,
      "redhead": 8398,
      "redeeming": 8399,
      "skit": 8400,
      "skips": 8401,
      "skirts": 8402,
      "skrillex": 8403,
      "roommate": 8404,
      "darkened": 8405,
      "mused": 8406,
      "muscle": 8407,
      "sunlight": 8408,
      "sunken": 8409,
      "streetdown": 8410,
      "biggest": 8411,
      "operations": 8412,
      "storys": 8413,
      "storybo": 8414,
      "storyyou": 8415,
      "reader": 8416,
      "elabor": 8417,
      "eliminate": 8418,
      "tones": 8419,
      "##shot": 8420,
      "hardcore": 8421,
      "##next": 8422,
      "##necess": 8423,
      "##rovis": 8424,
      "##sons": 8425,
      "##sonville": 8426,
      "partner": 8427,
      "partners": 8428,
      "particular": 8429,
      "memph": 8430,
      "kindness": 8431,
      "lessen": 8432,
      "release": 8433,
      "related": 8434,
      "relax": 8435,
      "because06": 8436,
      "midas": 8437,
      "midland": 8438,
      "moms": 8439,
      "verge": 8440,
      "verbal": 8441,
      "##xton": 8442,
      "guessin": 8443,
      "guessing": 8444,
      "guessed": 8445,
      "glove": 8446,
      "gleam": 8447,
      "glimmer": 8448,
      "gleeful": 8449,
      "bloodshould": 8450,
      "reply": 8451,
      "repair": 8452,
      "reports": 8453,
      "repurposed": 8454,
      "whoaoh": 8455,
      "crystal": 8456,
      "painful": 8457,
      "##aching": 8458,
      "##ached": 8459,
      "higher": 8460,
      "highlight": 8461,
      "togetherthis": 8462,
      "lyin": 8463,
      "lyrica": 8464,
      "##agam": 8465,
      "column": 8466,
      "colouring": 8467,
      "septembers": 8468,
      "##ordinary": 8469,
      "##ademy": 8470,
      "proving": 8471,
      "process": 8472,
      "proje": 8473,
      "proced": 8474,
      "provide": 8475,
      "provid": 8476,
      "profile": 8477,
      "provoking": 8478,
      "winestained": 8479,
      "emails": 8480,
      "emotions": 8481,
      "augustine": 8482,
      "tapest": 8483,
      "taebo": 8484,
      "tastes": 8485,
      "troubles": 8486,
      "insides": 8487,
      "insisting": 8488,
      "sleeps": 8489,
      "sleepers": 8490,
      "hurl": 8491,
      "hurls": 8492,
      "##moored": 8493,
      "promotion": 8494,
      "promessa": 8495,
      "screamin": 8496,
      "momento": 8497,
      "honeylike": 8498,
      "honeybee": 8499,
      "honeysuck": 8500,
      "marc": 8501,
      "maria": 8502,
      "maroney": 8503,
      "mario": 8504,
      "marian": 8505,
      "marching": 8506,
      "marjor": 8507,
      "picks": 8508,
      "magnes": 8509,
      "maggie": 8510,
      "daring": 8511,
      "grounded": 8512,
      "wary": 8513,
      "##arettes": 8514,
      "##arently": 8515,
      "shinier": 8516,
      "listens": 8517,
      "listеn": 8518,
      "cheater": 8519,
      "chegue": 8520,
      "##ughters": 8521,
      "steer": 8522,
      "stepped": 8523,
      "steinfe": 8524,
      "calmer": 8525,
      "pretends": 8526,
      "sweetie": 8527,
      "acid": 8528,
      "accom": 8529,
      "accent": 8530,
      "accomm": 8531,
      "academy": 8532,
      "gameking": 8533,
      "messaged": 8534,
      "messaging": 8535,
      "unease": 8536,
      "unint": 8537,
      "uncom": 8538,
      "unbr": 8539,
      "uncle": 8540,
      "unlike": 8541,
      "unrec": 8542,
      "unwit": 8543,
      "unregul": 8544,
      "unravel": 8545,
      "uniaway": 8546,
      "unnecess": 8547,
      "unmoored": 8548,
      "##play": 8549,
      "##planes": 8550,
      "##plishments": 8551,
      "metal": 8552,
      "signals": 8553,
      "trim": 8554,
      "tries": 8555,
      "triump": 8556,
      "tricked": 8557,
      "trivial": 8558,
      "tribulations": 8559,
      "trixie": 8560,
      "triptrippin": 8561,
      "##ipes": 8562,
      "##vors": 8563,
      "frontier": 8564,
      "frontfac": 8565,
      "songsbops": 8566,
      "pasture": 8567,
      "helpless": 8568,
      "helpful": 8569,
      "graff": 8570,
      "grainy": 8571,
      "graciously": 8572,
      "grammer": 8573,
      "mustang": 8574,
      "##ierz": 8575,
      "carey": 8576,
      "security": 8577,
      "articles": 8578,
      "##izeyou": 8579,
      "owns": 8580,
      "owner": 8581,
      "lotion": 8582,
      "coldplay": 8583,
      "passes": 8584,
      "passwords": 8585,
      "clearer": 8586,
      "braver": 8587,
      "brace": 8588,
      "braun": 8589,
      "brakes": 8590,
      "brains": 8591,
      "bravado": 8592,
      "snippet": 8593,
      "##integ": 8594,
      "##ensus": 8595,
      "favorable": 8596,
      "scary": 8597,
      "daze": 8598,
      "dabb": 8599,
      "daily": 8600,
      "daisies": 8601,
      "daughters": 8602,
      "growth": 8603,
      "##dychasz": 8604,
      "losin": 8605,
      "loser": 8606,
      "loses": 8607,
      "recurring": 8608,
      "reconne": 8609,
      "recipes": 8610,
      "tilted": 8611,
      "curate": 8612,
      "curled": 8613,
      "curren": 8614,
      "currents": 8615,
      "curls": 8616,
      "curios": 8617,
      "curliest": 8618,
      "curfew": 8619,
      "financ": 8620,
      "pulls": 8621,
      "tennis": 8622,
      "tenerife": 8623,
      "illness": 8624,
      "illusion": 8625,
      "illenium": 8626,
      "morе": 8627,
      "morisse": 8628,
      "freefall": 8629,
      "##ietym": 8630,
      "##ressed": 8631,
      "partynext": 8632,
      "killin": 8633,
      "suff": 8634,
      "subur": 8635,
      "suavity": 8636,
      "sufj": 8637,
      "subject": 8638,
      "##qued": 8639,
      "##quakes": 8640,
      "##quently": 8641,
      "##quila": 8642,
      "##quickschemes": 8643,
      "sparkin": 8644,
      "sparkly": 8645,
      "belonged": 8646,
      "actin": 8647,
      "action": 8648,
      "raw": 8649,
      "raging": 8650,
      "races": 8651,
      "raise": 8652,
      "racing": 8653,
      "rafters": 8654,
      "railway": 8655,
      "rapper": 8656,
      "##rical": 8657,
      "##mentor": 8658,
      "alrightx": 8659,
      "deceitful": 8660,
      "desse": 8661,
      "desolate": 8662,
      "draining": 8663,
      "idina": 8664,
      "mmade": 8665,
      "misty": 8666,
      "teams": 8667,
      "teaching": 8668,
      "teaches": 8669,
      "##onda": 8670,
      "##onding": 8671,
      "grin": 8672,
      "grant": 8673,
      "grade": 8674,
      "grinning": 8675,
      "granted": 8676,
      "gritand": 8677,
      "granting": 8678,
      "gratitude": 8679,
      "grasp": 8680,
      "griddle": 8681,
      "grateful": 8682,
      "grudges": 8683,
      "silencing": 8684,
      "trent": 8685,
      "treated": 8686,
      "treating": 8687,
      "trellis": 8688,
      "tremendous": 8689,
      "##phony": 8690,
      "barriers": 8691,
      "welcomed": 8692,
      "morningsid": 8693,
      "brightest": 8694,
      "daddys": 8695,
      "decemberap": 8696,
      "discer": 8697,
      "disbel": 8698,
      "disposition": 8699,
      "disarming": 8700,
      "disinteg": 8701,
      "deeper": 8702,
      "radiant": 8703,
      "##asty": 8704,
      "##astating": 8705,
      "adam": 8706,
      "adult": 8707,
      "adams": 8708,
      "advoc": 8709,
      "advant": 8710,
      "awe": 8711,
      "aww": 8712,
      "deadlines": 8713,
      "##yszcz": 8714,
      "beats": 8715,
      "dropping": 8716,
      "training": 8717,
      "crimes": 8718,
      "crimin": 8719,
      "criados": 8720,
      "edges": 8721,
      "edgеs": 8722,
      "indie": 8723,
      "indiv": 8724,
      "trusting": 8725,
      "slower": 8726,
      "##anek": 8727,
      "haunts": 8728,
      "happenstance": 8729,
      "unto": 8730,
      "untrue": 8731,
      "decent": 8732,
      "declined": 8733,
      "decision": 8734,
      "deciding": 8735,
      "figurative": 8736,
      "miranda": 8737,
      "##mani": 8738,
      "throws": 8739,
      "strip": 8740,
      "stripe": 8741,
      "referring": 8742,
      "cleaned": 8743,
      "appeared": 8744,
      "appetite": 8745,
      "apparently": 8746,
      "simon": 8747,
      "simples": 8748,
      "takedown": 8749,
      "##rophone": 8750,
      "whisky": 8751,
      "whiskers": 8752,
      "fairies": 8753,
      "fairwe": 8754,
      "demoed": 8755,
      "trucks": 8756,
      "checks": 8757,
      "##anced": 8758,
      "##ancut": 8759,
      "airport": 8760,
      "airborn": 8761,
      "airplanes": 8762,
      "buys": 8763,
      "keith": 8764,
      "keaton": 8765,
      "minaj": 8766,
      "rounding": 8767,
      "surrender": 8768,
      "chocol": 8769,
      "thanking": 8770,
      "thankfully": 8771,
      "loudly": 8772,
      "bitten": 8773,
      "catches": 8774,
      "catchiest": 8775,
      "ringin": 8776,
      "##aware": 8777,
      "##awiła": 8778,
      "##stein": 8779,
      "halls": 8780,
      "remain": 8781,
      "remaining": 8782,
      "movements": 8783,
      "fellow": 8784,
      "gardеn": 8785,
      "swears": 8786,
      "contribute": 8787,
      "radioact": 8788,
      "##gerald": 8789,
      "princip": 8790,
      "princе": 8791,
      "prinslo": 8792,
      "greenhouse": 8793,
      "differences": 8794,
      "views": 8795,
      "viewed": 8796,
      "interwo": 8797,
      "interstate": 8798,
      "intermiss": 8799,
      "bandage": 8800,
      "outsides": 8801,
      "outspoken": 8802,
      "##ologizeyou": 8803,
      "##ultation": 8804,
      "brokenness": 8805,
      "creak": 8806,
      "creaking": 8807,
      "creating": 8808,
      "crescent": 8809,
      "jean": 8810,
      "jepsen": 8811,
      "##cernible": 8812,
      "stranded": 8813,
      "stracic": 8814,
      "tiedso": 8815,
      "faithforgotten": 8816,
      "complained": 8817,
      "complaints": 8818,
      "diving": 8819,
      "divid": 8820,
      "ridicul": 8821,
      "territ": 8822,
      "terror": 8823,
      "assim": 8824,
      "assign": 8825,
      "assistant": 8826,
      "assassination": 8827,
      "spots": 8828,
      "spotify": 8829,
      "impatient": 8830,
      "impulsiven": 8831,
      "improvis": 8832,
      "mirrors": 8833,
      "mirrored": 8834,
      "hangout": 8835,
      "prix": 8836,
      "primad": 8837,
      "pola": 8838,
      "polish": 8839,
      "polished": 8840,
      "poleruje": 8841,
      "##borators": 8842,
      "behati": 8843,
      "spells": 8844,
      "spellbind": 8845,
      "straighten": 8846,
      "blended": 8847,
      "blemish": 8848,
      "honored": 8849,
      "merlot": 8850,
      "persuade": 8851,
      "##inacao": 8852,
      "prayers": 8853,
      "secondhand": 8854,
      "sneakers": 8855,
      "recordla": 8856,
      "ruinach": 8857,
      "princesses": 8858,
      "studios": 8859,
      "childish": 8860,
      "childlike": 8861,
      "supplement": 8862,
      "gorgeously": 8863,
      "hunna": 8864,
      "hunger": 8865,
      "rulings": 8866,
      "imagery": 8867,
      "imaginacao": 8868,
      "confine": 8869,
      "confided": 8870,
      "confusion": 8871,
      "confidence": 8872,
      "angelo": 8873,
      "angelinas": 8874,
      "fairytales": 8875,
      "fewer": 8876,
      "mixture": 8877,
      "matters": 8878,
      "normani": 8879,
      "riot": 8880,
      "riviera": 8881,
      "resident": 8882,
      "reserv": 8883,
      "reserved": 8884,
      "saturday": 8885,
      "satires": 8886,
      "##azam": 8887,
      "##azli": 8888,
      "lovesong": 8889,
      "dollar": 8890,
      "planes": 8891,
      "cardboard": 8892,
      "footage": 8893,
      "footnot": 8894,
      "dragging": 8895,
      "dragoes": 8896,
      "distress": 8897,
      "distinction": 8898,
      "frequently": 8899,
      "filme": 8900,
      "lowers": 8901,
      "object": 8902,
      "obliv": 8903,
      "obstac": 8904,
      "porter": 8905,
      "pushes": 8906,
      "pushback": 8907,
      "romanek": 8908,
      "melted": 8909,
      "melook": 8910,
      "melodic": 8911,
      "##icals": 8912,
      "spectator": 8913,
      "flowed": 8914,
      "legs": 8915,
      "legacy": 8916,
      "aiko": 8917,
      "joan": 8918,
      "joel": 8919,
      "jobs": 8920,
      "joining": 8921,
      "jotted": 8922,
      "ruthly": 8923,
      "##aahh": 8924,
      "##aahha": 8925,
      "##ujac": 8926,
      "##ensely": 8927,
      "solution": 8928,
      "revenue": 8929,
      "candice": 8930,
      "packaged": 8931,
      "warmth": 8932,
      "warmest": 8933,
      "dyingit": 8934,
      "payche": 8935,
      "rumor": 8936,
      "rumble": 8937,
      "rumplet": 8938,
      "##ailable": 8939,
      "##looking": 8940,
      "##balls": 8941,
      "conversations": 8942,
      "terrible": 8943,
      "persona": 8944,
      "personally": 8945,
      "cougar": 8946,
      "douse": 8947,
      "doubts": 8948,
      "fieldbut": 8949,
      "loneliness": 8950,
      "powers": 8951,
      "powraca": 8952,
      "##ception": 8953,
      "attribute": 8954,
      "attaining": 8955,
      "attached": 8956,
      "competition": 8957,
      "defuse": 8958,
      "ohohohoh": 8959,
      "ohohohii": 8960,
      "flawlessly": 8961,
      "fansnot": 8962,
      "genres": 8963,
      "oceans": 8964,
      "tyler": 8965,
      "tylе": 8966,
      "##nerable": 8967,
      "##lai": 8968,
      "##laim": 8969,
      "##laces": 8970,
      "##ronomically": 8971,
      "##hows": 8972,
      "threaten": 8973,
      "lipa": 8974,
      "knowingness": 8975,
      "blinding": 8976,
      "devastating": 8977,
      "discuss": 8978,
      "escaping": 8979,
      "escapism": 8980,
      "detract": 8981,
      "earned": 8982,
      "framed": 8983,
      "fatefully": 8984,
      "horizon": 8985,
      "miscon": 8986,
      "misread": 8987,
      "misfit": 8988,
      "miscond": 8989,
      "mischief": 8990,
      "misbeha": 8991,
      "##ivate": 8992,
      "##ivalent": 8993,
      "##letons": 8994,
      "##uals": 8995,
      "##imentation": 8996,
      "booking": 8997,
      "booked": 8998,
      "engine": 8999,
      "english": 9000,
      "engaged": 9001,
      "ahaahaahaah": 9002,
      "crawled": 9003,
      "countryand": 9004,
      "bravely": 9005,
      "seventeenyearold": 9006,
      "paranoia": 9007,
      "parkеd": 9008,
      "text": 9009,
      "texture": 9010,
      "technolog": 9011,
      "tequila": 9012,
      "wrabel": 9013,
      "##brant": 9014,
      "##bruary": 9015,
      "kneedeep": 9016,
      "shorties": 9017,
      "shortcut": 9018,
      "shortened": 9019,
      "screens": 9020,
      "account": 9021,
      "acclaim": 9022,
      "brandi": 9023,
      "twentyfive": 9024,
      "005": 9025,
      "000s": 9026,
      "basic": 9027,
      "baseless": 9028,
      "deny": 9029,
      "flex": 9030,
      "fixation": 9031,
      "layers": 9032,
      "motor": 9033,
      "motel": 9034,
      "motivate": 9035,
      "mattel": 9036,
      "sylvan": 9037,
      "serca": 9038,
      "servе": 9039,
      "serayah": 9040,
      "##gojer": 9041,
      "cheek": 9042,
      "charm": 9043,
      "charmers": 9044,
      "charttopping": 9045,
      "selfie": 9046,
      "selfres": 9047,
      "selfimp": 9048,
      "selfpro": 9049,
      "selftit": 9050,
      "selfesteem": 9051,
      "selfishness": 9052,
      "selfaware": 9053,
      "exception": 9054,
      "recognition": 9055,
      "curses": 9056,
      "apologies": 9057,
      "apologizing": 9058,
      "billy": 9059,
      "bullies": 9060,
      "fullon": 9061,
      "smelly": 9062,
      "valves": 9063,
      "##jeła": 9064,
      "intention": 9065,
      "intently": 9066,
      "intrins": 9067,
      "intuition": 9068,
      "intrigue": 9069,
      "intensely": 9070,
      "blocked": 9071,
      "classics": 9072,
      "classroom": 9073,
      "heartbeats": 9074,
      "sugarland": 9075,
      "achar": 9076,
      "dinosaur": 9077,
      "element": 9078,
      "hushed": 9079,
      "lorde": 9080,
      "nearer": 9081,
      "searched": 9082,
      "vibrant": 9083,
      "verses": 9084,
      "widely": 9085,
      "includ": 9086,
      "incorrect": 9087,
      "inclusion": 9088,
      "increas": 9089,
      "incandescent": 9090,
      "shares": 9091,
      "##adelos": 9092,
      "cloud": 9093,
      "prodigious": 9094,
      "excuse": 9095,
      "exclud": 9096,
      "excuses": 9097,
      "exclus": 9098,
      "excruc": 9099,
      "explore": 9100,
      "expected": 9101,
      "sidewalks": 9102,
      "actresses": 9103,
      "adding": 9104,
      "innocently": 9105,
      "cruelest": 9106,
      "questioned": 9107,
      "benefit": 9108,
      "fiveyearold": 9109,
      "gunfight": 9110,
      "gunshot": 9111,
      "popped": 9112,
      "popcorn": 9113,
      "witam": 9114,
      "reached": 9115,
      "clubs": 9116,
      "twists": 9117,
      "continues": 9118,
      "produce": 9119,
      "production": 9120,
      "autorze": 9121,
      "cataly": 9122,
      "catalog": 9123,
      "cases": 9124,
      "casual": 9125,
      "joking": 9126,
      "jokers": 9127,
      "menzel": 9128,
      "meninos": 9129,
      "oczyma": 9130,
      "palms": 9131,
      "palace": 9132,
      "pathway": 9133,
      "sleigh": 9134,
      "sisterhood": 9135,
      "tomb": 9136,
      "becasue": 9137,
      "cabs": 9138,
      "cabin": 9139,
      "##ittered": 9140,
      "atlas": 9141,
      "angles": 9142,
      "critical": 9143,
      "critics": 9144,
      "critiq": 9145,
      "concert": 9146,
      "concerns": 9147,
      "glasses": 9148,
      "##ography": 9149,
      "weeknd": 9150,
      "weekly": 9151,
      "obsolete": 9152,
      "doubtful": 9153,
      "generous": 9154,
      "generosity": 9155,
      "fireflycatch": 9156,
      "folklorian": 9157,
      "controls": 9158,
      "celebs": 9159,
      "burst": 9160,
      "buried": 9161,
      "humor": 9162,
      "humble": 9163,
      "humans": 9164,
      "humming": 9165,
      "jakl": 9166,
      "therе": 9167,
      "##reserv": 9168,
      "medos": 9169,
      "infant": 9170,
      "informed": 9171,
      "infidel": 9172,
      "sticks": 9173,
      "strawberries": 9174,
      "recalling": 9175,
      "##entional": 9176,
[...]
