{
  "version": "1.0",
  "truncation": null,
  "padding": null,
  "added_tokens": [
    {
      "id": 0,
      "content": "[UNK]",
      "single_word": false,
      "lstrip": false,
      "rstrip": false,
      "normalized": false,
      "special": true
    },
    {
      "id": 1,
      "content": "[CLS]",
      "single_word": false,
      "lstrip": false,
      "rstrip": false,
      "normalized": false,
      "special": true
    },
    {
      "id": 2,
      "content": "[SEP]",
      "single_word": false,
      "lstrip": false,
      "rstrip": false,
      "normalized": false,
      "special": true
    },
    {
      "id": 3,
      "content": "[PAD]",
      "single_word": false,
      "lstrip": false,
      "rstrip": false,
      "normalized": false,
      "special": true
    },
    {
      "id": 4,
      "content": "[MASK]",
      "single_word": false,
      "lstrip": false,
      "rstrip": false,
      "normalized": false,
      "special": true
    }
  ],
  "normalizer": {
    "type": "Sequence",
    "normalizers": [
      {
        "type": "NFD"
      },
      {
        "type": "Lowercase"
      },
      {
        "type": "StripAccents"
      }
    ]
  },
  "pre_tokenizer": {
    "type": "BertPreTokenizer"
  },
  "post_processor": null,
  "decoder": {
    "type": "WordPiece",
    "prefix": "##",
    "cleanup": true
  },
  "model": {
    "type": "WordPiece",
    "unk_token": "[UNK]",
    "continuing_subword_prefix": "##",
    "max_input_chars_per_word": 100,
    "vocab": {
      "[UNK]": 0,
      "[CLS]": 1,
      "[SEP]": 2,
      "[PAD]": 3,
      "[MASK]": 4,
      "!": 5,
      "\"": 6,
      "$": 7,
      "%": 8,
      "&": 9,
      "'": 10,
      "+": 11,
      ",": 12,
      "-": 13,
      ".": 14,
      "/": 15,
      "0": 16,
      "1": 17,
      "2": 18,
      "3": 19,
      "4": 20,
      "5": 21,
      "6": 22,
      "7": 23,
      "8": 24,
      "9": 25,
      ":": 26,
      ";": 27,
      "?": 28,
      "a": 29,
      "b": 30,
      "c": 31,
      "d": 32,
      "e": 33,
      "f": 34,
      "g": 35,
      "h": 36,
      "i": 37,
      "j": 38,
      "k": 39,
      "l": 40,
      "m": 41,
      "n": 42,
      "o": 43,
      "p": 44,
      "q": 45,
      "r": 46,
      "s": 47,
      "t": 48,
      "u": 49,
      "v": 50,
      "w": 51,
      "x": 52,
      "y": 53,
      "z": 54,
      "­": 55,
      "º": 56,
      "а": 57,
      "–": 58,
      "—": 59,
      "‘": 60,
      "’": 61,
      "₂": 62,
      "€": 63,
      "##n": 64,
      "##f": 65,
      "##o": 66,
      "##t": 67,
      "##a": 68,
      "##c": 69,
      "##h": 70,
      "##m": 71,
      "##e": 72,
      "##s": 73,
      "##p": 74,
      "##i": 75,
      "##r": 76,
      "##y": 77,
      "##k": 78,
      "##u": 79,
      "##g": 80,
      "##d": 81,
      "##z": 82,
      "##l": 83,
      "##v": 84,
      "##w": 85,
      "##x": 86,
      "##q": 87,
      "##b": 88,
      "##0": 89,
      "##2": 90,
      "##3": 91,
      "##5": 92,
      "##8": 93,
      "##j": 94,
      "##9": 95,
      "##6": 96,
      "##1": 97,
      "##4": 98,
      "##7": 99,
      "##­": 100,
      "##₂": 101,
      "##а": 102,
      "##º": 103,
      "##ou": 104,
      "th": 105,
      "to": 106,
      "you": 107,
      "##er": 108,
      "##in": 109,
      "the": 110,
      "##at": 111,
      "##on": 112,
      "##an": 113,
      "##ed": 114,
      "##ing": 115,
      "##re": 116,
      "##is": 117,
      "##en": 118,
      "##or": 119,
      "##ll": 120,
      "##as": 121,
      "##ve": 122,
      "wh": 123,
      "##ar": 124,
      "##es": 125,
      "do": 126,
      "he": 127,
      "is": 128,
      "##ow": 129,
      "ha": 130,
      "##th": 131,
      "be": 132,
      "##om": 133,
      "tom": 134,
      "that": 135,
      "it": 136,
      "re": 137,
      "in": 138,
      "##ay": 139,
      "##id": 140,
      "of": 141,
      "##ld": 142,
      "##le": 143,
      "we": 144,
      "##ere": 145,
      "me": 146,
      "##ot": 147,
      "sh": 148,
      "an": 149,
      "##ke": 150,
      "don": 151,
      "this": 152,
      "li": 153,
      "##et": 154,
      "##st": 155,
      "was": 156,
      "have": 157,
      "go": 158,
      "##gh": 159,
      "on": 160,
      "##im": 161,
      "st": 162,
      "##ch": 163,
      "wi": 164,
      "for": 165,
      "##ant": 166,
      "what": 167,
      "##it": 168,
      "my": 169,
      "can": 170,
      "are": 171,
      "your": 172,
      "##ic": 173,
      "##ome": 174,
      "##ver": 175,
      "##ould": 176,
      "##ut": 177,
      "want": 178,
      "##se": 179,
      "ne": 180,
      "##ght": 181,
      "did": 182,
      "##oo": 183,
      "##al": 184,
      "kn": 185,
      "##ad": 186,
      "she": 187,
      "not": 188,
      "##ent": 189,
      "know": 190,
      "##ee": 191,
      "##ter": 192,
      "##ly": 193,
      "with": 194,
      "##ur": 195,
      "like": 196,
      "##ri": 197,
      "##all": 198,
      "##ir": 199,
      "##pp": 200,
      "##ink": 201,
      "##one": 202,
      "##ion": 203,
      "at": 204,
      "as": 205,
      "##am": 206,
      "##ust": 207,
      "##ce": 208,
      "they": 209,
      "all": 210,
      "##thing": 211,
      "##ook": 212,
      "no": 213,
      "his": 214,
      "##ea": 215,
      "think": 216,
      "su": 217,
      "ab": 218,
      "##ro": 219,
      "##ain": 220,
      "##ight": 221,
      "how": 222,
      "##ake": 223,
      "any": 224,
      "##ct": 225,
      "ch": 226,
      "##out": 227,
      "some": 228,
      "##od": 229,
      "tr": 230,
      "him": 231,
      "wor": 232,
      "##ore": 233,
      "there": 234,
      "ll": 235,
      "tim": 236,
      "so": 237,
      "##est": 238,
      "ve": 239,
      "get": 240,
      "##ck": 241,
      "##nd": 242,
      "##op": 243,
      "ever": 244,
      "al": 245,
      "and": 246,
      "##ther": 247,
      "##end": 248,
      "time": 249,
      "about": 250,
      "here": 251,
      "##ell": 252,
      "##ery": 253,
      "##and": 254,
      "very": 255,
      "didn": 256,
      "##us": 257,
      "see": 258,
      "##ge": 259,
      "##ally": 260,
      "her": 261,
      "##ong": 262,
      "us": 263,
      "sp": 264,
      "##un": 265,
      "out": 266,
      "will": 267,
      "##ind": 268,
      "were": 269,
      "up": 270,
      "mar": 271,
      "had": 272,
      "every": 273,
      "one": 274,
      "##ble": 275,
      "ex": 276,
      "need": 277,
      "would": 278,
      "pl": 279,
      "happ": 280,
      "if": 281,
      "why": 282,
      "has": 283,
      "lo": 284,
      "##ul": 285,
      "##ate": 286,
      "just": 287,
      "##ive": 288,
      "who": 289,
      "##ry": 290,
      "let": 291,
      "##alk": 292,
      "going": 293,
      "should": 294,
      "look": 295,
      "sa": 296,
      "could": 297,
      "##ast": 298,
      "fr": 299,
      "##il": 300,
      "##ard": 301,
      "##day": 302,
      "en": 303,
      "##ase": 304,
      "bo": 305,
      "tell": 306,
      "good": 307,
      "##ish": 308,
      "hel": 309,
      "##ie": 310,
      "de": 311,
      "help": 312,
      "##ame": 313,
      "too": 314,
      "##ist": 315,
      "##are": 316,
      "##art": 317,
      "work": 318,
      "does": 319,
      "mary": 320,
      "##ice": 321,
      "com": 322,
      "##ess": 323,
      "##ear": 324,
      "man": 325,
      "##ill": 326,
      "when": 327,
      "##ath": 328,
      "ple": 329,
      "##ak": 330,
      "than": 331,
      "come": 332,
      "really": 333,
      "where": 334,
      "##ss": 335,
      "from": 336,
      "con": 337,
      "by": 338,
      "##ought": 339,
      "ag": 340,
      "##ays": 341,
      "co": 342,
      "##lf": 343,
      "talk": 344,
      "pro": 345,
      "##ff": 346,
      "please": 347,
      "##ack": 348,
      "mo": 349,
      "am": 350,
      "se": 351,
      "##ation": 352,
      "now": 353,
      "##ers": 354,
      "been": 355,
      "##riend": 356,
      "qu": 357,
      "never": 358,
      "take": 359,
      "##lo": 360,
      "##ous": 361,
      "##ra": 362,
      "more": 363,
      "got": 364,
      "##ren": 365,
      "##ree": 366,
      "mu": 367,
      "po": 368,
      "something": 369,
      "ask": 370,
      "##row": 371,
      "##wn": 372,
      "##ap": 373,
      "but": 374,
      "##ven": 375,
      "happen": 376,
      "wr": 377,
      "##ound": 378,
      "##fe": 379,
      "home": 380,
      "##ig": 381,
      "##nt": 382,
      "##ort": 383,
      "ar": 384,
      "car": 385,
      "stu": 386,
      "eat": 387,
      "di": 388,
      "much": 389,
      "make": 390,
      "say": 391,
      "read": 392,
      "af": 393,
      "off": 394,
      "hou": 395,
      "##ine": 396,
      "won": 397,
      "friend": 398,
      "##mp": 399,
      "pr": 400,
      "##ather": 401,
      "right": 402,
      "##au": 403,
      "pre": 404,
      "##eel": 405,
      "jo": 406,
      "long": 407,
      "ro": 408,
      "##ite": 409,
      "##mb": 410,
      "##oney": 411,
      "##ody": 412,
      "feel": 413,
      "money": 414,
      "le": 415,
      "last": 416,
      "exp": 417,
      "book": 418,
      "new": 419,
      "##ved": 420,
      "thought": 421,
      "##self": 422,
      "bet": 423,
      "back": 424,
      "##tt": 425,
      "bus": 426,
      "ad": 427,
      "##body": 428,
      "mad": 429,
      "day": 430,
      "anything": 431,
      "##nder": 432,
      "give": 433,
      "##ough": 434,
      "thing": 435,
      "bu": 436,
      "sure": 437,
      "love": 438,
      "bel": 439,
      "##ful": 440,
      "wat": 441,
      "lea": 442,
      "lot": 443,
      "told": 444,
      "##ect": 445,
      "pe": 446,
      "##ool": 447,
      "fa": 448,
      "sm": 449,
      "##ild": 450,
      "##ass": 451,
      "##ure": 452,
      "doesn": 453,
      "our": 454,
      "##ried": 455,
      "under": 456,
      "again": 457,
      "or": 458,
      "##ep": 459,
      "##ning": 460,
      "##ft": 461,
      "##ople": 462,
      "##ang": 463,
      "people": 464,
      "un": 465,
      "##eak": 466,
      "##ew": 467,
      "ac": 468,
      "must": 469,
      "dr": 470,
      "##ick": 471,
      "old": 472,
      "comp": 473,
      "speak": 474,
      "made": 475,
      "today": 476,
      "stay": 477,
      "way": 478,
      "may": 479,
      "wa": 480,
      "said": 481,
      "try": 482,
      "call": 483,
      "##ag": 484,
      "stud": 485,
      "many": 486,
      "int": 487,
      "belie": 488,
      "care": 489,
      "##ving": 490,
      "still": 491,
      "leave": 492,
      "doing": 493,
      "tw": 494,
      "year": 495,
      "##ach": 496,
      "wait": 497,
      "sch": 498,
      "only": 499,
      "went": 500,
      "better": 501,
      "##ide": 502,
      "happy": 503,
      "house": 504,
      "##ways": 505,
      "##orrow": 506,
      "always": 507,
      "gu": 508,
      "##rench": 509,
      "##ting": 510,
      "french": 511,
      "isn": 512,
      "tea": 513,
      "believe": 514,
      "clo": 515,
      "play": 516,
      "night": 517,
      "room": 518,
      "##ue": 519,
      "##urn": 520,
      "##ood": 521,
      "them": 522,
      "rem": 523,
      "child": 524,
      "##fore": 525,
      "over": 526,
      "before": 527,
      "##mber": 528,
      "aw": 529,
      "after": 530,
      "job": 531,
      "school": 532,
      "app": 533,
      "##ress": 534,
      "hand": 535,
      "hard": 536,
      "##eep": 537,
      "##ave": 538,
      "down": 539,
      "bro": 540,
      "yes": 541,
      "##able": 542,
      "dis": 543,
      "##ttle": 544,
      "little": 545,
      "##ol": 546,
      "op": 547,
      "##ope": 548,
      "##age": 549,
      "live": 550,
      "well": 551,
      "##iss": 552,
      "##blem": 553,
      "problem": 554,
      "part": 555,
      "##ten": 556,
      "whi": 557,
      "everything": 558,
      "underst": 559,
      "##ired": 560,
      "ear": 561,
      "wanted": 562,
      "dog": 563,
      "##os": 564,
      "father": 565,
      "bec": 566,
      "tomorrow": 567,
      "put": 568,
      "##der": 569,
      "##ity": 570,
      "find": 571,
      "##terday": 572,
      "yesterday": 573,
      "id": 574,
      "left": 575,
      "##ance": 576,
      "plan": 577,
      "other": 578,
      "##leep": 579,
      "sw": 580,
      "##ise": 581,
      "understand": 582,
      "alone": 583,
      "three": 584,
      "##el": 585,
      "##ious": 586,
      "buy": 587,
      "##ab": 588,
      "happened": 589,
      "bl": 590,
      "##ek": 591,
      "imp": 592,
      "##iz": 593,
      "##xt": 594,
      "keep": 595,
      "week": 596,
      "cou": 597,
      "teach": 598,
      "fin": 599,
      "two": 600,
      "##ies": 601,
      "enough": 602,
      "seem": 603,
      "stop": 604,
      "meet": 605,
      "inter": 606,
      "hur": 607,
      "drink": 608,
      "##ted": 609,
      "forg": 610,
      "acc": 611,
      "done": 612,
      "asked": 613,
      "##ence": 614,
      "##estion": 615,
      "diff": 616,
      "##ated": 617,
      "gl": 618,
      "te": 619,
      "cl": 620,
      "these": 621,
      "nothing": 622,
      "friends": 623,
      "saw": 624,
      "##ised": 625,
      "start": 626,
      "sc": 627,
      "##read": 628,
      "into": 629,
      "br": 630,
      "question": 631,
      "##ult": 632,
      "show": 633,
      "res": 634,
      "next": 635,
      "hope": 636,
      "##um": 637,
      "sor": 638,
      "##ary": 639,
      "##ict": 640,
      "sorry": 641,
      "cat": 642,
      "watch": 643,
      "sur": 644,
      "##irst": 645,
      "turn": 646,
      "door": 647,
      "gre": 648,
      "even": 649,
      "##akes": 650,
      "hear": 651,
      "gir": 652,
      "late": 653,
      "walk": 654,
      "busy": 655,
      "##ose": 656,
      "dec": 657,
      "wrong": 658,
      "adv": 659,
      "kind": 660,
      "away": 661,
      "##ember": 662,
      "life": 663,
      "sleep": 664,
      "everyone": 665,
      "##wer": 666,
      "things": 667,
      "first": 668,
      "remember": 669,
      "##ace": 670,
      "eng": 671,
      "mother": 672,
      "##ire": 673,
      "ans": 674,
      "idea": 675,
      "wasn": 676,
      "##ark": 677,
      "##ston": 678,
      "fl": 679,
      "fun": 680,
      "open": 681,
      "anyone": 682,
      "without": 683,
      "##ment": 684,
      "being": 685,
      "list": 686,
      "##aught": 687,
      "soon": 688,
      "boston": 689,
      "gr": 690,
      "mor": 691,
      "bad": 692,
      "looking": 693,
      "children": 694,
      "came": 695,
      "##ci": 696,
      "##ange": 697,
      "years": 698,
      "alread": 699,
      "already": 700,
      "dri": 701,
      "gave": 702,
      "mind": 703,
      "bed": 704,
      "fo": 705,
      "fam": 706,
      "yet": 707,
      "their": 708,
      "couldn": 709,
      "pers": 710,
      "knew": 711,
      "big": 712,
      "answer": 713,
      "took": 714,
      "used": 715,
      "morning": 716,
      "name": 717,
      "rain": 718,
      "str": 719,
      "supp": 720,
      "##ory": 721,
      "use": 722,
      "mon": 723,
      "##ng": 724,
      "mat": 725,
      "ph": 726,
      "tired": 727,
      "##lish": 728,
      "interest": 729,
      "bre": 730,
      "lear": 731,
      "seen": 732,
      "best": 733,
      "att": 734,
      "water": 735,
      "found": 736,
      "mist": 737,
      "##igh": 738,
      "##ily": 739,
      "finish": 740,
      "heard": 741,
      "boy": 742,
      "haven": 743,
      "teacher": 744,
      "aren": 745,
      "##pt": 746,
      "lost": 747,
      "cle": 748,
      "wish": 749,
      "##ket": 750,
      "train": 751,
      "sho": 752,
      "often": 753,
      "same": 754,
      "##ident": 755,
      "ready": 756,
      "el": 757,
      "min": 758,
      "sit": 759,
      "##ible": 760,
      "beg": 761,
      "##ner": 762,
      "act": 763,
      "ten": 764,
      "##arent": 765,
      "##ty": 766,
      "study": 767,
      "##ull": 768,
      "cont": 769,
      "lik": 770,
      "pol": 771,
      "##raid": 772,
      "##mo": 773,
      "afraid": 774,
      "mean": 775,
      "young": 776,
      "##ause": 777,
      "war": 778,
      "##pr": 779,
      "tru": 780,
      "word": 781,
      "eas": 782,
      "per": 783,
      "##aking": 784,
      "person": 785,
      "few": 786,
      "thank": 787,
      "else": 788,
      "miss": 789,
      "yourself": 790,
      "##ac": 791,
      "someone": 792,
      "##ually": 793,
      "run": 794,
      "##gg": 795,
      "cold": 796,
      "sec": 797,
      "##gry": 798,
      "jap": 799,
      "##oy": 800,
      "japan": 801,
      "##aut": 802,
      "pay": 803,
      "##lain": 804,
      "##orm": 805,
      "pain": 806,
      "sing": 807,
      "##ister": 808,
      "party": 809,
      "great": 810,
      "##arents": 811,
      "english": 812,
      "cr": 813,
      "##ail": 814,
      "brother": 815,
      "des": 816,
      "learn": 817,
      "##ied": 818,
      "rep": 819,
      "hour": 820,
      "inv": 821,
      "##ey": 822,
      "count": 823,
      "parents": 824,
      "##air": 825,
      "myself": 826,
      "while": 827,
      "##te": 828,
      "girl": 829,
      "swim": 830,
      "ri": 831,
      "##qu": 832,
      "##ian": 833,
      "talking": 834,
      "glad": 835,
      "student": 836,
      "hurt": 837,
      "bought": 838,
      "matter": 839,
      "rec": 840,
      "minut": 841,
      "##act": 842,
      "wonder": 843,
      "nice": 844,
      "beaut": 845,
      "both": 846,
      "surpr": 847,
      "wants": 848,
      "##ited": 849,
      "letter": 850,
      "listen": 851,
      "food": 852,
      "##cle": 853,
      "around": 854,
      "prom": 855,
      "getting": 856,
      "might": 857,
      "place": 858,
      "hot": 859,
      "##uck": 860,
      "rest": 861,
      "##ip": 862,
      "early": 863,
      "able": 864,
      "##ctor": 865,
      "true": 866,
      "##ream": 867,
      "##ond": 868,
      "##vor": 869,
      "##ince": 870,
      "everybody": 871,
      "sister": 872,
      "##ared": 873,
      "##other": 874,
      "che": 875,
      "because": 876,
      "knows": 877,
      "married": 878,
      "##inner": 879,
      "another": 880,
      "those": 881,
      "looks": 882,
      "##ced": 883,
      "##ert": 884,
      "##ret": 885,
      "expect": 886,
      "which": 887,
      "##mm": 888,
      "wind": 889,
      "such": 890,
      "own": 891,
      "tried": 892,
      "##ph": 893,
      "##most": 894,
      "ser": 895,
      "##night": 896,
      "wouldn": 897,
      "beauti": 898,
      "far": 899,
      "break": 900,
      "beautiful": 901,
      "##more": 902,
      "write": 903,
      "anymore": 904,
      "almost": 905,
      "meeting": 906,
      "doctor": 907,
      "mov": 908,
      "la": 909,
      "##joy": 910,
      "met": 911,
      "##ign": 912,
      "once": 913,
      "truth": 914,
      "##ize": 915,
      "enjoy": 916,
      "days": 917,
      "##pped": 918,
      "arri": 919,
      "##ud": 920,
      "##cess": 921,
      "coff": 922,
      "##les": 923,
      "##oud": 924,
      "pass": 925,
      "most": 926,
      "vis": 927,
      "dinner": 928,
      "shouldn": 929,
      "coffee": 930,
      "win": 931,
      "differ": 932,
      "ey": 933,
      "sn": 934,
      "coming": 935,
      "##ons": 936,
      "##ork": 937,
      "##icult": 938,
      "bor": 939,
      "mine": 940,
      "##ens": 941,
      "import": 942,
      "pict": 943,
      "spend": 944,
      "picture": 945,
      "##ix": 946,
      "forget": 947,
      "each": 948,
      "kid": 949,
      "##no": 950,
      "difficult": 951,
      "books": 952,
      "bit": 953,
      "tonight": 954,
      "##int": 955,
      "news": 956,
      "waiting": 957,
      "sk": 958,
      "##gether": 959,
      "family": 960,
      "##our": 961,
      "wear": 962,
      "change": 963,
      "##unch": 964,
      "nobody": 965,
      "careful": 966,
      "light": 967,
      "bir": 968,
      "together": 969,
      "##used": 970,
      "accident": 971,
      "ho": 972,
      "sat": 973,
      "hate": 974,
      "cons": 975,
      "smo": 976,
      "world": 977,
      "##elt": 978,
      "since": 979,
      "##side": 980,
      "drive": 981,
      "trust": 982,
      "writ": 983,
      "trying": 984,
      "cook": 985,
      "##ese": 986,
      "working": 987,
      "sl": 988,
      "kill": 989,
      "##ank": 990,
      "prett": 991,
      "end": 992,
      "##ater": 993,
      "##anger": 994,
      "ap": 995,
      "felt": 996,
      "likes": 997,
      "real": 998,
      "stand": 999,
      "seems": 1000,
      "easy": 1001,
      "longer": 1002,
      "disc": 1003,
      "phone": 1004,
      "cut": 1005,
      "##be": 1006,
      "##ever": 1007,
      "beh": 1008,
      "##ssible": 1009,
      "pretty": 1010,
      "luck": 1011,
      "##here": 1012,
      "##llow": 1013,
      "sound": 1014,
      "wom": 1015,
      "station": 1016,
      "important": 1017,
      "sick": 1018,
      "guy": 1019,
      "cho": 1020,
      "police": 1021,
      "dress": 1022,
      "ob": 1023,
      "##we": 1024,
      "rel": 1025,
      "##ured": 1026,
      "died": 1027,
      "mus": 1028,
      "high": 1029,
      "##ient": 1030,
      "##ided": 1031,
      "started": 1032,
      "wife": 1033,
      "pres": 1034,
      "follow": 1035,
      "##app": 1036,
      "sto": 1037,
      "unt": 1038,
      "window": 1039,
      "small": 1040,
      "##osed": 1041,
      "##mit": 1042,
      "gone": 1043,
      "finished": 1044,
      "park": 1045,
      "favor": 1046,
      "surprised": 1047,
      "mom": 1048,
      "lau": 1049,
      "class": 1050,
      "gi": 1051,
      "key": 1052,
      "##ors": 1053,
      "air": 1054,
      "##ason": 1055,
      "suc": 1056,
      "conc": 1057,
      "quite": 1058,
      "close": 1059,
      "hun": 1060,
      "##em": 1061,
      "lunch": 1062,
      "anybody": 1063,
      "looked": 1064,
      "questions": 1065,
      "##ia": 1066,
      "##ub": 1067,
      "fire": 1068,
      "##per": 1069,
      "fish": 1070,
      "forgot": 1071,
      "mistake": 1072,
      "##ans": 1073,
      "music": 1074,
      "free": 1075,
      "##less": 1076,
      "##ord": 1077,
      "##where": 1078,
      "##ating": 1079,
      "##ision": 1080,
      "near": 1081,
      "month": 1082,
      "##zy": 1083,
      "##led": 1084,
      "guess": 1085,
      "until": 1086,
      "nu": 1087,
      "fast": 1088,
      "movie": 1089,
      "laugh": 1090,
      "##iness": 1091,
      "##icy": 1092,
      "exact": 1093,
      "weather": 1094,
      "yours": 1095,
      "danger": 1096,
      "##ves": 1097,
      "reading": 1098,
      "story": 1099,
      "##ition": 1100,
      "conf": 1101,
      "office": 1102,
      "##log": 1103,
      "##work": 1104,
      "head": 1105,
      "makes": 1106,
      "##gn": 1107,
      "resp": 1108,
      "dream": 1109,
      "##man": 1110,
      "##arge": 1111,
      "worry": 1112,
      "exc": 1113,
      "supposed": 1114,
      "visit": 1115,
      "son": 1116,
      "##ned": 1117,
      "##ense": 1118,
      "having": 1119,
      "eyes": 1120,
      "hair": 1121,
      "times": 1122,
      "##pid": 1123,
      "##ush": 1124,
      "stupid": 1125,
      "serious": 1126,
      "add": 1127,
      "ago": 1128,
      "hours": 1129,
      "##sh": 1130,
      "##ably": 1131,
      "dep": 1132,
      "playing": 1133,
      "pa": 1134,
      "angry": 1135,
      "fell": 1136,
      "tv": 1137,
      "ref": 1138,
      "##ouble": 1139,
      "##ward": 1140,
      "agree": 1141,
      "broke": 1142,
      "kiss": 1143,
      "tri": 1144,
      "##ier": 1145,
      "##als": 1146,
      "clean": 1147,
      "hat": 1148,
      "says": 1149,
      "##aper": 1150,
      "clos": 1151,
      "bring": 1152,
      "##lic": 1153,
      "##ount": 1154,
      "sol": 1155,
      "explain": 1156,
      "minutes": 1157,
      "exactly": 1158,
      "##ax": 1159,
      "advice": 1160,
      "students": 1161,
      "himself": 1162,
      "##uss": 1163,
      "prob": 1164,
      "hurry": 1165,
      "##ention": 1166,
      "feeling": 1167,
      "afterno": 1168,
      "song": 1169,
      "allow": 1170,
      "usually": 1171,
      "fig": 1172,
      "##cked": 1173,
      "called": 1174,
      "afternoon": 1175,
      "##up": 1176,
      "thir": 1177,
      "caught": 1178,
      "eating": 1179,
      "secret": 1180,
      "##du": 1181,
      "reason": 1182,
      "##ote": 1183,
      "lives": 1184,
      "sent": 1185,
      "##king": 1186,
      "decided": 1187,
      "som": 1188,
      "tre": 1189,
      "##ib": 1190,
      "inc": 1191,
      "turned": 1192,
      "tall": 1193,
      "##ple": 1194,
      "##eren": 1195,
      "safe": 1196,
      "table": 1197,
      "##alth": 1198,
      "probably": 1199,
      "bicy": 1200,
      "##olog": 1201,
      "reg": 1202,
      "interested": 1203,
      "##mmer": 1204,
      "law": 1205,
      "weren": 1206,
      "hands": 1207,
      "##ny": 1208,
      "cost": 1209,
      "appre": 1210,
      "##ized": 1211,
      "glass": 1212,
      "catch": 1213,
      "country": 1214,
      "cry": 1215,
      "fore": 1216,
      "##cept": 1217,
      "##ider": 1218,
      "proud": 1219,
      "interesting": 1220,
      "ran": 1221,
      "appreci": 1222,
      "lang": 1223,
      "##ject": 1224,
      "##eric": 1225,
      "##ital": 1226,
      "chang": 1227,
      "arrived": 1228,
      "langu": 1229,
      "town": 1230,
      "trouble": 1231,
      "dead": 1232,
      "bicycle": 1233,
      "number": 1234,
      "red": 1235,
      "thr": 1236,
      "thinking": 1237,
      "box": 1238,
      "grow": 1239,
      "americ": 1240,
      "order": 1241,
      "##ken": 1242,
      "##ross": 1243,
      "disapp": 1244,
      "different": 1245,
      "snow": 1246,
      "game": 1247,
      "##red": 1248,
      "##ars": 1249,
      "chance": 1250,
      "##ract": 1251,
      "ele": 1252,
      "ret": 1253,
      "inf": 1254,
      "ok": 1255,
      "spo": 1256,
      "tele": 1257,
      "begin": 1258,
      "##ouch": 1259,
      "##ash": 1260,
      "quit": 1261,
      "through": 1262,
      "rich": 1263,
      "promise": 1264,
      "##ces": 1265,
      "quick": 1266,
      "homework": 1267,
      "later": 1268,
      "japanese": 1269,
      "age": 1270,
      "daught": 1271,
      "full": 1272,
      "##vel": 1273,
      "##fect": 1274,
      "advised": 1275,
      "##ile": 1276,
      "##ept": 1277,
      "bab": 1278,
      "possible": 1279,
      "business": 1280,
      "maybe": 1281,
      "living": 1282,
      "saying": 1283,
      "against": 1284,
      "comple": 1285,
      "ter": 1286,
      "##ions": 1287,
      "appreciate": 1288,
      "##sc": 1289,
      "wash": 1290,
      "mil": 1291,
      "touch": 1292,
      "arm": 1293,
      "comput": 1294,
      "##ience": 1295,
      "then": 1296,
      "##ative": 1297,
      "lie": 1298,
      "trave": 1299,
      "outside": 1300,
      "##aken": 1301,
      "##ical": 1302,
      "##ately": 1303,
      "hu": 1304,
      "##ither": 1305,
      "##ger": 1306,
      "##rect": 1307,
      "abs": 1308,
      "taking": 1309,
      "summer": 1310,
      "##unk": 1311,
      "coll": 1312,
      "favorite": 1313,
      "cra": 1314,
      "wine": 1315,
      "##ison": 1316,
      "five": 1317,
      "kept": 1318,
      "##any": 1319,
      "health": 1320,
      "##etim": 1321,
      "needs": 1322,
      "##use": 1323,
      "face": 1324,
      "become": 1325,
      "shoes": 1326,
      "baby": 1327,
      "tree": 1328,
      "strong": 1329,
      "consider": 1330,
      "moment": 1331,
      "making": 1332,
      "##if": 1333,
      "short": 1334,
      "##ustr": 1335,
      "girlf": 1336,
      "trip": 1337,
      "##ower": 1338,
      "complain": 1339,
      "cloth": 1340,
      "hungry": 1341,
      "girlfriend": 1342,
      "exam": 1343,
      "monday": 1344,
      "pri": 1345,
      "behind": 1346,
      "mess": 1347,
      "build": 1348,
      "born": 1349,
      "pen": 1350,
      "doll": 1351,
      "team": 1352,
      "discuss": 1353,
      "daughter": 1354,
      "cor": 1355,
      "older": 1356,
      "hold": 1357,
      "sometim": 1358,
      "##br": 1359,
      "##reet": 1360,
      "perfect": 1361,
      "cam": 1362,
      "##ead": 1363,
      "point": 1364,
      "die": 1365,
      "pick": 1366,
      "expens": 1367,
      "##ming": 1368,
      "lose": 1369,
      "woman": 1370,
      "hos": 1371,
      "##dd": 1372,
      "needed": 1373,
      "birth": 1374,
      "choice": 1375,
      "hosp": 1376,
      "city": 1377,
      "##fast": 1378,
      "##irt": 1379,
      "somebody": 1380,
      "works": 1381,
      "company": 1382,
      "stayed": 1383,
      "##ressed": 1384,
      "present": 1385,
      "paid": 1386,
      "med": 1387,
      "eaten": 1388,
      "apolog": 1389,
      "hor": 1390,
      "breakfast": 1391,
      "sal": 1392,
      "##ended": 1393,
      "dark": 1394,
      "street": 1395,
      "prep": 1396,
      "##sp": 1397,
      "##erv": 1398,
      "ate": 1399,
      "deal": 1400,
      "grand": 1401,
      "clothes": 1402,
      "suit": 1403,
      "fail": 1404,
      "clock": 1405,
      "decision": 1406,
      "hospital": 1407,
      "##av": 1408,
      "##icket": 1409,
      "complete": 1410,
      "hit": 1411,
      "pie": 1412,
      "##iet": 1413,
      "##ont": 1414,
      "reco": 1415,
      "emp": 1416,
      "##not": 1417,
      "##ual": 1418,
      "disappo": 1419,
      "pat": 1420,
      "##nis": 1421,
      "##ying": 1422,
      "beer": 1423,
      "seat": 1424,
      "tennis": 1425,
      "check": 1426,
      "gun": 1427,
      "large": 1428,
      "sign": 1429,
      "##fer": 1430,
      "sun": 1431,
      "sugg": 1432,
      "funny": 1433,
      "computer": 1434,
      "austr": 1435,
      "quickly": 1436,
      "austral": 1437,
      "set": 1438,
      "##ular": 1439,
      "crazy": 1440,
      "bag": 1441,
      "ticket": 1442,
      "##uation": 1443,
      "heart": 1444,
      "art": 1445,
      "clear": 1446,
      "hotel": 1447,
      "travel": 1448,
      "dist": 1449,
      "fix": 1450,
      "##airs": 1451,
      "expensive": 1452,
      "fall": 1453,
      "##aur": 1454,
      "watching": 1455,
      "invited": 1456,
      "kids": 1457,
      "death": 1458,
      "minute": 1459,
      "australia": 1460,
      "ass": 1461,
      "smoking": 1462,
      "30": 1463,
      "cup": 1464,
      "##inted": 1465,
      "asleep": 1466,
      "wearing": 1467,
      "milk": 1468,
      "building": 1469,
      "det": 1470,
      "ill": 1471,
      "##bed": 1472,
      "offer": 1473,
      "scared": 1474,
      "second": 1475,
      "dro": 1476,
      "situation": 1477,
      "sometimes": 1478,
      "##az": 1479,
      "##ump": 1480,
      "store": 1481,
      "##vers": 1482,
      "necess": 1483,
      "comes": 1484,
      "fe": 1485,
      "less": 1486,
      "quiet": 1487,
      "report": 1488,
      "##ertain": 1489,
      "lucky": 1490,
      "inform": 1491,
      "fight": 1492,
      "##eal": 1493,
      "##port": 1494,
      "half": 1495,
      "cannot": 1496,
      "worth": 1497,
      "spent": 1498,
      "whole": 1499,
      "betwe": 1500,
      "##iction": 1501,
      "between": 1502,
      "aff": 1503,
      "cur": 1504,
      "neigh": 1505,
      "worried": 1506,
      "restaur": 1507,
      "neighb": 1508,
      "restaurant": 1509,
      "##ike": 1510,
      "##bt": 1511,
      "##erg": 1512,
      "leg": 1513,
      "began": 1514,
      "language": 1515,
      "hon": 1516,
      "ris": 1517,
      "wall": 1518,
      "##cc": 1519,
      "##set": 1520,
      "##ined": 1521,
      "lived": 1522,
      "goes": 1523,
      "##pping": 1524,
      "boss": 1525,
      "words": 1526,
      "paper": 1527,
      "##ased": 1528,
      "spe": 1529,
      "problems": 1530,
      "river": 1531,
      "certain": 1532,
      "telling": 1533,
      "earth": 1534,
      "became": 1535,
      "others": 1536,
      "drunk": 1537,
      "handle": 1538,
      "studying": 1539,
      "##full": 1540,
      "##ates": 1541,
      "##ceed": 1542,
      "changed": 1543,
      "##fully": 1544,
      "im": 1545,
      "##fort": 1546,
      "whe": 1547,
      "sund": 1548,
      "conv": 1549,
      "weekend": 1550,
      "cake": 1551,
      "men": 1552,
      "##ott": 1553,
      "front": 1554,
      "speaking": 1555,
      "thirty": 1556,
      "birthday": 1557,
      "swe": 1558,
      "strange": 1559,
      "six": 1560,
      "##room": 1561,
      "del": 1562,
      "thanks": 1563,
      "killed": 1564,
      "borrow": 1565,
      "rather": 1566,
      "takes": 1567,
      "##ness": 1568,
      "trans": 1569,
      "ext": 1570,
      "wrote": 1571,
      "liked": 1572,
      "closed": 1573,
      "allowed": 1574,
      "##mon": 1575,
      "##rist": 1576,
      "ins": 1577,
      "finally": 1578,
      "mistakes": 1579,
      "sim": 1580,
      "inst": 1581,
      "stopped": 1582,
      "flo": 1583,
      "##by": 1584,
      "christ": 1585,
      "ru": 1586,
      "known": 1587,
      "talked": 1588,
      "prison": 1589,
      "black": 1590,
      "missed": 1591,
      "success": 1592,
      "esc": 1593,
      "##ime": 1594,
      "##oose": 1595,
      "helped": 1596,
      "happening": 1597,
      "prefer": 1598,
      "sell": 1599,
      "gets": 1600,
      "actually": 1601,
      "necessary": 1602,
      "cap": 1603,
      "##vent": 1604,
      "move": 1605,
      "exper": 1606,
      "dogs": 1607,
      "shut": 1608,
      "forward": 1609,
      "worked": 1610,
      "coat": 1611,
      "##cial": 1612,
      "dangerous": 1613,
      "hid": 1614,
      "along": 1615,
      "bird": 1616,
      "terri": 1617,
      "sense": 1618,
      "upset": 1619,
      "opin": 1620,
      "imag": 1621,
      "whether": 1622,
      "diction": 1623,
      "##era": 1624,
      "evening": 1625,
      "flow": 1626,
      "suggest": 1627,
      "case": 1628,
      "gen": 1629,
      "##ball": 1630,
      "beach": 1631,
      "figured": 1632,
      "fut": 1633,
      "##oto": 1634,
      "speaks": 1635,
      "swimming": 1636,
      "expected": 1637,
      "##phone": 1638,
      "pian": 1639,
      "tax": 1640,
      "vac": 1641,
      "##mas": 1642,
      "##ics": 1643,
      "sold": 1644,
      "smell": 1645,
      "brought": 1646,
      "gard": 1647,
      "rid": 1648,
      "rul": 1649,
      "##cy": 1650,
      "its": 1651,
      "col": 1652,
      "accept": 1653,
      "plane": 1654,
      "##fied": 1655,
      "##ely": 1656,
      "##io": 1657,
      "whatever": 1658,
      "fact": 1659,
      "running": 1660,
      "dictionary": 1661,
      "ra": 1662,
      "enter": 1663,
      "happens": 1664,
      "least": 1665,
      "leaving": 1666,
      "completely": 1667,
      "christmas": 1668,
      "garden": 1669,
      "imm": 1670,
      "broken": 1671,
      "warm": 1672,
      "slow": 1673,
      "honest": 1674,
      "shirt": 1675,
      "seeing": 1676,
      "loves": 1677,
      "succeed": 1678,
      "future": 1679,
      "cop": 1680,
      "dance": 1681,
      "##ber": 1682,
      "ind": 1683,
      "##sel": 1684,
      "##enty": 1685,
      "disappointed": 1686,
      "test": 1687,
      "##ding": 1688,
      "##aster": 1689,
      "drinking": 1690,
      "walked": 1691,
      "dollars": 1692,
      "av": 1693,
      "cal": 1694,
      "fre": 1695,
      "##ky": 1696,
      "novel": 1697,
      "famous": 1698,
      "return": 1699,
      "##land": 1700,
      "##itch": 1701,
      "##amed": 1702,
      "road": 1703,
      "##ages": 1704,
      "written": 1705,
      "lawy": 1706,
      "bill": 1707,
      "##ations": 1708,
      "escap": 1709,
      "em": 1710,
      "##ged": 1711,
      "##bit": 1712,
      "libr": 1713,
      "deser": 1714,
      "hum": 1715,
      "opp": 1716,
      "##uring": 1717,
      "##ility": 1718,
      "poor": 1719,
      "medic": 1720,
      "rules": 1721,
      "bank": 1722,
      "##ru": 1723,
      "bother": 1724,
      "smoke": 1725,
      "either": 1726,
      "weight": 1727,
      "choose": 1728,
      "flowers": 1729,
      "bott": 1730,
      "tast": 1731,
      "##get": 1732,
      "somewhere": 1733,
      "##ffic": 1734,
      "foot": 1735,
      "crying": 1736,
      "information": 1737,
      "opinion": 1738,
      "nerv": 1739,
      "pop": 1740,
      "umb": 1741,
      "##rell": 1742,
      "noise": 1743,
      "sub": 1744,
      "hasn": 1745,
      "temp": 1746,
      "learned": 1747,
      "address": 1748,
      "camera": 1749,
      "piano": 1750,
      "##selves": 1751,
      "nervous": 1752,
      "umbrell": 1753,
      "fine": 1754,
      "##ination": 1755,
      "white": 1756,
      "prot": 1757,
      "writing": 1758,
      "library": 1759,
      "bath": 1760,
      "taken": 1761,
      "##iv": 1762,
      "##band": 1763,
      "##amp": 1764,
      "tra": 1765,
      "join": 1766,
      "apologize": 1767,
      "recogn": 1768,
      "hus": 1769,
      "waste": 1770,
      "star": 1771,
      "sever": 1772,
      "elect": 1773,
      "correct": 1774,
      "fat": 1775,
      "pub": 1776,
      "##arm": 1777,
      "anim": 1778,
      "##road": 1779,
      "painting": 1780,
      "satis": 1781,
      "husband": 1782,
      "several": 1783,
      "fool": 1784,
      "sad": 1785,
      "floor": 1786,
      "dra": 1787,
      "during": 1788,
      "pun": 1789,
      "rad": 1790,
      "sudd": 1791,
      "chin": 1792,
      "save": 1793,
      "smart": 1794,
      "guit": 1795,
      "attention": 1796,
      "sudden": 1797,
      "ign": 1798,
      "par": 1799,
      "send": 1800,
      "##lan": 1801,
      "rece": 1802,
      "girls": 1803,
      "##ountain": 1804,
      "umbrella": 1805,
      "bur": 1806,
      "##ived": 1807,
      "alive": 1808,
      "manag": 1809,
      "uncle": 1810,
      "sil": 1811,
      "reach": 1812,
      "##ices": 1813,
      "##ently": 1814,
      "##right": 1815,
      "listening": 1816,
      "newsp": 1817,
      "excuse": 1818,
      "sunday": 1819,
      "##00": 1820,
      "clim": 1821,
      "guys": 1822,
      "solve": 1823,
      "lawyer": 1824,
      "guitar": 1825,
      "owe": 1826,
      "loved": 1827,
      "agre": 1828,
      "sleeping": 1829,
      "##ude": 1830,
      "women": 1831,
      "dou": 1832,
      "##rew": 1833,
      "showed": 1834,
      "##vered": 1835,
      "risk": 1836,
      "cross": 1837,
      "date": 1838,
      "sou": 1839,
      "##yp": 1840,
      "##ling": 1841,
      "##edi": 1842,
      "ship": 1843,
      "##eech": 1844,
      "##ries": 1845,
      "##ames": 1846,
      "thinks": 1847,
      "speech": 1848,
      "opened": 1849,
      "desk": 1850,
      "apart": 1851,
      "patient": 1852,
      "mountain": 1853,
      "##friend": 1854,
      "heav": 1855,
      "arg": 1856,
      "blame": 1857,
      "respons": 1858,
      "transl": 1859,
      "vacation": 1860,
      "immedi": 1861,
      "card": 1862,
      "sy": 1863,
      "tie": 1864,
      "##way": 1865,
      "shot": 1866,
      "##ustom": 1867,
      "fault": 1868,
      "suppose": 1869,
      "concert": 1870,
      "mis": 1871,
      "##eas": 1872,
      "##oned": 1873,
      "contin": 1874,
      "means": 1875,
      "regret": 1876,
      "medicine": 1877,
      "radio": 1878,
      "four": 1879,
      "wake": 1880,
      "susp": 1881,
      "willing": 1882,
      "##ears": 1883,
      "pret": 1884,
      "##olved": 1885,
      "result": 1886,
      "shopping": 1887,
      "keys": 1888,
      "sle": 1889,
      "side": 1890,
      "##cket": 1891,
      "inj": 1892,
      "##ade": 1893,
      "chair": 1894,
      "fair": 1895,
      "prepared": 1896,
      "lying": 1897,
      "##ege": 1898,
      "throw": 1899,
      "toky": 1900,
      "##ained": 1901,
      "college": 1902,
      "message": 1903,
      "horse": 1904,
      "piece": 1905,
      "tokyo": 1906,
      "##head": 1907,
      "##ants": 1908,
      "abroad": 1909,
      "whose": 1910,
      "##ilt": 1911,
      "appro": 1912,
      "surv": 1913,
      "boyfriend": 1914,
      "gift": 1915,
      "respect": 1916,
      "telephone": 1917,
      "##gar": 1918,
      "top": 1919,
      "##ature": 1920,
      "lock": 1921,
      "post": 1922,
      "joke": 1923,
      "belong": 1924,
      "breath": 1925,
      "sounds": 1926,
      "spoke": 1927,
      "color": 1928,
      "doubt": 1929,
      "eff": 1930,
      "lend": 1931,
      "vo": 1932,
      "##vious": 1933,
      "asking": 1934,
      "admit": 1935,
      "arrive": 1936,
      "foreign": 1937,
      "ice": 1938,
      "vol": 1939,
      "plans": 1940,
      "contro": 1941,
      "promised": 1942,
      "dressed": 1943,
      "glasses": 1944,
      "##ution": 1945,
      "waited": 1946,
      "apple": 1947,
      "earl": 1948,
      "cats": 1949,
      "driving": 1950,
      "afford": 1951,
      "deep": 1952,
      "emb": 1953,
      "ir": 1954,
      "pur": 1955,
      "##rest": 1956,
      "ann": 1957,
      "price": 1958,
      "shower": 1959,
      "difference": 1960,
      "priv": 1961,
      "jump": 1962,
      "none": 1963,
      "prop": 1964,
      "across": 1965,
      "impo": 1966,
      "cour": 1967,
      "pictures": 1968,
      "immediately": 1969,
      "gra": 1970,
      "##so": 1971,
      "carry": 1972,
      "carefully": 1973,
      "given": 1974,
      "ca": 1975,
      "egg": 1976,
      "lake": 1977,
      "mach": 1978,
      "##ened": 1979,
      "##ented": 1980,
      "dan": 1981,
      "mail": 1982,
      "past": 1983,
      "push": 1984,
      "storm": 1985,
      "ent": 1986,
      "harder": 1987,
      "boys": 1988,
      "movies": 1989,
      "bar": 1990,
      "hang": 1991,
      "inside": 1992,
      "canad": 1993,
      "##ished": 1994,
      "partic": 1995,
      "involved": 1996,
      "special": 1997,
      "fired": 1998,
      "ring": 1999,
      "ride": 2000,
      "intro": 2001,
      "satisfied": 2002,
      "agreed": 2003,
      "impossible": 2004,
      "mid": 2005,
      "power": 2006,
      "##ial": 2007,
      "##ring": 2008,
      "uni": 2009,
      "figure": 2010,
      "empty": 2011,
      "protect": 2012,
      "traffic": 2013,
      "hop": 2014,
      "val": 2015,
      "mem": 2016,
      "worse": 2017,
      "arrest": 2018,
      "couple": 2019,
      "kissed": 2020,
      "ahead": 2021,
      "##een": 2022,
      "shop": 2023,
      "##ndred": 2024,
      "staying": 2025,
      "hundred": 2026,
      "earlier": 2027,
      "bra": 2028,
      "pull": 2029,
      "##come": 2030,
      "##ator": 2031,
      "weir": 2032,
      "meat": 2033,
      "cond": 2034,
      "twice": 2035,
      "blue": 2036,
      "raining": 2037,
      "enjoyed": 2038,
      "cute": 2039,
      "fill": 2040,
      "##cent": 2041,
      "##ric": 2042,
      "##uit": 2043,
      "##gan": 2044,
      "##vision": 2045,
      "##iday": 2046,
      "anywhere": 2047,
      "played": 2048,
      "##ument": 2049,
      "easily": 2050,
      "winter": 2051,
      "slept": 2052,
      "weird": 2053,
      "fit": 2054,
      "line": 2055,
      "held": 2056,
      "boat": 2057,
      "hardly": 2058,
      "walking": 2059,
      "introdu": 2060,
      "dish": 2061,
      "ma": 2062,
      "ur": 2063,
      "vi": 2064,
      "##ton": 2065,
      "photo": 2066,
      "sitting": 2067,
      "passed": 2068,
      "relax": 2069,
      "airport": 2070,
      "america": 2071,
      "american": 2072,
      "television": 2073,
      "dut": 2074,
      "##idge": 2075,
      "wel": 2076,
      "##stairs": 2077,
      "likely": 2078,
      "stuff": 2079,
      "press": 2080,
      "decide": 2081,
      "attend": 2082,
      "depend": 2083,
      "control": 2084,
      "machine": 2085,
      "hol": 2086,
      "mag": 2087,
      "wed": 2088,
      "##cil": 2089,
      "##ze": 2090,
      "##ins": 2091,
      "requ": 2092,
      "##ities": 2093,
      "##oof": 2094,
      "##ists": 2095,
      "weeks": 2096,
      "singing": 2097,
      "neighbor": 2098,
      "experience": 2099,
      "animals": 2100,
      "den": 2101,
      "ger": 2102,
      "mou": 2103,
      "##ug": 2104,
      "##arr": 2105,
      "lied": 2106,
      "form": 2107,
      "marry": 2108,
      "##ief": 2109,
      "wonderful": 2110,
      "ski": 2111,
      "concer": 2112,
      "fishing": 2113,
      "terrible": 2114,
      "19": 2115,
      "stra": 2116,
      "enem": 2117,
      "sooner": 2118,
      "heavy": 2119,
      "crow": 2120,
      "pack": 2121,
      "##miss": 2122,
      "ash": 2123,
      "##orts": 2124,
      "organ": 2125,
      "ideas": 2126,
      "surprise": 2127,
      "followed": 2128,
      "gener": 2129,
      "public": 2130,
      "newspaper": 2131,
      "fly": 2132,
      "occ": 2133,
      "wood": 2134,
      "##cer": 2135,
      "##ife": 2136,
      "##ered": 2137,
      "char": 2138,
      "also": 2139,
      "##iling": 2140,
      "##aked": 2141,
      "gotten": 2142,
      "driver": 2143,
      "younger": 2144,
      "eye": 2145,
      "laughed": 2146,
      "refused": 2147,
      "##fortable": 2148,
      "injured": 2149,
      "##cing": 2150,
      "##ises": 2151,
      "##idence": 2152,
      "los": 2153,
      "drank": 2154,
      "##ibility": 2155,
      "beginning": 2156,
      "convin": 2157,
      "embarr": 2158,
      "embarrass": 2159,
      "base": 2160,
      "typ": 2161,
      "##ued": 2162,
      "##dle": 2163,
      "share": 2164,
      "##iced": 2165,
      "charge": 2166,
      "herself": 2167,
      "def": 2168,
      "##loy": 2169,
      "poss": 2170,
      "leaves": 2171,
      "remind": 2172,
      "apples": 2173,
      "cooking": 2174,
      "feed": 2175,
      "body": 2176,
      "ev": 2177,
      "fur": 2178,
      "##father": 2179,
      "##oid": 2180,
      "sugar": 2181,
      "lead": 2182,
      "grad": 2183,
      "painted": 2184,
      "failed": 2185,
      "german": 2186,
      "lad": 2187,
      "##mand": 2188,
      "##rem": 2189,
      "liar": 2190,
      "veget": 2191,
      "moved": 2192,
      "built": 2193,
      "support": 2194,
      "bottle": 2195,
      "suddenly": 2196,
      "duty": 2197,
      "jeal": 2198,
      "mod": 2199,
      "##co": 2200,
      "##omp": 2201,
      "super": 2202,
      "plenty": 2203,
      "prof": 2204,
      "produ": 2205,
      "##ected": 2206,
      "sky": 2207,
      "obvious": 2208,
      "laughing": 2209,
      "suitc": 2210,
      "condition": 2211,
      "jealous": 2212,
      "eur": 2213,
      "land": 2214,
      "mur": 2215,
      "ou": 2216,
      "sight": 2217,
      "##col": 2218,
      "##hood": 2219,
      "##ayed": 2220,
      "##seum": 2221,
      "hist": 2222,
      "commit": 2223,
      "pleas": 2224,
      "##olen": 2225,
      "sentence": 2226,
      "absent": 2227,
      "grandfather": 2228,
      "calm": 2229,
      "propos": 2230,
      "canadian": 2231,
      "viol": 2232,
      "ball": 2233,
      "fear": 2234,
      "sand": 2235,
      "##ift": 2236,
      "meant": 2237,
      "gover": 2238,
      "knife": 2239,
      "##iled": 2240,
      "##earch": 2241,
      "museum": 2242,
      "##ache": 2243,
      "blood": 2244,
      "seemed": 2245,
      "accused": 2246,
      "seriously": 2247,
      "convinced": 2248,
      "ought": 2249,
      "jud": 2250,
      "taught": 2251,
      "##book": 2252,
      "though": 2253,
      "hadn": 2254,
      "buying": 2255,
      "impressed": 2256,
      "detail": 2257,
      "taxi": 2258,
      "recognize": 2259,
      "govern": 2260,
      "eight": 2261,
      "norm": 2262,
      "wo": 2263,
      "##ef": 2264,
      "tot": 2265,
      "inno": 2266,
      "##ots": 2267,
      "stolen": 2268,
      "plays": 2269,
      "fruit": 2270,
      "##iew": 2271,
      "##olut": 2272,
      "planning": 2273,
      "eggs": 2274,
      "dest": 2275,
      "##aded": 2276,
      "##istic": 2277,
      "explan": 2278,
      "unl": 2279,
      "trees": 2280,
      "pencil": 2281,
      "drop": 2282,
      "##mission": 2283,
      "ce": 2284,
      "lone": 2285,
      "rent": 2286,
      "##ts": 2287,
      "##tain": 2288,
      "studied": 2289,
      "aware": 2290,
      "polit": 2291,
      "president": 2292,
      "feelings": 2293,
      "absolut": 2294,
      "extrem": 2295,
      "welcome": 2296,
      "wedding": 2297,
      "kitch": 2298,
      "loud": 2299,
      "##ior": 2300,
      "god": 2301,
      "fort": 2302,
      "prog": 2303,
      "##ortun": 2304,
      "blind": 2305,
      "personal": 2306,
      "ordered": 2307,
      "opportun": 2308,
      "ashamed": 2309,
      "murder": 2310,
      "history": 2311,
      "bread": 2312,
      "native": 2313,
      "yell": 2314,
      "##oint": 2315,
      "##arter": 2316,
      "neither": 2317,
      "##eeth": 2318,
      "chea": 2319,
      "realize": 2320,
      "months": 2321,
      "deserve": 2322,
      "crowd": 2323,
      "kitchen": 2324,
      "bas": 2325,
      "pea": 2326,
      "##pl": 2327,
      "##oun": 2328,
      "##own": 2329,
      "step": 2330,
      "stick": 2331,
      "##ili": 2332,
      "seven": 2333,
      "feels": 2334,
      "smile": 2335,
      "appear": 2336,
      "learning": 2337,
      "warned": 2338,
      "treat": 2339,
      "taller": 2340,
      "fing": 2341,
      "thous": 2342,
      "suff": 2343,
      "saved": 2344,
      "button": 2345,
      "unc": 2346,
      "opt": 2347,
      "simple": 2348,
      "government": 2349,
      "lonely": 2350,
      "thousand": 2351,
      "faster": 2352,
      "pract": 2353,
      "##ove": 2354,
      "##cri": 2355,
      "##hn": 2356,
      "##ored": 2357,
      "##urch": 2358,
      "spring": 2359,
      "##aps": 2360,
      "##ounded": 2361,
      "john": 2362,
      "paint": 2363,
      "fresh": 2364,
      "arrested": 2365,
      "europe": 2366,
      "proposal": 2367,
      "burn": 2368,
      "cow": 2369,
      "cool": 2370,
      "tal": 2371,
      "##erc": 2372,
      "##vest": 2373,
      "church": 2374,
      "project": 2375,
      "awake": 2376,
      "account": 2377,
      "##ume": 2378,
      "green": 2379,
      "sleepy": 2380,
      "expecting": 2381,
      "stole": 2382,
      "popular": 2383,
      "apartment": 2384,
      "10": 2385,
      "##emp": 2386,
      "##ps": 2387,
      "##ering": 2388,
      "##ction": 2389,
      "##cks": 2390,
      "##arely": 2391,
      "amaz": 2392,
      "calling": 2393,
      "##ables": 2394,
      "bridge": 2395,
      "sweet": 2396,
      "received": 2397,
      "baseball": 2398,
      "bat": 2399,
      "custom": 2400,
      "dad": 2401,
      "hide": 2402,
      "sea": 2403,
      "##edu": 2404,
      "beat": 2405,
      "stood": 2406,
      "worst": 2407,
      "demand": 2408,
      "common": 2409,
      "cars": 2410,
      "impro": 2411,
      "flu": 2412,
      "persu": 2413,
      "missing": 2414,
      "escape": 2415,
      "voice": 2416,
      "particular": 2417,
      "explanation": 2418,
      "extremely": 2419,
      "tears": 2420,
      "teeth": 2421,
      "forced": 2422,
      "##une": 2423,
      "helping": 2424,
      "divor": 2425,
      "crime": 2426,
      "boring": 2427,
      "washing": 2428,
      "volun": 2429,
      "univers": 2430,
      "cent": 2431,
      "gar": 2432,
      "lond": 2433,
      "mot": 2434,
      "mill": 2435,
      "oct": 2436,
      "##ror": 2437,
      "##ines": 2438,
      "web": 2439,
      "meal": 2440,
      "exh": 2441,
      "locked": 2442,
      "watched": 2443,
      "acting": 2444,
      "considered": 2445,
      "slowly": 2446,
      "mouth": 2447,
      "london": 2448,
      "octo": 2449,
      "gas": 2450,
      "math": 2451,
      "map": 2452,
      "vill": 2453,
      "##uts": 2454,
      "##ilty": 2455,
      "##mbers": 2456,
      "guilty": 2457,
      "club": 2458,
      "giving": 2459,
      "october": 2460,
      "nor": 2461,
      "york": 2462,
      "socc": 2463,
      "exerc": 2464,
      "direct": 2465,
      "rob": 2466,
      "appoint": 2467,
      "flight": 2468,
      "attract": 2469,
      "languages": 2470,
      "neighbors": 2471,
      "instead": 2472,
      "avoid": 2473,
      "subject": 2474,
      "manager": 2475,
      "continue": 2476,
      "straight": 2477,
      "soccer": 2478,
      "cried": 2479,
      "pot": 2480,
      "##reat": 2481,
      "pleased": 2482,
      "scream": 2483,
      "grew": 2484,
      "attack": 2485,
      "contact": 2486,
      "polite": 2487,
      "brothers": 2488,
      "chocol": 2489,
      "solution": 2490,
      "feet": 2491,
      "enemy": 2492,
      "peace": 2493,
      "##edule": 2494,
      "volunte": 2495,
      "appointment": 2496,
      "dir": 2497,
      "fift": 2498,
      "##con": 2499,
      "##mar": 2500,
      "##ram": 2501,
      "##ency": 2502,
      "except": 2503,
      "##acks": 2504,
      "adm": 2505,
      "accomp": 2506,
      "##acket": 2507,
      "singer": 2508,
      "visited": 2509,
      "private": 2510,
      "urg": 2511,
      "dirty": 2512,
      "ach": 2513,
      "bike": 2514,
      "sort": 2515,
      "tight": 2516,
      "##sy": 2517,
      "##kes": 2518,
      "##usted": 2519,
      "pos": 2520,
      "pocket": 2521,
      "prices": 2522,
      "drinks": 2523,
      "brush": 2524,
      "match": 2525,
      "bored": 2526,
      "artic": 2527,
      "memory": 2528,
      "bri": 2529,
      "cell": 2530,
      "rum": 2531,
      "till": 2532,
      "notice": 2533,
      "prevent": 2534,
      "##aged": 2535,
      "remain": 2536,
      "idi": 2537,
      "impress": 2538,
      "##izz": 2539,
      "bigger": 2540,
      "course": 2541,
      "caused": 2542,
      "suitcase": 2543,
      "normal": 2544,
      "absolutely": 2545,
      "cause": 2546,
      "mood": 2547,
      "pair": 2548,
      "squ": 2549,
      "##bo": 2550,
      "##ances": 2551,
      "kno": 2552,
      "##rage": 2553,
      "lots": 2554,
      "unh": 2555,
      "schedule": 2556,
      "##uel": 2557,
      "keeps": 2558,
      "forgive": 2559,
      "listened": 2560,
      "farm": 2561,
      "standing": 2562,
      "object": 2563,
      "following": 2564,
      "depressed": 2565,
      "hates": 2566,
      "rule": 2567,
      "paris": 2568,
      "event": 2569,
      "fed": 2570,
      "##ys": 2571,
      "##inc": 2572,
      "cance": 2573,
      "energ": 2574,
      "eats": 2575,
      "starting": 2576,
      "rains": 2577,
      "excited": 2578,
      "spoken": 2579,
      "gunsh": 2580,
      "tickets": 2581,
      "hiding": 2582,
      "birds": 2583,
      "innocent": 2584,
      "opportunity": 2585,
      "20": 2586,
      "blo": 2587,
      "er": 2588,
      "pizz": 2589,
      "##under": 2590,
      "threat": 2591,
      "##orn": 2592,
      "lic": 2593,
      "##ety": 2594,
      "cand": 2595,
      "neg": 2596,
      "##astic": 2597,
      "##ilar": 2598,
      "comfortable": 2599,
      "talks": 2600,
      "meaning": 2601,
      "lights": 2602,
      "salt": 2603,
      "chinese": 2604,
      "responsible": 2605,
      "entire": 2606,
      "##iliar": 2607,
      "mention": 2608,
      "##ho": 2609,
      "##ugg": 2610,
      "hey": 2611,
      "##oted": 2612,
      "shy": 2613,
      "##iting": 2614,
      "nose": 2615,
      "france": 2616,
      "stuck": 2617,
      "believed": 2618,
      "crit": 2619,
      "nearly": 2620,
      "explained": 2621,
      "complaining": 2622,
      "earthqu": 2623,
      "temper": 2624,
      "draw": 2625,
      "annoy": 2626,
      "university": 2627,
      "village": 2628,
      "nat": 2629,
      "nine": 2630,
      "rice": 2631,
      "##gra": 2632,
      "##ories": 2633,
      "stamp": 2634,
      "##ural": 2635,
      "chess": 2636,
      "moon": 2637,
      "among": 2638,
      "self": 2639,
      "##ape": 2640,
      "intend": 2641,
      "familiar": 2642,
      "permission": 2643,
      "single": 2644,
      "recently": 2645,
      "lazy": 2646,
      "employ": 2647,
      "##rupt": 2648,
      "further": 2649,
      "totally": 2650,
      "energy": 2651,
      "fright": 2652,
      "##ks": 2653,
      "invest": 2654,
      "gold": 2655,
      "##ards": 2656,
      "amb": 2657,
      "##apers": 2658,
      "friendly": 2659,
      "united": 2660,
      "player": 2661,
      "bedroom": 2662,
      "shocked": 2663,
      "obey": 2664,
      "depart": 2665,
      "songs": 2666,
      "growing": 2667,
      "picked": 2668,
      "curious": 2669,
      "wallet": 2670,
      "certainly": 2671,
      "raise": 2672,
      "returned": 2673,
      "vegetables": 2674,
      "woke": 2675,
      "au": 2676,
      "aut": 2677,
      "cre": 2678,
      "king": 2679,
      "rope": 2680,
      "wise": 2681,
      "yen": 2682,
      "##cious": 2683,
      "##haps": 2684,
      "##umb": 2685,
      "##line": 2686,
      "stone": 2687,
      "##itive": 2688,
      "##irm": 2689,
      "##unately": 2690,
      "poem": 2691,
      "shoot": 2692,
      "perhaps": 2693,
      "healthy": 2694,
      "convince": 2695,
      "pretend": 2696,
      "purp": 2697,
      "million": 2698,
      "exha": 2699,
      "chocolate": 2700,
      "##underst": 2701,
      "license": 2702,
      "ban": 2703,
      "bark": 2704,
      "dam": 2705,
      "mir": 2706,
      "##tle": 2707,
      "##cation": 2708,
      "habit": 2709,
      "noticed": 2710,
      "dev": 2711,
      "guest": 2712,
      "mistaken": 2713,
      "countries": 2714,
      "skin": 2715,
      "confused": 2716,
      "fighting": 2717,
      "translate": 2718,
      "lady": 2719,
      "article": 2720,
      "idiot": 2721,
      "pizza": 2722,
      "cream": 2723,
      "fil": 2724,
      "har": 2725,
      "rude": 2726,
      "search": 2727,
      "##oes": 2728,
      "##aw": 2729,
      "##hip": 2730,
      "##erm": 2731,
      "##eng": 2732,
      "bear": 2733,
      "lift": 2734,
      "steal": 2735,
      "states": 2736,
      "##ched": 2737,
      "##ighted": 2738,
      "comm": 2739,
      "scen": 2740,
      "engine": 2741,
      "clever": 2742,
      "##mother": 2743,
      "windows": 2744,
      "dreams": 2745,
      "entered": 2746,
      "taste": 2747,
      "reached": 2748,
      "grab": 2749,
      "maj": 2750,
      "holiday": 2751,
      "product": 2752,
      "urgent": 2753,
      "unhapp": 2754,
      "purpose": 2755,
      "000": 2756,
      "ble": 2757,
      "due": 2758,
      "##inal": 2759,
      "theory": 2760,
      "heat": 2761,
      "##ldom": 2762,
      "shar": 2763,
      "##cep": 2764,
      "delic": 2765,
      "proper": 2766,
      "seldom": 2767,
      "answered": 2768,
      "letters": 2769,
      "passport": 2770,
      "realized": 2771,
      "huge": 2772,
      "dropped": 2773,
      "imagine": 2774,
      "escaped": 2775,
      "china": 2776,
      "climb": 2777,
      "misunderst": 2778,
      "magaz": 2779,
      "exercise": 2780,
      "auth": 2781,
      "bright": 2782,
      "drow": 2783,
      "harm": 2784,
      "ky": 2785,
      "nap": 2786,
      "rang": 2787,
      "##iers": 2788,
      "##ising": 2789,
      "golf": 2790,
      "note": 2791,
      "##tern": 2792,
      "##ional": 2793,
      "goodby": 2794,
      "tooth": 2795,
      "handed": 2796,
      "understood": 2797,
      "satur": 2798,
      "cookies": 2799,
      "##ified": 2800,
      "middle": 2801,
      "concerned": 2802,
      "gradu": 2803,
      "lar": 2804,
      "tough": 2805,
      "view": 2806,
      "##ms": 2807,
      "##eg": 2808,
      "##ences": 2809,
      "island": 2810,
      "##omm": 2811,
      "##ides": 2812,
      "##anted": 2813,
      "##itation": 2814,
      "##ury": 2815,
      "##rig": 2816,
      "aband": 2817,
      "chick": 2818,
      "covered": 2819,
      "accep": 2820,
      "calls": 2821,
      "twenty": 2822,
      "flat": 2823,
      "grou": 2824,
      "truck": 2825,
      "forgotten": 2826,
      "##ship": 2827,
      "##ibly": 2828,
      "##ific": 2829,
      "traveling": 2830,
      "delighted": 2831,
      "human": 2832,
      "tastes": 2833,
      "punished": 2834,
      "soup": 2835,
      "pretended": 2836,
      "results": 2837,
      "occur": 2838,
      "unhappy": 2839,
      "sharp": 2840,
      "saturday": 2841,
      "aud": 2842,
      "na": 2843,
      "pic": 2844,
      "pool": 2845,
      "tour": 2846,
      "##na": 2847,
      "##sion": 2848,
      "##rat": 2849,
      "##gest": 2850,
      "##ane": 2851,
      "bell": 2852,
      "cancer": 2853,
      "##ters": 2854,
      "usual": 2855,
      "##ulation": 2856,
      "manage": 2857,
      "smarter": 2858,
      "unless": 2859,
      "cloud": 2860,
      "hearing": 2861,
      "kidding": 2862,
      "incred": 2863,
      "changes": 2864,
      "grandmother": 2865,
      "clearly": 2866,
      "sweater": 2867,
      "dishes": 2868,
      "##graph": 2869,
      "naive": 2870,
      "ben": 2871,
      "low": 2872,
      "vote": 2873,
      "zoo": 2874,
      "##ees": 2875,
      "##ich": 2876,
      "##bby": 2877,
      "spot": 2878,
      "whenever": 2879,
      "const": 2880,
      "ord": 2881,
      "unfort": 2882,
      "drug": 2883,
      "##icked": 2884,
      "text": 2885,
      "##ires": 2886,
      "crim": 2887,
      "matters": 2888,
      "ended": 2889,
      "##ording": 2890,
      "assist": 2891,
      "silent": 2892,
      "embarrassed": 2893,
      "##conom": 2894,
      "goodbye": 2895,
      "cab": 2896,
      "econom": 2897,
      "##hol": 2898,
      "##uing": 2899,
      "##erve": 2900,
      "##esome": 2901,
      "weak": 2902,
      "weap": 2903,
      "##stem": 2904,
      "upstairs": 2905,
      "diet": 2906,
      "recomm": 2907,
      "forever": 2908,
      "camp": 2909,
      "avail": 2910,
      "cards": 2911,
      "dancing": 2912,
      "skiing": 2913,
      "type": 2914,
      "profess": 2915,
      "judge": 2916,
      "attractive": 2917,
      "cir": 2918,
      "fro": 2919,
      "games": 2920,
      "vide": 2921,
      "##ale": 2922,
      "shall": 2923,
      "above": 2924,
      "spell": 2925,
      "betr": 2926,
      "speaker": 2927,
      "disg": 2928,
      "##irsty": 2929,
      "advant": 2930,
      "repe": 2931,
      "behav": 2932,
      "headache": 2933,
      "collect": 2934,
      "prize": 2935,
      "emerg": 2936,
      "managed": 2937,
      "cheap": 2938,
      "exhausted": 2939,
      "kyoto": 2940,
      "cash": 2941,
      "equ": 2942,
      "names": 2943,
      "pu": 2944,
      "##nic": 2945,
      "##iest": 2946,
      "thief": 2947,
      "toward": 2948,
      "##ority": 2949,
      "everywhere": 2950,
      "##ieved": 2951,
      "debt": 2952,
      "acqu": 2953,
      "awesome": 2954,
      "scient": 2955,
      "cruel": 2956,
      "sisters": 2957,
      "policeman": 2958,
      "third": 2959,
      "washed": 2960,
      "distur": 2961,
      "distance": 2962,
      "legs": 2963,
      "soldiers": 2964,
      "electric": 2965,
      "system": 2966,
      "losing": 2967,
      "amazing": 2968,
      "accepted": 2969,
      "behavior": 2970,
      "cous": 2971,
      "dent": 2972,
      "edu": 2973,
      "fu": 2974,
      "hes": 2975,
      "jacket": 2976,
      "lay": 2977,
      "##but": 2978,
      "##edit": 2979,
      "##lded": 2980,
      "prove": 2981,
      "carried": 2982,
      "##anged": 2983,
      "oldest": 2984,
      "##ager": 2985,
      "teachers": 2986,
      "##gged": 2987,
      "paying": 2988,
      "desp": 2989,
      "serv": 2990,
      "spending": 2991,
      "trusted": 2992,
      "confident": 2993,
      "##ify": 2994,
      "horri": 2995,
      "similar": 2996,
      "imagination": 2997,
      "introduce": 2998,
      "possibility": 2999,
      "band": 3000,
      "dying": 3001,
      "gho": 3002,
      "vict": 3003,
      "##ns": 3004,
      "##zen": 3005,
      "##wich": 3006,
      "##ining": 3007,
      "wet": 3008,
      "anyway": 3009,
      "exce": 3010,
      "butter": 3011,
      "diary": 3012,
      "unf": 3013,
      "complic": 3014,
      "according": 3015,
      "descri": 3016,
      "spends": 3017,
      "incre": 3018,
      "determ": 3019,
      "ignore": 3020,
      "suspect": 3021,
      "hoping": 3022,
      "obviously": 3023,
      "sandwich": 3024,
      "unlike": 3025,
      "earthquake": 3026,
      "ghost": 3027,
      "hire": 3028,
      "nuts": 3029,
      "##time": 3030,
      "##lies": 3031,
      "##ern": 3032,
      "moving": 3033,
      "express": 3034,
      "ourselves": 3035,
      "teaching": 3036,
      "intern": 3037,
      "credit": 3038,
      "disco": 3039,
      "##ashed": 3040,
      "discussion": 3041,
      "copy": 3042,
      "brave": 3043,
      "details": 3044,
      "natural": 3045,
      "available": 3046,
      "video": 3047,
      "advantage": 3048,
      "excell": 3049,
      "cig": 3050,
      "ed": 3051,
      "jour": 3052,
      "##cut": 3053,
      "##ex": 3054,
      "##rit": 3055,
      "##eday": 3056,
      "##iment": 3057,
      "##unt": 3058,
      "happiness": 3059,
      "prov": 3060,
      "##ational": 3061,
      "intention": 3062,
      "themselves": 3063,
      "cla": 3064,
      "warn": 3065,
      "easier": 3066,
      "##acy": 3067,
      "hurts": 3068,
      "hobby": 3069,
      "parked": 3070,
      "someday": 3071,
      "costs": 3072,
      "perfectly": 3073,
      "failure": 3074,
      "email": 3075,
      "staring": 3076,
      "punct": 3077,
      "filled": 3078,
      "organized": 3079,
      "pleasure": 3080,
      "dentist": 3081,
      "unlikely": 3082,
      "journ": 3083,
      "fle": 3084,
      "hired": 3085,
      "tur": 3086,
      "##cument": 3087,
      "##yed": 3088,
      "##ker": 3089,
      "##den": 3090,
      "document": 3091,
      "##ets": 3092,
      "ste": 3093,
      "##using": 3094,
      "hero": 3095,
      "market": 3096,
      "conn": 3097,
      "prin": 3098,
      "pred": 3099,
      "##ective": 3100,
      "disag": 3101,
      "becom": 3102,
      "resign": 3103,
      "stranger": 3104,
      "attemp": 3105,
      "reply": 3106,
      "refuse": 3107,
      "facts": 3108,
      "denied": 3109,
      "burned": 3110,
      "rumor": 3111,
      "group": 3112,
      "excellent": 3113,
      "hous": 3114,
      "main": 3115,
      "naked": 3116,
      "oil": 3117,
      "page": 3118,
      "size": 3119,
      "##ses": 3120,
      "##wers": 3121,
      "threw": 3122,
      "##ings": 3123,
      "##uses": 3124,
      "sports": 3125,
      "loss": 3126,
      "tells": 3127,
      "##raged": 3128,
      "explo": 3129,
      "gives": 3130,
      "rained": 3131,
      "##lished": 3132,
      "illeg": 3133,
      "suggested": 3134,
      "population": 3135,
      "approach": 3136,
      "postp": 3137,
      "supermar": 3138,
      "gunshot": 3139,
      "unfortunately": 3140,
      "complicated": 3141,
      "supermarket": 3142,
      "gather": 3143,
      "nur": 3144,
      "roof": 3145,
      "ug": 3146,
      "##plan": 3147,
      "##ges": 3148,
      "tow": 3149,
      "alco": 3150,
      "##ung": 3151,
      "loc": 3152,
      "##ateful": 3153,
      "intell": 3154,
      "believes": 3155,
      "ears": 3156,
      "couch": 3157,
      "accustom": 3158,
      "england": 3159,
      "answers": 3160,
      "grateful": 3161,
      "foc": 3162,
      "invitation": 3163,
      "cheer": 3164,
      "highly": 3165,
      "airplan": 3166,
      "##perate": 3167,
      "arms": 3168,
      "survive": 3169,
      "destro": 3170,
      "chicken": 3171,
      "emergency": 3172,
      "hesit": 3173,
      "punctual": 3174,
      "alcohol": 3175,
      "aim": 3176,
      "dry": 3177,
      "furn": 3178,
      "gent": 3179,
      "pour": 3180,
      "race": 3181,
      "##ners": 3182,
      "##iff": 3183,
      "##light": 3184,
      "thirsty": 3185,
      "lies": 3186,
      "##tery": 3187,
      "within": 3188,
      "##urance": 3189,
      "noon": 3190,
      "##ode": 3191,
      "sof": 3192,
      "##ulous": 3193,
      "shoulder": 3194,
      "careless": 3195,
      "downstairs": 3196,
      "courage": 3197,
      "##aces": 3198,
      "record": 3199,
      "wears": 3200,
      "disappear": 3201,
      "examination": 3202,
      "fixed": 3203,
      "cops": 3204,
      "##ruct": 3205,
      "suspic": 3206,
      "fairly": 3207,
      "introduced": 3208,
      "woods": 3209,
      "practice": 3210,
      "garage": 3211,
      "webs": 3212,
      "picnic": 3213,
      "intellig": 3214,
      "bes": 3215,
      "brow": 3216,
      "cast": 3217,
      "dating": 3218,
      "fever": 3219,
      "fash": 3220,
      "glo": 3221,
      "jail": 3222,
      "##og": 3223,
      "##ls": 3224,
      "##ones": 3225,
      "##orter": 3226,
      "##omach": 3227,
      "meals": 3228,
      "shape": 3229,
      "goal": 3230,
      "stomach": 3231,
      "space": 3232,
      "##ield": 3233,
      "convers": 3234,
      "roll": 3235,
      "remained": 3236,
      "teen": 3237,
      "scare": 3238,
      "kinds": 3239,
      "useful": 3240,
      "contract": 3241,
      "checked": 3242,
      "concent": 3243,
      "americans": 3244,
      "artist": 3245,
      "speed": 3246,
      "insurance": 3247,
      "capital": 3248,
      "bathroom": 3249,
      "jumped": 3250,
      "critic": 3251,
      "delicious": 3252,
      "towel": 3253,
      "accustomed": 3254,
      "gentle": 3255,
      "sofa": 3256,
      "bite": 3257,
      "barely": 3258,
      "hi": 3259,
      "##ease": 3260,
      "##iable": 3261,
      "ital": 3262,
      "ant": 3263,
      "##antly": 3264,
      "##very": 3265,
      "##ainted": 3266,
      "saf": 3267,
      "frank": 3268,
      "wherever": 3269,
      "qual": 3270,
      "compet": 3271,
      "disease": 3272,
      "doors": 3273,
      "##ments": 3274,
      "acted": 3275,
      "runs": 3276,
      "repl": 3277,
      "retired": 3278,
      "borrowed": 3279,
      "prisoners": 3280,
      "depends": 3281,
      "neighborhood": 3282,
      "program": 3283,
      "basket": 3284,
      "position": 3285,
      "frightened": 3286,
      "banan": 3287,
      "concentr": 3288,
      "coo": 3289,
      "master": 3290,
      "sens": 3291,
      "tend": 3292,
      "wore": 3293,
      "##ging": 3294,
      "##atoes": 3295,
      "##llo": 3296,
      "##lebr": 3297,
      "##key": 3298,
      "stri": 3299,
      "##icer": 3300,
      "alarm": 3301,
      "exch": 3302,
      "offended": 3303,
      "pron": 3304,
      "unable": 3305,
      "mayor": 3306,
      "childhood": 3307,
      "surf": 3308,
      "ground": 3309,
      "##ians": 3310,
      "promises": 3311,
      "cheese": 3312,
      "winning": 3313,
      "slight": 3314,
      "stock": 3315,
      "hung": 3316,
      "closer": 3317,
      "solved": 3318,
      "treated": 3319,
      "example": 3320,
      "salary": 3321,
      "responsibility": 3322,
      "belongs": 3323,
      "request": 3324,
      "celebr": 3325,
      "eventually": 3326,
      "temperature": 3327,
      "guests": 3328,
      "commun": 3329,
      "magazine": 3330,
      "abandoned": 3331,
      "recommend": 3332,
      "education": 3333,
      "ugly": 3334,
      "conversation": 3335,
      "lower": 3336,
      "mer": 3337,
      "odd": 3338,
      "sang": 3339,
      "##par": 3340,
      "##ked": 3341,
      "##ler": 3342,
      "##xious": 3343,
      "##bb": 3344,
      "##ism": 3345,
      "rely": 3346,
      "members": 3347,
      "wasting": 3348,
      "state": 3349,
      "stren": 3350,
      "##iture": 3351,
      "area": 3352,
      "neare": 3353,
      "##ribut": 3354,
      "allerg": 3355,
      "suic": 3356,
      "using": 3357,
      "marri": 3358,
      "saving": 3359,
      "friday": 3360,
      "enc": 3361,
      "##arett": 3362,
      "jokes": 3363,
      "smiled": 3364,
      "apply": 3365,
      "##osen": 3366,
      "permit": 3367,
      "repair": 3368,
      "foods": 3369,
      "enjoying": 3370,
      "difficulty": 3371,
      "exciting": 3372,
      "cleaned": 3373,
      "complained": 3374,
      "deli": 3375,
      "smells": 3376,
      "football": 3377,
      "crossed": 3378,
      "arguing": 3379,
      "pressure": 3380,
      "finger": 3381,
      "negot": 3382,
      "occurred": 3383,
      "betrayed": 3384,
      "cigarett": 3385,
      "houses": 3386,
      "explosion": 3387,
      "illegal": 3388,
      "nurse": 3389,
      "furniture": 3390,
      "fashion": 3391,
      "safety": 3392,
      "nearest": 3393,
      "00": 3394,
      "hill": 3395,
      "hated": 3396,
      "jacks": 3397,
      "nar": 3398,
      "rab": 3399,
      "##ne": 3400,
      "##ith": 3401,
      "##ues": 3402,
      "##ases": 3403,
      "hello": 3404,
      "wit": 3405,
      "ability": 3406,
      "chosen": 3407,
      "trick": 3408,
      "soft": 3409,
      "spread": 3410,
      "exist": 3411,
      "dece": 3412,
      "workers": 3413,
      "proof": 3414,
      "remark": 3415,
      "hurried": 3416,
      "friendship": 3417,
      "scar": 3418,
      "repa": 3419,
      "drives": 3420,
      "smaller": 3421,
      "worrying": 3422,
      "elev": 3423,
      "sundays": 3424,
      "raised": 3425,
      "succeeded": 3426,
      "##bitious": 3427,
      "recognized": 3428,
      "climbed": 3429,
      "pushed": 3430,
      "leader": 3431,
      "model": 3432,
      "progress": 3433,
      "divorced": 3434,
      "##board": 3435,
      "stamps": 3436,
      "misunderstand": 3437,
      "orders": 3438,
      "cousin": 3439,
      "fence": 3440,
      "pill": 3441,
      "##form": 3442,
      "iss": 3443,
      "##etic": 3444,
      "yourselves": 3445,
      "##aint": 3446,
      "chall": 3447,
      "##cking": 3448,
      "sale": 3449,
      "div": 3450,
      "rock": 3451,
      "adop": 3452,
      "lovely": 3453,
      "advance": 3454,
      "flower": 3455,
      "grass": 3456,
      "classroom": 3457,
      "touched": 3458,
      "hug": 3459,
      "selling": 3460,
      "foolish": 3461,
      "effort": 3462,
      "iron": 3463,
      "midnight": 3464,
      "pulled": 3465,
      "violin": 3466,
      "investig": 3467,
      "cong": 3468,
      "gam": 3469,
      "pan": 3470,
      "psy": 3471,
      "##zzy": 3472,
      "##word": 3473,
      "thin": 3474,
      "##inite": 3475,
      "##asure": 3476,
      "##omb": 3477,
      "mel": 3478,
      "##icted": 3479,
      "oper": 3480,
      "impat": 3481,
      "sco": 3482,
      "resc": 3483,
      "badly": 3484,
      "invite": 3485,
      "concl": 3486,
      "corner": 3487,
      "prepare": 3488,
      "seats": 3489,
      "ignored": 3490,
      "irre": 3491,
      "photograph": 3492,
      "persuade": 3493,
      "damage": 3494,
      "drowned": 3495,
      "horrible": 3496,
      "repaired": 3497,
      "ast": 3498,
      "aunt": 3499,
      "dare": 3500,
      "file": 3501,
      "round": 3502,
      "ver": 3503,
      "##pe": 3504,
      "##ius": 3505,
      "##zz": 3506,
      "limit": 3507,
      "stars": 3508,
      "stairs": 3509,
      "plants": 3510,
      "amount": 3511,
      "separ": 3512,
      "dizzy": 3513,
      "unus": 3514,
      "guard": 3515,
      "parties": 3516,
      "planned": 3517,
      "lately": 3518,
      "wondering": 3519,
      "doctors": 3520,
      "writer": 3521,
      "behave": 3522,
      "obs": 3523,
      "cleaning": 3524,
      "incl": 3525,
      "army": 3526,
      "ruined": 3527,
      "indust": 3528,
      "ignor": 3529,
      "symp": 3530,
      "relaxed": 3531,
      "yellow": 3532,
      "talented": 3533,
      "persuaded": 3534,
      "##exp": 3535,
      "airplane": 3536,
      "suicide": 3537,
      "marriage": 3538,
      "negoti": 3539,
      "elevator": 3540,
      "impatient": 3541,
      "orig": 3542,
      "pity": 3543,
      "sour": 3544,
      "vase": 3545,
      "##fic": 3546,
      "##oon": 3547,
      "##ipped": 3548,
      "##ening": 3549,
      "##omet": 3550,
      "weigh": 3551,
      "anxious": 3552,
      "ones": 3553,
      "##itude": 3554,
      "shelf": 3555,
      "altern": 3556,
      "sport": 3557,
      "log": 3558,
      "loan": 3559,
      "season": 3560,
      "poison": 3561,
      "##ounds": 3562,
      "joking": 3563,
      "roses": 3564,
      "bull": 3565,
      "compared": 3566,
      "jobs": 3567,
      "finding": 3568,
      "interrupt": 3569,
      "science": 3570,
      "greet": 3571,
      "##cient": 3572,
      "##teen": 3573,
      "beauty": 3574,
      "served": 3575,
      "dreaming": 3576,
      "##ushed": 3577,
      "forest": 3578,
      "patience": 3579,
      "falling": 3580,
      "fallen": 3581,
      "illness": 3582,
      "extra": 3583,
      "burst": 3584,
      "silence": 3585,
      "south": 3586,
      "continued": 3587,
      "fortune": 3588,
      "brief": 3589,
      "prevented": 3590,
      "entirely": 3591,
      "audience": 3592,
      "suspicious": 3593,
      "bow": 3594,
      "cere": 3595,
      "est": 3596,
      "kil": 3597,
      "oce": 3598,
      "und": 3599,
      "ways": 3600,
      "##ob": 3601,
      "##cul": 3602,
      "##ji": 3603,
      "tong": 3604,
      "##ats": 3605,
      "##asons": 3606,
      "wealth": 3607,
      "##ically": 3608,
      "neck": 3609,
      "##amm": 3610,
      "##cture": 3611,
      "whoever": 3612,
      "nowhere": 3613,
      "expert": 3614,
      "adult": 3615,
      "studies": 3616,
      "writes": 3617,
      "pale": 3618,
      "prepar": 3619,
      "pieces": 3620,
      "suggestion": 3621,
      "lesson": 3622,
      "animal": 3623,
      "evidence": 3624,
      "skinny": 3625,
      "rabbit": 3626,
      "alternative": 3627,
      "tongue": 3628,
      "ess": 3629,
      "fal": 3630,
      "fond": 3631,
      "ju": 3632,
      "lat": 3633,
      "rarely": 3634,
      "##oors": 3635,
      "##ped": 3636,
      "##uff": 3637,
      "##atics": 3638,
      "rev": 3639,
      "rele": 3640,
      "member": 3641,
      "##ster": 3642,
      "stories": 3643,
      "##ains": 3644,
      "##essed": 3645,
      "teaches": 3646,
      "reserv": 3647,
      "advise": 3648,
      "strict": 3649,
      "percent": 3650,
      "##ails": 3651,
      "password": 3652,
      "##ledge": 3653,
      "thirteen": 3654,
      "traveled": 3655,
      "capable": 3656,
      "demanded": 3657,
      "mathem": 3658,
      "fifty": 3659,
      "scene": 3660,
      "graduated": 3661,
      "disagree": 3662,
      "brown": 3663,
      "jackson": 3664,
      "hors": 3665,
      "rough": 3666,
      "##ta": 3667,
      "##ron": 3668,
      "##gth": 3669,
      "##anced": 3670,
      "hammer": 3671,
      "shame": 3672,
      "shorter": 3673,
      "sty": 3674,
      "##its": 3675,
      "knowing": 3676,
      "spl": 3677,
      "spare": 3678,
      "places": 3679,
      "env": 3680,
      "coinc": 3681,
      "carp": 3682,
      "faith": 3683,
      "smiling": 3684,
      "ours": 3685,
      "orange": 3686,
      "awful": 3687,
      "applic": 3688,
      "understands": 3689,
      "blow": 3690,
      "decl": 3691,
      "phys": 3692,
      "##ucky": 3693,
      "skill": 3694,
      "relig": 3695,
      "reliable": 3696,
      "computers": 3697,
      "discussed": 3698,
      "assum": 3699,
      "drove": 3700,
      "experi": 3701,
      "election": 3702,
      "newspapers": 3703,
      "argument": 3704,
      "survived": 3705,
      "efforts": 3706,
      "germany": 3707,
      "committed": 3708,
      "appeared": 3709,
      "suffering": 3710,
      "uncom": 3711,
      "improve": 3712,
      "divorce": 3713,
      "fifteen": 3714,
      "201": 3715,
      "mirac": 3716,
      "stealing": 3717,
      "clouds": 3718,
      "criminal": 3719,
      "intelligent": 3720,
      "frankly": 3721,
      "strength": 3722,
      "misunderstanding": 3723,
      "false": 3724,
      "da": 3725,
      "dumb": 3726,
      "field": 3727,
      "gate": 3728,
      "nature": 3729,
      "ow": 3730,
      "pond": 3731,
      "russ": 3732,
      "wounded": 3733,
      "##ouraged": 3734,
      "theater": 3735,
      "##att": 3736,
      "whis": 3737,
      "dozen": 3738,
      "beard": 3739,
      "inse": 3740,
      "##lect": 3741,
      "meth": 3742,
      "anger": 3743,
      "##imate": 3744,
      "##ential": 3745,
      "##usting": 3746,
      "sung": 3747,
      "##unate": 3748,
      "##ives": 3749,
      "goods": 3750,
      "##ieve": 3751,
      "ambitious": 3752,
      "screw": 3753,
      "shoe": 3754,
      "##gging": 3755,
      "laid": 3756,
      "passeng": 3757,
      "relation": 3758,
      "relieved": 3759,
      "respond": 3760,
      "income": 3761,
      "redu": 3762,
      "infl": 3763,
      "begins": 3764,
      "fully": 3765,
      "captain": 3766,
      "genius": 3767,
      "honesty": 3768,
      "bottom": 3769,
      "elected": 3770,
      "deeply": 3771,
      "flying": 3772,
      "politics": 3773,
      "##ounce": 3774,
      "impression": 3775,
      "cancel": 3776,
      "barking": 3777,
      "major": 3778,
      "bleed": 3779,
      "properly": 3780,
      "puzz": 3781,
      "service": 3782,
      "victim": 3783,
      "gentleman": 3784,
      "witness": 3785,
      "psych": 3786,
      "mathematics": 3787,
      "horses": 3788,
      "passengers": 3789,
      "bi": 3790,
      "bass": 3791,
      "cro": 3792,
      "caut": 3793,
      "fake": 3794,
      "firm": 3795,
      "pants": 3796,
      "##tee": 3797,
      "##cin": 3798,
      "##com": 3799,
      "##he": 3800,
      "##pri": 3801,
      "##ixt": 3802,
      "##bling": 3803,
      "toile": 3804,
      "reasons": 3805,
      "stun": 3806,
      "socks": 3807,
      "alb": 3808,
      "happier": 3809,
      "board": 3810,
      "##illy": 3811,
      "unexp": 3812,
      "appears": 3813,
      "disl": 3814,
      "understanding": 3815,
      "final": 3816,
      "tech": 3817,
      "kindness": 3818,
      "actor": 3819,
      "contest": 3820,
      "perform": 3821,
      "greatest": 3822,
      "accidents": 3823,
      "host": 3824,
      "headed": 3825,
      "boxes": 3826,
      "eleven": 3827,
      "##velop": 3828,
      "terms": 3829,
      "stronger": 3830,
      "holding": 3831,
      "distract": 3832,
      "emot": 3833,
      "argue": 3834,
      "survi": 3835,
      "doubts": 3836,
      "definite": 3837,
      "committee": 3838,
      "pleasant": 3839,
      "unlucky": 3840,
      "crowded": 3841,
      "talent": 3842,
      "knocked": 3843,
      "canceled": 3844,
      "incredible": 3845,
      "repeat": 3846,
      "becoming": 3847,
      "poured": 3848,
      "castle": 3849,
      "ocean": 3850,
      "relationship": 3851,
      "unexpected": 3852,
      "100": 3853,
      "baked": 3854,
      "cult": 3855,
      "dea": 3856,
      "dump": 3857,
      "lack": 3858,
      "nons": 3859,
      "named": 3860,
      "oh": 3861,
      "rub": 3862,
      "sinc": 3863,
      "##rup": 3864,
      "thick": 3865,
      "##erk": 3866,
      "##eral": 3867,
      "##erence": 3868,
      "##ata": 3869,
      "hall": 3870,
      "##idays": 3871,
      "force": 3872,
      "##itor": 3873,
      "##vert": 3874,
      "aside": 3875,
      "##ores": 3876,
      "planted": 3877,
      "##acked": 3878,
      "gotta": 3879,
      "##apt": 3880,
      "rose": 3881,
      "lasted": 3882,
      "##angers": 3883,
      "surr": 3884,
      "struck": 3885,
      "trained": 3886,
      "desperate": 3887,
      "wondered": 3888,
      "cheated": 3889,
      "bitter": 3890,
      "hole": 3891,
      "visiting": 3892,
      "kissing": 3893,
      "register": 3894,
      "handsome": 3895,
      "miles": 3896,
      "bags": 3897,
      "offered": 3898,
      "novels": 3899,
      "##fficient": 3900,
      "drawer": 3901,
      "particip": 3902,
      "powerful": 3903,
      "value": 3904,
      "deny": 3905,
      "center": 3906,
      "robbed": 3907,
      "describe": 3908,
      "destroyed": 3909,
      "hesitate": 3910,
      "concentrate": 3911,
      "challen": 3912,
      "unusual": 3913,
      "coincidence": 3914,
      "method": 3915,
      "sincere": 3916,
      "dig": 3917,
      "fan": 3918,
      "hyp": 3919,
      "lines": 3920,
      "papers": 3921,
      "rom": 3922,
      "sink": 3923,
      "##mer": 3924,
      "##men": 3925,
      "##ym": 3926,
      "##go": 3927,
      "##gen": 3928,
      "##bel": 3929,
      "tower": 3930,
      "height": 3931,
      "##let": 3932,
      "##otos": 3933,
      "stared": 3934,
      "##ician": 3935,
      "##aled": 3936,
      "##iring": 3937,
      "##oph": 3938,
      "develop": 3939,
      "helps": 3940,
      "conven": 3941,
      "cares": 3942,
      "guide": 3943,
      "earns": 3944,
      "resour": 3945,
      "engaged": 3946,
      "fog": 3947,
      "photos": 3948,
      "warning": 3949,
      "higher": 3950,
      "closet": 3951,
      "complaints": 3952,
      "apologized": 3953,
      "delayed": 3954,
      "##mony": 3955,
      "instruct": 3956,
      "recei": 3957,
      "barg": 3958,
      "holidays": 3959,
      "generally": 3960,
      "modern": 3961,
      "options": 3962,
      "motor": 3963,
      "north": 3964,
      "pockets": 3965,
      "candy": 3966,
      "notebook": 3967,
      "bench": 3968,
      "textbook": 3969,
      "economy": 3970,
      "determined": 3971,
      "claim": 3972,
      "narrow": 3973,
      "adopted": 3974,
      "greeted": 3975,
      "2013": 3976,
      "album": 3977,
      "aver": 3978,
      "bomb": 3979,
      "ded": 3980,
      "fate": 3981,
      "lou": 3982,
      "mt": 3983,
      "ment": 3984,
      "rate": 3985,
      "tire": 3986,
      "##ai": 3987,
      "##aff": 3988,
      "##mates": 3989,
      "##ium": 3990,
      "##ouse": 3991,
      "##iny": 3992,
      "##rel": 3993,
      "itself": 3994,
      "liter": 3995,
      "##ites": 3996,
      "##iculous": 3997,
      "##tered": 3998,
      "spain": 3999,
      "plain": 4000,
      "deg": 4001,
      "deb": 4002,
      "cover": 4003,
      "arr": 4004,
      "afric": 4005,
      "lecture": 4006,
      "expl": 4007,
      "advert": 4008,
      "opening": 4009,
      "supper": 4010,
      "attended": 4011,
      "begun": 4012,
      "truly": 4013,
      "owns": 4014,
      "skirt": 4015,
      "cooked": 4016,
      "closely": 4017,
      "secrets": 4018,
      "mondays": 4019,
      "sales": 4020,
      "salad": 4021,
      "disappoint": 4022,
      "informed": 4023,
      "curtain": 4024,
      "insist": 4025,
      "successful": 4026,
      "paintings": 4027,
      "court": 4028,
      "danced": 4029,
      "hopes": 4030,
      "concern": 4031,
      "reminds": 4032,
      "threatened": 4033,
      "annoying": 4034,
      "author": 4035,
      "larger": 4036,
      "largest": 4037,
      "drugs": 4038,
      "circ": 4039,
      "journal": 4040,
      "connect": 4041,
      "focus": 4042,
      "italy": 4043,
      "preparing": 4044,
      "uncomfortable": 4045,
      "##priate": 4046,
      "toilet": 4047,
      "stunned": 4048,
      "deaf": 4049,
      "nonsense": 4050,
      "dedic": 4051,
      "dess": 4052,
      "fas": 4053,
      "lent": 4054,
      "rail": 4055,
      "silly": 4056,
      "var": 4057,
      "##apped": 4058,
      "##po": 4059,
      "##rance": 4060,
      "##wh": 4061,
      "##ware": 4062,
      "##eds": 4063,
      "##isy": 4064,
      "##enced": 4065,
      "##lled": 4066,
      "shook": 4067,
      "wire": 4068,
      "knowledge": 4069,
      "soph": 4070,
      "upon": 4071,
      "helpful": 4072,
      "##rent": 4073,
      "arch": 4074,
      "belt": 4075,
      "intended": 4076,
      "appl": 4077,
      "putting": 4078,
      "swear": 4079,
      "brit": 4080,
      "resist": 4081,
      "research": 4082,
      "##umn": 4083,
      "walks": 4084,
      "biggest": 4085,
      "beha": 4086,
      "choices": 4087,
      "##wards": 4088,
      "reasonable": 4089,
      "eleph": 4090,
      "sometime": 4091,
      "experiment": 4092,
      "mountains": 4093,
      "admitted": 4094,
      "hanging": 4095,
      "package": 4096,
      "generous": 4097,
      "violence": 4098,
      "cheaper": 4099,
      "fingers": 4100,
      "customers": 4101,
      "screaming": 4102,
      "attacked": 4103,
      "admire": 4104,
      "employees": 4105,
      "departure": 4106,
      "mirror": 4107,
      "film": 4108,
      "weapon": 4109,
      "professional": 4110,
      "disturb": 4111,
      "electricity": 4112,
      "internet": 4113,
      "website": 4114,
      "allergic": 4115,
      "scolded": 4116,
      "conclus": 4117,
      "ceremony": 4118,
      "survivor": 4119,
      "instructions": 4120,
      "dessert": 4121,
      "fascin": 4122,
      "cott": 4123,
      "double": 4124,
      "data": 4125,
      "gain": 4126,
      "honey": 4127,
      "jam": 4128,
      "lugg": 4129,
      "non": 4130,
      "os": 4131,
      "pet": 4132,
      "ren": 4133,
      "tatt": 4134,
      "##ney": 4135,
      "thro": 4136,
      "tor": 4137,
      "##ask": 4138,
      "inh": 4139,
      "shout": 4140,
      "##ute": 4141,
      "##riger": 4142,
      "chose": 4143,
      "champ": 4144,
      "plant": 4145,
      "##ilities": 4146,
      "##aka": 4147,
      "coach": 4148,
      "mob": 4149,
      "##asses": 4150,
      "rooms": 4151,
      "remo": 4152,
      "planet": 4153,
      "##ization": 4154,
      "mater": 4155,
      "invented": 4156,
      "surprising": 4157,
      "bitten": 4158,
      "lightning": 4159,
      "confidence": 4160,
      "confirm": 4161,
      "dreamed": 4162,
      "refriger": 4163,
      "apology": 4164,
      "signific": 4165,
      "legal": 4166,
      "taxes": 4167,
      "ridiculous": 4168,
      "bothering": 4169,
      "##ivid": 4170,
      "satisf": 4171,
      "translated": 4172,
      "valu": 4173,
      "occas": 4174,
      "##place": 4175,
      "##ounced": 4176,
      "optim": 4177,
      "potatoes": 4178,
      "achieve": 4179,
      "farmer": 4180,
      "assistance": 4181,
      "weapons": 4182,
      "disgusting": 4183,
      "discovered": 4184,
      "issue": 4185,
      "industry": 4186,
      "reservation": 4187,
      "assumed": 4188,
      "miracle": 4189,
      "challenge": 4190,
      "luggage": 4191,
      "osaka": 4192,
      "tattoo": 4193,
      "cd": 4194,
      "cities": 4195,
      "fant": 4196,
      "fought": 4197,
      "je": 4198,
      "lab": 4199,
      "mic": 4200,
      "sore": 4201,
      "sons": 4202,
      "sixt": 4203,
      "tip": 4204,
      "##pre": 4205,
      "##ples": 4206,
      "##asing": 4207,
      "##arian": 4208,
      "bee": 4209,
      "insp": 4210,
      "measure": 4211,
      "ancient": 4212,
      "lit": 4213,
      "##urity": 4214,
      "timid": 4215,
      "alike": 4216,
      "spy": 4217,
      "spite": 4218,
      "comb": 4219,
      "comment": 4220,
      "seated": 4221,
      "poet": 4222,
      "compos": 4223,
      "remove": 4224,
      "handy": 4225,
      "ident": 4226,
      "coun": 4227,
      "starts": 4228,
      "sleeps": 4229,
      "flood": 4230,
      "rainy": 4231,
      "security": 4232,
      "recent": 4233,
      "related": 4234,
      "conference": 4235,
      "haircut": 4236,
      "streets": 4237,
      "sells": 4238,
      "imagined": 4239,
      "warmer": 4240,
      "published": 4241,
      "volume": 4242,
      "purse": 4243,
      "entrance": 4244,
      "ringing": 4245,
      "possibly": 4246,
      "battle": 4247,
      "fluently": 4248,
      "accompan": 4249,
      "err": 4250,
      "fund": 4251,
      "turning": 4252,
      "gathered": 4253,
      "local": 4254,
      "disappeared": 4255,
      "gloves": 4256,
      "communic": 4257,
      "definitely": 4258,
      "dumped": 4259,
      "louder": 4260,
      "africa": 4261,
      "removed": 4262,
      "refrigerator": 4263,
      "bound": 4264,
      "eager": 4265,
      "hook": 4266,
      "nerve": 4267,
      "path": 4268,
      "pra": 4269,
      "ty": 4270,
      "tar": 4271,
      "##rom": 4272,
      "##umber": 4273,
      "##gage": 4274,
      "##val": 4275,
      "##bage": 4276,
      "##inting": 4277,
      "wasted": 4278,
      "##ches": 4279,
      "wild": 4280,
      "##antic": 4281,
      "sheep": 4282,
      "##pper": 4283,
      "noisy": 4284,
      "chop": 4285,
      "trou": 4286,
      "social": 4287,
      "outd": 4288,
      "ages": 4289,
      "mos": 4290,
      "unlo": 4291,
      "apparent": 4292,
      "handled": 4293,
      "keeping": 4294,
      "finan": 4295,
      "interrup": 4296,
      "flash": 4297,
      "funeral": 4298,
      "granted": 4299,
      "attitude": 4300,
      "contribut": 4301,
      "crack": 4302,
      "counting": 4303,
      "##uded": 4304,
      "sounded": 4305,
      "nearby": 4306,
      "regard": 4307,
      "snowing": 4308,
      "armed": 4309,
      "medical": 4310,
      "recovered": 4311,
      "signed": 4312,
      "##azz": 4313,
      "affect": 4314,
      "sweat": 4315,
      "factory": 4316,
      "subway": 4317,
      "burning": 4318,
      "climate": 4319,
      "miser": 4320,
      "enemies": 4321,
      "##isticated": 4322,
      "yelling": 4323,
      "volunteer": 4324,
      "square": 4325,
      "ambul": 4326,
      "autumn": 4327,
      "blew": 4328,
      "##ratul": 4329,
      "incredibly": 4330,
      "disturbed": 4331,
      "teenager": 4332,
      "cooper": 4333,
      "sensitive": 4334,
      "cigarettes": 4335,
      "congratul": 4336,
      "influ": 4337,
      "bleeding": 4338,
      "bargain": 4339,
      "average": 4340,
      "sophisticated": 4341,
      "accompanied": 4342,
      "16": 4343,
      "bare": 4344,
      "cit": 4345,
      "cough": 4346,
      "gree": 4347,
      "hy": 4348,
      "hom": 4349,
      "mall": 4350,
      "mass": 4351,
      "nin": 4352,
      "nation": 4353,
      "rented": 4354,
      "##iven": 4355,
      "##yond": 4356,
      "##lig": 4357,
      "##vere": 4358,
      "##que": 4359,
      "##jud": 4360,
      "##reen": 4361,
      "##though": 4362,
      "beyond": 4363,
      "reject": 4364,
      "##stery": 4365,
      "stret": 4366,
      "mystery": 4367,
      "##verse": 4368,
      "neat": 4369,
      "##ama": 4370,
      "##ament": 4371,
      "chee": 4372,
      "chances": 4373,
      "trad": 4374,
      "although": 4375,
      "sail": 4376,
      "poll": 4377,
      "bucket": 4378,
      "comprom": 4379,
      "twin": 4380,
      "##aughter": 4381,
      "useless": 4382,
      "shock": 4383,
      "actress": 4384,
      "tense": 4385,
      "policy": 4386,
      "personally": 4387,
      "##aced": 4388,
      "musician": 4389,
      "fastest": 4390,
      "regular": 4391,
      "deadline": 4392,
      "okay": 4393,
      "daughters": 4394,
      "darker": 4395,
      "sett": 4396,
      "assume": 4397,
      "current": 4398,
      "insane": 4399,
      "simp": 4400,
      "prisoner": 4401,
      "calcul": 4402,
      "freed": 4403,
      "deserves": 4404,
      "humor": 4405,
      "punish": 4406,
      "risks": 4407,
      "privacy": 4408,
      "straw": 4409,
      "embarrassing": 4410,
      "ceiling": 4411,
      "fortunate": 4412,
      "cows": 4413,
      "candles": 4414,
      "selfish": 4415,
      "products": 4416,
      "authority": 4417,
      "assistant": 4418,
      "scientist": 4419,
      "fuji": 4420,
      "ghosts": 4421,
      "edge": 4422,
      "predict": 4423,
      "strike": 4424,
      "investigation": 4425,
      "operation": 4426,
      "sympath": 4427,
      "throat": 4428,
      "jeans": 4429,
      "mosqu": 4430,
      "ambulance": 4431,
      "civ": 4432,
      "jazz": 4433,
      "kicked": 4434,
      "loo": 4435,
      "oven": 4436,
      "rush": 4437,
      "vain": 4438,
      "voted": 4439,
      "##ev": 4440,
      "##rain": 4441,
      "##gress": 4442,
      "##lasses": 4443,
      "##vant": 4444,
      "##vard": 4445,
      "##xic": 4446,
      "##bly": 4447,
      "##ero": 4448,
      "##inary": 4449,
      "##rees": 4450,
      "whist": 4451,
      "wheel": 4452,
      "##arily": 4453,
      "##owed": 4454,
      "##omat": 4455,
      "ink": 4456,
      "shake": 4457,
      "shave": 4458,
      "stat": 4459,
      "steak": 4460,
      "##entine": 4461,
      "however": 4462,
      "cher": 4463,
      "span": 4464,
      "defe": 4465,
      "##illed": 4466,
      "aggress": 4467,
      "diam": 4468,
      "pray": 4469,
      "bud": 4470,
      "below": 4471,
      "uns": 4472,
      "##issors": 4473,
      "blan": 4474,
      "scrat": 4475,
      "scissors": 4476,
      "remembered": 4477,
      "answering": 4478,
      "attach": 4479,
      "mistook": 4480,
      "action": 4481,
      "crash": 4482,
      "snakes": 4483,
      "##weight": 4484,
      "agreement": 4485,
      "tallest": 4486,
      "##ology": 4487,
      "##ologist": 4488,
      "spoon": 4489,
      "complex": 4490,
      "recover": 4491,
      "baggage": 4492,
      "buildings": 4493,
      "bills": 4494,
      "oppos": 4495,
      "protest": 4496,
      "hoped": 4497,
      "valentine": 4498,
      "required": 4499,
      "charges": 4500,
      "loudly": 4501,
      "appearance": 4502,
      "improved": 4503,
      "direction": 4504,
      "error": 4505,
      "harvard": 4506,
      "collecting": 4507,
      "equal": 4508,
      "unfair": 4509,
      "flew": 4510,
      "attempt": 4511,
      "postponed": 4512,
      "gambling": 4513,
      "whisper": 4514,
      "sunglasses": 4515,
      "motorcy": 4516,
      "valuable": 4517,
      "fantastic": 4518,
      "target": 4519,
      "citiz": 4520,
      "simply": 4521,
      "18": 4522,
      "bal": 4523,
      "dust": 4524,
      "ease": 4525,
      "fuss": 4526,
      "fainted": 4527,
      "gear": 4528,
      "nicer": 4529,
      "pig": 4530,
      "pitch": 4531,
      "rome": 4532,
      "van": 4533,
      "wre": 4534,
      "##oc": 4535,
      "##aire": 4536,
      "##mate": 4537,
      "toy": 4538,
      "##isis": 4539,
      "##ows": 4540,
      "shaken": 4541,
      "##stick": 4542,
      "forty": 4543,
      "knit": 4544,
      "##cts": 4545,
      "frustr": 4546,
      "conse": 4547,
      "coins": 4548,
      "quarter": 4549,
      "underest": 4550,
      "unemp": 4551,
      "##agger": 4552,
      "twel": 4553,
      "twins": 4554,
      "blond": 4555,
      "interv": 4556,
      "forgiven": 4557,
      "accur": 4558,
      "brain": 4559,
      "turns": 4560,
      "supplies": 4561,
      "cleared": 4562,
      "wishes": 4563,
      "##print": 4564,
      "crisis": 4565,
      "lawn": 4566,
      "importance": 4567,
      "ends": 4568,
      "oblig": 4569,
      "stopping": 4570,
      "numbers": 4571,
      "grown": 4572,
      "grows": 4573,
      "retire": 4574,
      "absence": 4575,
      "pickpo": 4576,
      "suits": 4577,
      "shirts": 4578,
      "##ivated": 4579,
      "receive": 4580,
      "silver": 4581,
      "translation": 4582,
      "breathe": 4583,
      "mouse": 4584,
      "packed": 4585,
      "loser": 4586,
      "grades": 4587,
      "particularly": 4588,
      "ambition": 4589,
      "department": 4590,
      "tourists": 4591,
      "postpone": 4592,
      "aimed": 4593,
      "beside": 4594,
      "replace": 4595,
      "banana": 4596,
      "exchange": 4597,
      "juice": 4598,
      "russian": 4599,
      "distracted": 4600,
      "surrounded": 4601,
      "mentally": 4602,
      "survivors": 4603,
      "significant": 4604,
      "miserable": 4605,
      "mosquit": 4606,
      "blanket": 4607,
      "unemploy": 4608,
      "twelve": 4609,
      "cure": 4610,
      "jerk": 4611,
      "loose": 4612,
      "national": 4613,
      "pil": 4614,
      "port": 4615,
      "peel": 4616,
      "tied": 4617,
      "wis": 4618,
      "west": 4619,
      "##town": 4620,
      "##cast": 4621,
      "##hib": 4622,
      "##gu": 4623,
      "##gl": 4624,
      "##jam": 4625,
      "##anic": 4626,
      "##arant": 4627,
      "##ids": 4628,
      "meters": 4629,
      "staff": 4630,
      "fork": 4631,
      "##itable": 4632,
      "candle": 4633,
      "knees": 4634,
      "##ends": 4635,
      "hers": 4636,
      "mars": 4637,
      "exagger": 4638,
      "boots": 4639,
      "prohib": 4640,
      "sees": 4641,
      "sevent": 4642,
      "stubb": 4643,
      "guarant": 4644,
      "downtown": 4645,
      "puts": 4646,
      "switch": 4647,
      "interse": 4648,
      "accent": 4649,
      "brand": 4650,
      "decor": 4651,
      "##cially": 4652,
      "fox": 4653,
      "strangers": 4654,
      "breaking": 4655,
      "training": 4656,
      "content": 4657,
      "##acter": 4658,
      "##igned": 4659,
      "##unched": 4660,
      "conscious": 4661,
      "parking": 4662,
      "freez": 4663,
      "secretary": 4664,
      "changing": 4665,
      "complaint": 4666,
      "grandp": 4667,
      "walls": 4668,
      "terrified": 4669,
      "terribly": 4670,
      "raw": 4671,
      "##ival": 4672,
      "crossing": 4673,
      "appropriate": 4674,
      "effect": 4675,
      "effective": 4676,
      "memor": 4677,
      "hundreds": 4678,
      "require": 4679,
      "suitcases": 4680,
      "conditions": 4681,
      "total": 4682,
      "garbage": 4683,
      "volunteered": 4684,
      "admired": 4685,
      "positive": 4686,
      "cellphone": 4687,
      "remains": 4688,
      "camping": 4689,
      "circle": 4690,
      "towards": 4691,
      "scientists": 4692,
      "increase": 4693,
      "bananas": 4694,
      "released": 4695,
      "cautious": 4696,
      "culture": 4697,
      "occasion": 4698,
      "micro": 4699,
      "freedom": 4700,
      "civil": 4701,
      "stubborn": 4702,
      "15": 4703,
      "code": 4704,
      "dy": 4705,
      "eld": 4706,
      "gro": 4707,
      "lin": 4708,
      "pin": 4709,
      "pard": 4710,
      "rac": 4711,
      "ske": 4712,
      "tail": 4713,
      "vot": 4714,
      "##nel": 4715,
      "##to": 4716,
      "##ald": 4717,
      "##cles": 4718,
      "##wise": 4719,
      "##bs": 4720,
      "toes": 4721,
      "##ators": 4722,
      "##onent": 4723,
      "##ester": 4724,
      "item": 4725,
      "shared": 4726,
      "##store": 4727,
      "goals": 4728,
      "##chief": 4729,
      "##ooth": 4730,
      "##urs": 4731,
      "atm": 4732,
      "trap": 4733,
      "envel": 4734,
      "##iev": 4735,
      "mud": 4736,
      "carr": 4737,
      "reads": 4738,
      "officer": 4739,
      "lean": 4740,
      "overweight": 4741,
      "blamed": 4742,
      "interpre": 4743,
      "bran": 4744,
      "surg": 4745,
      "flag": 4746,
      "##cific": 4747,
      "strugg": 4748,
      "attic": 4749,
      "beginner": 4750,
      "whichever": 4751,
      "serve": 4752,
      "visa": 4753,
      "##onscious": 4754,
      "border": 4755,
      "cookie": 4756,
      "discount": 4757,
      "relative": 4758,
      "classes": 4759,
      "##logy": 4760,
      "visitors": 4761,
      "##ibilities": 4762,
      "strongly": 4763,
      "detective": 4764,
      "insult": 4765,
      "soldier": 4766,
      "tempt": 4767,
      "respected": 4768,
      "dancer": 4769,
      "universe": 4770,
      "fits": 4771,
      "formed": 4772,
      "197": 4773,
      "defend": 4774,
      "reminded": 4775,
      "evil": 4776,
      "unconscious": 4777,
      "thousands": 4778,
      "battery": 4779,
      "century": 4780,
      "achieved": 4781,
      "gunshots": 4782,
      "mentioned": 4783,
      "millionaire": 4784,
      "devoted": 4785,
      "grabbed": 4786,
      "benef": 4787,
      "debts": 4788,
      "despise": 4789,
      "provide": 4790,
      "journey": 4791,
      "documents": 4792,
      "exchanged": 4793,
      "rescued": 4794,
      "split": 4795,
      "carpet": 4796,
      "convenient": 4797,
      "receipt": 4798,
      "debate": 4799,
      "dedicated": 4800,
      "mobile": 4801,
      "typh": 4802,
      "homes": 4803,
      "rejected": 4804,
      "compromise": 4805,
      "diamond": 4806,
      "pickpocket": 4807,
      "intersection": 4808,
      "envelope": 4809,
      "12": 4810,
      "ath": 4811,
      "cy": 4812,
      "cree": 4813,
      "crew": 4814,
      "efficient": 4815,
      "ox": 4816,
      "rot": 4817,
      "rare": 4818,
      "task": 4819,
      "##fere": 4820,
      "##tured": 4821,
      "##mail": 4822,
      "##pir": 4823,
      "##ration": 4824,
      "##yal": 4825,
      "##ux": 4826,
      "##uary": 4827,
      "##wr": 4828,
      "##wash": 4829,
      "##bled": 4830,
      "toys": 4831,
      "##edy": 4832,
      "whale": 4833,
      "##aries": 4834,
      "##thy": 4835,
      "beating": 4836,
      "lif": 4837,
      "##stances": 4838,
      "sting": 4839,
      "stress": 4840,
      "##ril": 4841,
      "##ceful": 4842,
      "sum": 4843,
      "chat": 4844,
      "chest": 4845,
      "chairs": 4846,
      "##geon": 4847,
      "plastic": 4848,
      "sau": 4849,
      "comfort": 4850,
      "proceed": 4851,
      "sew": 4852,
      "pointed": 4853,
      "offic": 4854,
      "pregn": 4855,
      "bug": 4856,
      "orang": 4857,
      "compl": 4858,
      "##agers": 4859,
      "handker": 4860,
      "##agement": 4861,
      "finds": 4862,
      "interfere": 4863,
      "scary": 4864,
      "engagement": 4865,
      "bedtime": 4866,
      "folded": 4867,
      "##ption": 4868,
      "trump": 4869,
      "mission": 4870,
      "rested": 4871,
      "##uding": 4872,
      "sneak": 4873,
      "difficulties": 4874,
      "presence": 4875,
      "classmates": 4876,
      "pajam": 4877,
      "bringing": 4878,
      "incomp": 4879,
      "safely": 4880,
      "exams": 4881,
      "examined": 4882,
      "settle": 4883,
      "halfway": 4884,
      "rising": 4885,
      "ruin": 4886,
      "blackboard": 4887,
      "hidden": 4888,
      "buried": 4889,
      "burgl": 4890,
      "agrees": 4891,
      "thrown": 4892,
      "canada": 4893,
      "maid": 4894,
      "general": 4895,
      "pencils": 4896,
      "suffered": 4897,
      "coward": 4898,
      "fluent": 4899,
      "accomplish": 4900,
      "critical": 4901,
      "lifted": 4902,
      "misunderstood": 4903,
      "acquainted": 4904,
      "connected": 4905,
      "besides": 4906,
      "quality": 4907,
      "basketball": 4908,
      "divided": 4909,
      "style": 4910,
      "application": 4911,
      "experienced": 4912,
      "dislike": 4913,
      "connection": 4914,
      "fascinating": 4915,
      "satisfact": 4916,
      "optimistic": 4917,
      "apparently": 4918,
      "aggressive": 4919,
      "motorcycle": 4920,
      "wreck": 4921,
      "consequ": 4922,
      "prohibited": 4923,
      "carrots": 4924,
      "surgery": 4925,
      "oranges": 4926,
      "handkerchief": 4927,
      "pajamas": 4928,
      "50": 4929,
      "bone": 4930,
      "drew": 4931,
      "gym": 4932,
      "imit": 4933,
      "june": 4934,
      "led": 4935,
      "laughter": 4936,
      "mix": 4937,
      "pens": 4938,
      "rap": 4939,
      "racket": 4940,
      "tit": 4941,
      "tent": 4942,
      "wound": 4943,
      "##ios": 4944,
      "thor": 4945,
      "toler": 4946,
      "##erved": 4947,
      "##onment": 4948,
      "##res": 4949,
      "beef": 4950,
      "infect": 4951,
      "mexic": 4952,
      "ange": 4953,
      "online": 4954,
      "##icing": 4955,
      "knee": 4956,
      "##ironment": 4957,
      "##ppy": 4958,
      "##rog": 4959,
      "worn": 4960,
      "loaded": 4961,
      "##ulted": 4962,
      "fridge": 4963,
      "helpless": 4964,
      "worker": 4965,
      "conce": 4966,
      "poker": 4967,
      "##igner": 4968,
      "dipl": 4969,
      "pride": 4970,
      "joined": 4971,
      "awfully": 4972,
      "appet": 4973,
      "earn": 4974,
      "sword": 4975,
      "stops": 4976,
      "glanced": 4977,
      "clue": 4978,
      "##ciation": 4979,
      "supply": 4980,
      "minister": 4981,
      "activ": 4982,
      "youngest": 4983,
      "crashed": 4984,
      "cheating": 4985,
      "skate": 4986,
      "april": 4987,
      "laund": 4988,
      "hunting": 4989,
      "guessed": 4990,
      "excuses": 4991,
      "refu": 4992,
      "closest": 4993,
      "treating": 4994,
      "incident": 4995,
      "laws": 4996,
      "##screen": 4997,
      "absor": 4998,
      "expenses": 4999,
      "decisions": 5000,
      "sunscreen": 5001,
      "falls": 5002,
      "seconds": 5003,
      "opinions": 5004,
      "deserved": 5005,
      "deserted": 5006,
      "starved": 5007,
      "starving": 5008,
      "approved": 5009,
      "topic": 5010,
      "vegetarian": 5011,
      "supportive": 5012,
      "innoc": 5013,
      "personality": 5014,
      "suffer": 5015,
      "option": 5016,
      "screamed": 5017,
      "rumors": 5018,
      "impressive": 5019,
      "bloom": 5020,
      "negative": 5021,
      "creative": 5022,
      "searched": 5023,
      "##ength": 5024,
      "scenery": 5025,
      "productive": 5026,
      "graduate": 5027,
      "frog": 5028,
      "provided": 5029,
      "princi": 5030,
      "antic": 5031,
      "pronounce": 5032,
      "pills": 5033,
      "original": 5034,
      "briefly": 5035,
      "latest": 5036,
      "environment": 5037,
      "religious": 5038,
      "##lected": 5039,
      "puzzle": 5040,
      "performance": 5041,
      "degrees": 5042,
      "circum": 5043,
      "british": 5044,
      "tradition": 5045,
      "settled": 5046,
      "cherry": 5047,
      "budget": 5048,
      "thorough": 5049,
      "200": 5050,
      "aston": 5051,
      "bunch": 5052,
      "based": 5053,
      "dorm": 5054,
      "dyed": 5055,
      "lamp": 5056,
      "ner": 5057,
      "nag": 5058,
      "row": 5059,
      "vivid": 5060,
      "##nical": 5061,
      "##fo": 5062,
      "##mare": 5063,
      "##ially": 5064,
      "##ka": 5065,
      "##uish": 5066,
      "##uous": 5067,
      "##zed": 5068,
      "##lace": 5069,
      "##render": 5070,
      "##orary": 5071,
      "react": 5072,
      "donated": 5073,
      "##imp": 5074,
      "##adays": 5075,
      "chew": 5076,
      "trunk": 5077,
      "soci": 5078,
      "uses": 5079,
      "spin": 5080,
      "outl": 5081,
      "##ilies": 5082,
      "bold": 5083,
      "##ieves": 5084,
      "demon": 5085,
      "##ession": 5086,
      "manners": 5087,
      "coast": 5088,
      "sem": 5089,
      "nowadays": 5090,
      "jogging": 5091,
      "bookstore": 5092,
      "bush": 5093,
      "adj": 5094,
      "leak": 5095,
      "faces": 5096,
      "smooth": 5097,
      "unw": 5098,
      "unif": 5099,
      "compare": 5100,
      "waved": 5101,
      "intrig": 5102,
      "clothing": 5103,
      "nightmare": 5104,
      "opera": 5105,
      "swall": 5106,
      "swam": 5107,
      "##abet": 5108,
      "watches": 5109,
      "surrender": 5110,
      "decent": 5111,
      "gray": 5112,
      "families": 5113,
      "trains": 5114,
      "sings": 5115,
      "recall": 5116,
      "recons": 5117,
      "promoted": 5118,
      "chem": 5119,
      "breaks": 5120,
      "##ensive": 5121,
      "consists": 5122,
      "discouraged": 5123,
      "confessed": 5124,
      "addition": 5125,
      "addressed": 5126,
      "refer": 5127,
      "##ibi": 5128,
      "richest": 5129,
      "hugged": 5130,
      "disappointing": 5131,
      "risky": 5132,
      "blackmail": 5133,
      "riding": 5134,
      "indoors": 5135,
      "soul": 5136,
      "heavily": 5137,
      "slee": 5138,
      "postc": 5139,
      "grave": 5140,
      "carrying": 5141,
      "dishwash": 5142,
      "pressed": 5143,
      "charming": 5144,
      "conditioner": 5145,
      "eighteen": 5146,
      "political": 5147,
      "politician": 5148,
      "customer": 5149,
      "motivated": 5150,
      "knock": 5151,
      "climbing": 5152,
      "magazines": 5153,
      "spotted": 5154,
      "constantly": 5155,
      "professor": 5156,
      "websites": 5157,
      "surface": 5158,
      "remarks": 5159,
      "verify": 5160,
      "source": 5161,
      "logical": 5162,
      "necklace": 5163,
      "revol": 5164,
      "owes": 5165,
      "psychic": 5166,
      "participate": 5167,
      "journalist": 5168,
      "elephants": 5169,
      "outdoors": 5170,
      "financial": 5171,
      "flashlight": 5172,
      "spanish": 5173,
      "interview": 5174,
      "pardon": 5175,
      "temptation": 5176,
      "pregnant": 5177,
      "compliment": 5178,
      "incompet": 5179,
      "innocence": 5180,
      "anticip": 5181,
      "circumstances": 5182,
      "uniform": 5183,
      "reconsider": 5184,
      "dishwasher": 5185,
      "13": 5186,
      "500": 5187,
      "ack": 5188,
      "bul": 5189,
      "cave": 5190,
      "east": 5191,
      "gor": 5192,
      "gained": 5193,
      "lapt": 5194,
      "length": 5195,
      "sides": 5196,
      "tig": 5197,
      "tires": 5198,
      "tiny": 5199,
      "wand": 5200,
      "wra": 5201,
      "zero": 5202,
      "##now": 5203,
      "##oard": 5204,
      "##cies": 5205,
      "##cated": 5206,
      "##sit": 5207,
      "##pes": 5208,
      "##yst": 5209,
      "##dy": 5210,
      "thumb": 5211,
      "thurs": 5212,
      "youth": 5213,
      "##resh": 5214,
      "##oms": 5215,
      "##omy": 5216,
      "shr": 5217,
      "##ales": 5218,
      "shel": 5219,
      "aboard": 5220,
      "trade": 5221,
      "alph": 5222,
      "##ender": 5223,
      "##ulse": 5224,
      "letting": 5225,
      "severe": 5226,
      "pref": 5227,
      "precious": 5228,
      "thoughts": 5229,
      "##epend": 5230,
      "players": 5231,
      "remote": 5232,
      "applies": 5233,
      "disob": 5234,
      "parts": 5235,
      "otherwise": 5236,
      "blown": 5237,
      "bluff": 5238,
      "##izing": 5239,
      "access": 5240,
      "shows": 5241,
      "hopeless": 5242,
      "surgeon": 5243,
      "flies": 5244,
      "minor": 5245,
      "begged": 5246,
      "thanked": 5247,
      "painful": 5248,
      "desert": 5249,
      "slice": 5250,
      "classical": 5251,
      "eyesight": 5252,
      "added": 5253,
      "addicted": 5254,
      "refresh": 5255,
      "appreciated": 5256,
      "##scri": 5257,
      "craw": 5258,
      "facebook": 5259,
      "babysit": 5260,
      "dollar": 5261,
      "menu": 5262,
      "ridden": 5263,
      "acceptable": 5264,
      "india": 5265,
      "tests": 5266,
      "lawyers": 5267,
      "opponent": 5268,
      "bothered": 5269,
      "subscri": 5270,
      "gifts": 5271,
      "irrit": 5272,
      "announced": 5273,
      "##coat": 5274,
      "landed": 5275,
      "judging": 5276,
      "destination": 5277,
      "treats": 5278,
      "motion": 5279,
      "volunteers": 5280,
      "knocking": 5281,
      "poems": 5282,
      "pretending": 5283,
      "cabin": 5284,
      "frozen": 5285,
      "becomes": 5286,
      "attempted": 5287,
      "approaching": 5288,
      "qualified": 5289,
      "slightly": 5290,
      "celebrating": 5291,
      "mercy": 5292,
      "permitted": 5293,
      "cigarette": 5294,
      "rescue": 5295,
      "astron": 5296,
      "ignorant": 5297,
      "origin": 5298,
      "bullet": 5299,
      "adults": 5300,
      "essential": 5301,
      "crops": 5302,
      "emotional": 5303,
      "insisted": 5304,
      "railroad": 5305,
      "archite": 5306,
      "behaving": 5307,
      "cottage": 5308,
      "renew": 5309,
      "material": 5310,
      "composition": 5311,
      "underestimate": 5312,
      "accurate": 5313,
      "##guard": 5314,
      "seventeen": 5315,
      "skept": 5316,
      "typhoon": 5317,
      "pickpockets": 5318,
      "appetite": 5319,
      "laundry": 5320,
      "demonst": 5321,
      "acknow": 5322,
      "laptop": 5323,
      "thursday": 5324,
      "alphabet": 5325,
      "disobey": 5326,
      "eth": 5327,
      "ge": 5328,
      "jew": 5329,
      "nail": 5330,
      "pier": 5331,
      "pounds": 5332,
      "rise": 5333,
      "wide": 5334,
      "yard": 5335,
      "##nes": 5336,
      "##oke": 5337,
      "##tub": 5338,
      "##rant": 5339,
      "##kward": 5340,
      "##uct": 5341,
      "##dom": 5342,
      "##wood": 5343,
      "thieves": 5344,
      "##ato": 5345,
      "##rector": 5346,
      "##eness": 5347,
      "ham": 5348,
      "tomatoes": 5349,
      "mech": 5350,
      "##otion": 5351,
      "sha": 5352,
      "ang": 5353,
      "ants": 5354,
      "stro": 5355,
      "##ching": 5356,
      "wiped": 5357,
      "##verty": 5358,
      "##ooked": 5359,
      "nodd": 5360,
      "##roph": 5361,
      "track": 5362,
      "alice": 5363,
      "alibi": 5364,
      "spilled": 5365,
      "plate": 5366,
      "plumber": 5367,
      "shoulders": 5368,
      "process": 5369,
      "amends": 5370,
      "poverty": 5371,
      "asks": 5372,
      "##orted": 5373,
      "arrow": 5374,
      "cared": 5375,
      "director": 5376,
      "prime": 5377,
      "prec": 5378,
      "joy": 5379,
      "role": 5380,
      "backwards": 5381,
      "##ures": 5382,
      "drum": 5383,
      "intim": 5384,
      "awkward": 5385,
      "schools": 5386,
      "##ressing": 5387,
      "hardest": 5388,
      "earned": 5389,
      "blush": 5390,
      "fined": 5391,
      "hurting": 5392,
      "forgave": 5393,
      "client": 5394,
      "clung": 5395,
      "bru": 5396,
      "phil": 5397,
      "minim": 5398,
      "active": 5399,
      "contain": 5400,
      "contains": 5401,
      "desire": 5402,
      "reput": 5403,
      "repres": 5404,
      "arriving": 5405,
      "consult": 5406,
      "trusts": 5407,
      "sli": 5408,
      "slipped": 5409,
      "stands": 5410,
      "##duct": 5411,
      "teleph": 5412,
      "term": 5413,
      "considering": 5414,
      "consideration": 5415,
      "presents": 5416,
      "signs": 5417,
      "sunset": 5418,
      "300": 5419,
      "affair": 5420,
      "weekends": 5421,
      "delay": 5422,
      "captured": 5423,
      "suggesting": 5424,
      "warmth": 5425,
      "copies": 5426,
      "independ": 5427,
      "frequ": 5428,
      "humid": 5429,
      "humili": 5430,
      "##ruction": 5431,
      "tasted": 5432,
      "bathtub": 5433,
      "correctly": 5434,
      "fooled": 5435,
      "foreigners": 5436,
      "valid": 5437,
      "urged": 5438,
      "welcom": 5439,
      "magic": 5440,
      "character": 5441,
      "##coln": 5442,
      "violent": 5443,
      "absolute": 5444,
      "fortunately": 5445,
      "murdered": 5446,
      "steps": 5447,
      "european": 5448,
      "demands": 5449,
      "exception": 5450,
      "bribe": 5451,
      "blocked": 5452,
      "threatening": 5453,
      "annoyed": 5454,
      "habits": 5455,
      "devast": 5456,
      "files": 5457,
      "harvest": 5458,
      "drowning": 5459,
      "abandon": 5460,
      "spelling": 5461,
      "##riter": 5462,
      "flex": 5463,
      "stepped": 5464,
      "princess": 5465,
      "teenagers": 5466,
      "hiking": 5467,
      "cooperate": 5468,
      "celebrate": 5469,
      "encouraged": 5470,
      "delivered": 5471,
      "separated": 5472,
      "wealthy": 5473,
      "##ammed": 5474,
      "registered": 5475,
      "romantic": 5476,
      "resourceful": 5477,
      "claims": 5478,
      "applied": 5479,
      "sixty": 5480,
      "cheek": 5481,
      "strawber": 5482,
      "opposite": 5483,
      "whispered": 5484,
      "unemployed": 5485,
      "pilot": 5486,
      "lincoln": 5487,
      "interpreter": 5488,
      "branch": 5489,
      "burglar": 5490,
      "tolerate": 5491,
      "incompetent": 5492,
      "bluffing": 5493,
      "welcomed": 5494,
      "11": 5495,
      "esp": 5496,
      "fem": 5497,
      "gently": 5498,
      "hilar": 5499,
      "mere": 5500,
      "mut": 5501,
      "mile": 5502,
      "oly": 5503,
      "oyst": 5504,
      "pal": 5505,
      "pure": 5506,
      "pace": 5507,
      "rat": 5508,
      "sen": 5509,
      "sir": 5510,
      "tid": 5511,
      "tune": 5512,
      "vir": 5513,
      "##oided": 5514,
      "##cl": 5515,
      "##cra": 5516,
      "##cure": 5517,
      "##sle": 5518,
      "##ials": 5519,
      "##ray": 5520,
      "##ral": 5521,
      "##rad": 5522,
      "##rument": 5523,
      "##uine": 5524,
      "##gy": 5525,
      "##zil": 5526,
      "##bi": 5527,
      "##ourage": 5528,
      "tore": 5529,
      "##rett": 5530,
      "##orable": 5531,
      "##levant": 5532,
      "shaking": 5533,
      "shade": 5534,
      "lion": 5535,
      "##eter": 5536,
      "stays": 5537,
      "stage": 5538,
      "##icag": 5539,
      "notes": 5540,
      "##ammar": 5541,
      "anytime": 5542,
      "chicag": 5543,
      "trous": 5544,
      "##geous": 5545,
      "##unciation": 5546,
      "outraged": 5547,
      "load": 5548,
      "loving": 5549,
      "##uled": 5550,
      "##ulting": 5551,
      "sacri": 5552,
      "##iles": 5553,
      "deals": 5554,
      "command": 5555,
      "manual": 5556,
      "prover": 5557,
      "queen": 5558,
      "##igr": 5559,
      "arrog": 5560,
      "prince": 5561,
      "lottery": 5562,
      "pepper": 5563,
      "unre": 5564,
      "##ague": 5565,
      "roommate": 5566,
      "overwork": 5567,
      "overhe": 5568,
      "disp": 5569,
      "disaster": 5570,
      "earring": 5571,
      "##about": 5572,
      "reserve": 5573,
      "flin": 5574,
      "pharm": 5575,
      "wished": 5576,
      "fewer": 5577,
      "##ggy": 5578,
      "countless": 5579,
      "swimmer": 5580,
      "expectations": 5581,
      "owned": 5582,
      "forgetting": 5583,
      "smokes": 5584,
      "standards": 5585,
      "nucle": 5586,
      "fasten": 5587,
      "confuse": 5588,
      "incor": 5589,
      "regrett": 5590,
      "prior": 5591,
      "priest": 5592,
      "priority": 5593,
      "messages": 5594,
      "picking": 5595,
      "##spect": 5596,
      "dealing": 5597,
      "suitable": 5598,
      "hitting": 5599,
      "lessons": 5600,
      "curios": 5601,
      "instrument": 5602,
      "genuine": 5603,
      "pianist": 5604,
      "avoided": 5605,
      "bottles": 5606,
      "tempted": 5607,
      "trapped": 5608,
      "faults": 5609,
      "throwing": 5610,
      "approve": 5611,
      "breathing": 5612,
      "memories": 5613,
      "brazil": 5614,
      "195": 5615,
      "charity": 5616,
      "loses": 5617,
      "ladies": 5618,
      "normally": 5619,
      "amazed": 5620,
      "accompany": 5621,
      "objective": 5622,
      "earthquakes": 5623,
      "shooting": 5624,
      "cloudy": 5625,
      "ordinary": 5626,
      "repeated": 5627,
      "collection": 5628,
      "determine": 5629,
      "sandwiches": 5630,
      "international": 5631,
      "cheerful": 5632,
      "alcoholic": 5633,
      "criticism": 5634,
      "competition": 5635,
      "pronunciation": 5636,
      "community": 5637,
      "deceived": 5638,
      "remarkable": 5639,
      "scarf": 5640,
      "pillow": 5641,
      "panicked": 5642,
      "irrelevant": 5643,
      "rabbits": 5644,
      "alternatives": 5645,
      "latin": 5646,
      "stylish": 5647,
      "envy": 5648,
      "daily": 5649,
      "insecure": 5650,
      "literature": 5651,
      "arrange": 5652,
      "inher": 5653,
      "unlocked": 5654,
      "pollution": 5655,
      "currently": 5656,
      "sauce": 5657,
      "trumpet": 5658,
      "diplomat": 5659,
      "postcard": 5660,
      "gorgeous": 5661,
      "prefers": 5662,
      "architect": 5663,
      "skeptical": 5664,
      "slipp": 5665,
      "flexible": 5666,
      "hilarious": 5667,
      "olymp": 5668,
      "oysters": 5669,
      "chicago": 5670,
      "trousers": 5671,
      "curiosity": 5672,
      "17": 5673,
      "25": 5674,
      "aid": 5675,
      "banged": 5676,
      "cath": 5677,
      "dried": 5678,
      "dining": 5679,
      "fries": 5680,
      "faint": 5681,
      "junk": 5682,
      "jury": 5683,
      "ko": 5684,
      "kar": 5685,
      "kick": 5686,
      "mr": 5687,
      "pays": 5688,
      "pairs": 5689,
      "pets": 5690,
      "sake": 5691,
      "sank": 5692,
      "##aven": 5693,
      "##met": 5694,
      "##eed": 5695,
      "##emb": 5696,
      "##ecially": 5697,
      "##sen": 5698,
      "##rise": 5699,
      "##gr": 5700,
      "##lph": 5701,
      "##bon": 5702,
      "thri": 5703,
      "##atic": 5704,
      "##ony": 5705,
      "##onse": 5706,
      "##react": 5707,
      "##enger": 5708,
      "dolph": 5709,
      "heated": 5710,
      "haun": 5711,
      "bees": 5712,
      "reve": 5713,
      "inch": 5714,
      "inev": 5715,
      "##iders": 5716,
      "##lete": 5717,
      "meter": 5718,
      "ank": 5719,
      "lim": 5720,
      "goat": 5721,
      "stew": 5722,
      "stead": 5723,
      "##itary": 5724,
      "##verted": 5725,
      "chores": 5726,
      "tricked": 5727,
      "tracked": 5728,
      "##elled": 5729,
      "spiders": 5730,
      "exe": 5731,
      "loyal": 5732,
      "justice": 5733,
      "##ilient": 5734,
      "envious": 5735,
      "##iece": 5736,
      "demo": 5737,
      "cock": 5738,
      "sex": 5739,
      "quar": 5740,
      "rights": 5741,
      "longest": 5742,
      "leather": 5743,
      "level": 5744,
      "backed": 5745,
      "buses": 5746,
      "unk": 5747,
      "union": 5748,
      "unbel": 5749,
      "speakers": 5750,
      "##agious": 5751,
      "career": 5752,
      "##aching": 5753,
      "##aches": 5754,
      "##urned": 5755,
      "overreact": 5756,
      "disre": 5757,
      "disor": 5758,
      "partner": 5759,
      "##osph": 5760,
      "##osoph": 5761,
      "##els": 5762,
      "buys": 5763,
      "teens": 5764,
      "showing": 5765,
      "resilient": 5766,
      "greedy": 5767,
      "advent": 5768,
      "flir": 5769,
      "grounded": 5770,
      "grammar": 5771,
      "monkey": 5772,
      "actions": 5773,
      "contagious": 5774,
      "swims": 5775,
      "listens": 5776,
      "##ips": 5777,
      "metal": 5778,
      "wins": 5779,
      "##onsible": 5780,
      "forgetful": 5781,
      "obst": 5782,
      "heading": 5783,
      "response": 5784,
      "depos": 5785,
      "##iber": 5786,
      "messed": 5787,
      "##sponsible": 5788,
      "checking": 5789,
      "sunny": 5790,
      "sunrise": 5791,
      "heartb": 5792,
      "travels": 5793,
      "assure": 5794,
      "situations": 5795,
      "honor": 5796,
      "wheat": 5797,
      "rug": 5798,
      "colors": 5799,
      "opposed": 5800,
      "bankrupt": 5801,
      "temporary": 5802,
      "fatter": 5803,
      "dragged": 5804,
      "risked": 5805,
      "argued": 5806,
      "responsibilities": 5807,
      "misjud": 5808,
      "wednes": 5809,
      "wooden": 5810,
      "defense": 5811,
      "bodyguard": 5812,
      "basic": 5813,
      "batter": 5814,
      "customs": 5815,
      "avoiding": 5816,
      "brushed": 5817,
      "squir": 5818,
      "##box": 5819,
      "objection": 5820,
      "20th": 5821,
      "drawing": 5822,
      "damaged": 5823,
      "delicate": 5824,
      "property": 5825,
      "napk": 5826,
      "toothp": 5827,
      "frost": 5828,
      "puppy": 5829,
      "despite": 5830,
      "butterf": 5831,
      "increased": 5832,
      "increasing": 5833,
      "focused": 5834,
      "destroy": 5835,
      "italian": 5836,
      "irresponsible": 5837,
      "limits": 5838,
      "ignorance": 5839,
      "bowl": 5840,
      "kilomet": 5841,
      "essay": 5842,
      "blowing": 5843,
      "declined": 5844,
      "religion": 5845,
      "insects": 5846,
      "victims": 5847,
      "hostages": 5848,
      "textbooks": 5849,
      "arranged": 5850,
      "various": 5851,
      "conclusion": 5852,
      "labor": 5853,
      "counter": 5854,
      "praise": 5855,
      "interrupted": 5856,
      "influence": 5857,
      "punishment": 5858,
      "statue": 5859,
      "defeat": 5860,
      "citizens": 5861,
      "knitting": 5862,
      "blonde": 5863,
      "##prints": 5864,
      "guarantee": 5865,
      "dye": 5866,
      "items": 5867,
      "atmosph": 5868,
      "rotten": 5869,
      "satisfactory": 5870,
      "rapid": 5871,
      "nerves": 5872,
      "semester": 5873,
      "subscribe": 5874,
      "intimid": 5875,
      "philosoph": 5876,
      "reputation": 5877,
      "represent": 5878,
      "telephoned": 5879,
      "devastated": 5880,
      "especially": 5881,
      "sacrif": 5882,
      "nuclear": 5883,
      "haunted": 5884,
      "inevitable": 5885,
      "unbeliev": 5886,
      "misjudged": 5887,
      "wednesday": 5888,
      "ara": 5889,
      "gon": 5890,
      "gay": 5891,
      "ip": 5892,
      "jan": 5893,
      "kore": 5894,
      "lung": 5895,
      "nause": 5896,
      "pant": 5897,
      "pip": 5898,
      "pulse": 5899,
      "rushed": 5900,
      "sin": 5901,
      "sam": 5902,
      "tun": 5903,
      "vers": 5904,
      "vague": 5905,
      "wings": 5906,
      "##ni": 5907,
      "##nown": 5908,
      "##fle": 5909,
      "##ograph": 5910,
      "##tles": 5911,
      "##ma": 5912,
      "##mun": 5913,
      "##sper": 5914,
      "##py": 5915,
      "##ders": 5916,
      "##zer": 5917,
      "##zard": 5918,
      "##bulous": 5919,
      "##inct": 5920,
      "##atis": 5921,
      "heater": 5922,
      "haw": 5923,
      "hamb": 5924,
      "##thless": 5925,
      "beers": 5926,
      "beans": 5927,
      "reven": 5928,
      "reci": 5929,
      "shift": 5930,
      "anal": 5931,
      "lips": 5932,
      "##storm": 5933,
      "goss": 5934,
      "onto": 5935,
      "stink": 5936,
      "stain": 5937,
      "stones": 5938,
      "##anta": 5939,
      "##itted": 5940,
      "##itzer": 5941,
      "##uries": 5942,
      "soap": 5943,
      "exit": 5944,
      "exting": 5945,
      "needing": 5946,
      "boil": 5947,
      "tools": 5948,
      "coal": 5949,
      "amusing": 5950,
      "ammun": 5951,
      "selected": 5952,
      "##erson": 5953,
      "carbon": 5954,
      "previous": 5955,
      "##mbol": 5956,
      "fabulous": 5957,
      "smashed": 5958,
      "##assy": 5959,
      "##ickering": 5960,
      "childish": 5961,
      "oversle": 5962,
      "afterwards": 5963,
      "appeal": 5964,
      "diss": 5965,
      "switzer": 5966,
      "blast": 5967,
      "accusing": 5968,
      "cliff": 5969,
      "resemb": 5970,
      "drill": 5971,
      "minded": 5972,
      "fold": 5973,
      "colds": 5974,
      "payment": 5975,
      "greatly": 5976,
      "cheat": 5977,
      "laz": 5978,
      "differences": 5979,
      "kidna": 5980,
      "cooks": 5981,
      "slip": 5982,
      "killing": 5983,
      "reality": 5984,
      "luckily": 5985,
      "choir": 5986,
      "policemen": 5987,
      "reluct": 5988,
      "highest": 5989,
      "laughs": 5990,
      "heads": 5991,
      "agreeing": 5992,
      "brings": 5993,
      "sentences": 5994,
      "incon": 5995,
      "regards": 5996,
      "forecast": 5997,
      "foreigner": 5998,
      "##ception": 5999,
      "businessman": 6000,
      "terror": 6001,
      "collected": 6002,
      "examine": 6003,
      "points": 6004,
      "salmon": 6005,
      "fixing": 6006,
      "asso": 6007,
      "##umpt": 6008,
      "restaurants": 6009,
      "image": 6010,
      "ruthless": 6011,
      "terrific": 6012,
      "honestly": 6013,
      "sending": 6014,
      "burnt": 6015,
      "guitarist": 6016,
      "patients": 6017,
      "symbol": 6018,
      "##eases": 6019,
      "regrets": 6020,
      "voices": 6021,
      "embassy": 6022,
      "purch": 6023,
      "privately": 6024,
      "propose": 6025,
      "grapes": 6026,
      "causes": 6027,
      "barber": 6028,
      "powerless": 6029,
      "pulling": 6030,
      "requires": 6031,
      "199": 6032,
      "organization": 6033,
      "typew": 6034,
      "ladder": 6035,
      "canadians": 6036,
      "wolf": 6037,
      "murderer": 6038,
      "practicing": 6039,
      "directions": 6040,
      "robb": 6041,
      "politely": 6042,
      "objected": 6043,
      "selfie": 6044,
      "create": 6045,
      "searching": 6046,
      "engineer": 6047,
      "majority": 6048,
      "toothache": 6049,
      "humanity": 6050,
      "tourist": 6051,
      "economic": 6052,
      "recommended": 6053,
      "acquired": 6054,
      "victory": 6055,
      "located": 6056,
      "records": 6057,
      "replaced": 6058,
      "##ributed": 6059,
      "tricks": 6060,
      "melted": 6061,
      "observ": 6062,
      "estate": 6063,
      "skills": 6064,
      "experiences": 6065,
      "dawn": 6066,
      "reduce": 6067,
      "disli": 6068,
      "techno": 6069,
      "hypnot": 6070,
      "##going": 6071,
      "resources": 6072,
      "disturbing": 6073,
      "champion": 6074,
      "measures": 6075,
      "affects": 6076,
      "cooperation": 6077,
      "greek": 6078,
      "ninety": 6079,
      "stretched": 6080,
      "##amental": 6081,
      "loosen": 6082,
      "attached": 6083,
      "grandparents": 6084,
      "leaned": 6085,
      "athlet": 6086,
      "sneaky": 6087,
      "consequences": 6088,
      "mexico": 6089,
      "angel": 6090,
      "absorbed": 6091,
      "society": 6092,
      "adjust": 6093,
      "nodded": 6094,
      "precise": 6095,
      "minimum": 6096,
      "independent": 6097,
      "frequently": 6098,
      "humiliated": 6099,
      "female": 6100,
      "arrogant": 6101,
      "overworked": 6102,
      "overheard": 6103,
      "unknown": 6104,
      "flirting": 6105,
      "atmosphere": 6106,
      "gonna": 6107,
      "hambur": 6108,
      "gossip": 6109,
      "ammunition": 6110,
      "overslept": 6111,
      "switzerland": 6112,
      "kidnapped": 6113,
      "40": 6114,
      "ain": 6115,
      "bore": 6116,
      "bak": 6117,
      "bars": 6118,
      "cured": 6119,
      "fest": 6120,
      "fol": 6121,
      "fif": 6122,
      "filed": 6123,
      "fuel": 6124,
      "hint": 6125,
      "homet": 6126,
      "lacks": 6127,
      "lux": 6128,
      "mild": 6129,
      "pow": 6130,
      "pink": 6131,
      "pear": 6132,
      "pound": 6133,
      "pages": 6134,
      "punched": 6135,
      "slo": 6136,
      "saint": 6137,
      "santa": 6138,
      "tank": 6139,
      "ut": 6140,
      "wow": 6141,
      "##oed": 6142,
      "##ties": 6143,
      "##mel": 6144,
      "##ivers": 6145,
      "##ygen": 6146,
      "##uc": 6147,
      "##ube": 6148,
      "##lt": 6149,
      "##erly": 6150,
      "##inist": 6151,
      "##inos": 6152,
      "##atory": 6153,
      "##ano": 6154,
      "##edly": 6155,
      "##lli": 6156,
      "##lly": 6157,
      "heaven": 6158,
      "##thus": 6159,
      "##omic": 6160,
      "reward": 6161,
      "weeds": 6162,
      "##ett": 6163,
      "stall": 6164,
      "stir": 6165,
      "stab": 6166,
      "stiff": 6167,
      "forb": 6168,
      "forces": 6169,
      "##seas": 6170,
      "sheets": 6171,
      "asia": 6172,
      "aspir": 6173,
      "sue": 6174,
      "sush": 6175,
      "chief": 6176,
      "someplace": 6177,
      "trout": 6178,
      "spont": 6179,
      "upside": 6180,
      "marks": 6181,
      "happiest": 6182,
      "##ulf": 6183,
      "##aste": 6184,
      "comments": 6185,
      "conduct": 6186,
      "talkative": 6187,
      "proced": 6188,
      "##igning": 6189,
      "diag": 6190,
      "offend": 6191,
      "prim": 6192,
      "rocks": 6193,
      "lemon": 6194,
      "admission": 6195,
      "adapt": 6196,
      "underw": 6197,
      "orch": 6198,
      "##fty": 6199,
      "unb": 6200,
      "uneas": 6201,
      "compar": 6202,
      "##agne": 6203,
      "waiter": 6204,
      "guards": 6205,
      "overseas": 6206,
      "handwr": 6207,
      "broad": 6208,
      "##olic": 6209,
      "##olite": 6210,
      "##olves": 6211,
      "planes": 6212,
      "swept": 6213,
      "impolite": 6214,
      "differs": 6215,
      "teased": 6216,
      "scra": 6217,
      "reserved": 6218,
      "phr": 6219,
      "attorn": 6220,
      "elb": 6221,
      "warrant": 6222,
      "thankful": 6223,
      "crush": 6224,
      "crushed": 6225,
      "rifle": 6226,
      "surprises": 6227,
      "windy": 6228,
      "enjoys": 6229,
      "##udd": 6230,
      "snack": 6231,
      "prettier": 6232,
      "ending": 6233,
      "relief": 6234,
      "stove": 6235,
      "hunger": 6236,
      "addict": 6237,
      "reflect": 6238,
      "refrain": 6239,
      "treasure": 6240,
      "costume": 6241,
      "snowman": 6242,
      "spoiled": 6243,
      "quitting": 6244,
      "richer": 6245,
      "touching": 6246,
      "horror": 6247,
      "sunb": 6248,
      "stores": 6249,
      "necessarily": 6250,
      "quietly": 6251,
      "affected": 6252,
      "specific": 6253,
      "vacant": 6254,
      "smelled": 6255,
      "entertain": 6256,
      "indic": 6257,
      "roads": 6258,
      "billion": 6259,
      "humans": 6260,
      "immediate": 6261,
      "chairman": 6262,
      "rings": 6263,
      "protection": 6264,
      "dishon": 6265,
      "typical": 6266,
      "furious": 6267,
      "modest": 6268,
      "production": 6269,
      "destiny": 6270,
      "cease": 6271,
      "opportunities": 6272,
      "yelled": 6273,
      "treatment": 6274,
      "accountant": 6275,
      "robber": 6276,
      "potato": 6277,
      "flattered": 6278,
      "##ships": 6279,
      "##aneous": 6280,
      "construct": 6281,
      "crimin": 6282,
      "betray": 6283,
      "disgusted": 6284,
      "cousins": 6285,
      "horrified": 6286,
      "approached": 6287,
      "hesitated": 6288,
      "carelessness": 6289,
      "intelligence": 6290,
      "tends": 6291,
      "allergies": 6292,
      "savings": 6293,
      "software": 6294,
      "scarce": 6295,
      "congress": 6296,
      "panic": 6297,
      "negotiations": 6298,
      "fields": 6299,
      "talents": 6300,
      "sincerely": 6301,
      "sinking": 6302,
      "developed": 6303,
      "advertise": 6304,
      "curtains": 6305,
      "behaved": 6306,
      "shouting": 6307,
      "champagne": 6308,
      "confirmed": 6309,
      "cds": 6310,
      "errand": 6311,
      "errors": 6312,
      "chopstick": 6313,
      "interrupting": 6314,
      "regardless": 6315,
      "frustrated": 6316,
      "obliged": 6317,
      "memorize": 6318,
      "struggled": 6319,
      "relatives": 6320,
      "homesick": 6321,
      "oxygen": 6322,
      "shelter": 6323,
      "astronomy": 6324,
      "tidy": 6325,
      "proverb": 6326,
      "execut": 6327,
      "deposit": 6328,
      "batteries": 6329,
      "toothpaste": 6330,
      "arab": 6331,
      "january": 6332,
      "version": 6333,
      "hawai": 6334,
      "recipe": 6335,
      "fifth": 6336,
      "hometown": 6337,
      "##thusi": 6338,
      "sushi": 6339,
      "spontaneous": 6340,
      "handwriting": 6341,
      "attorney": 6342,
      "chopsticks": 6343,
      "45": 6344,
      "bible": 6345,
      "bald": 6346,
      "der": 6347,
      "dread": 6348,
      "fbi": 6349,
      "gri": 6350,
      "kit": 6351,
      "nails": 6352,
      "pi": 6353,
      "parent": 6354,
      "sigh": 6355,
      "tear": 6356,
      "tub": 6357,
      "tape": 6358,
      "yog": 6359,
      "##fight": 6360,
      "##fish": 6361,
      "##fire": 6362,
      "##ole": 6363,
      "##toned": 6364,
      "##avery": 6365,
      "##cope": 6366,
      "##hor": 6367,
      "##med": 6368,
      "##iar": 6369,
      "##yard": 6370,
      "##ko": 6371,
      "##ded": 6372,
      "##well": 6373,
      "##xoph": 6374,
      "##bell": 6375,
      "##bles": 6376,
      "##erous": 6377,
      "##onym": 6378,
      "##annel": 6379,
      "##inguish": 6380,
      "##enna": 6381,
      "##asant": 6382,
      "##vey": 6383,
      "bears": 6384,
      "beware": 6385,
      "rebel": 6386,
      "reception": 6387,
      "meas": 6388,
      "shad": 6389,
      "shining": 6390,
      "##keys": 6391,
      "liqu": 6392,
      "##imated": 6393,
      "##icians": 6394,
      "##ooze": 6395,
      "knives": 6396,
      "shell": 6397,
      "sheet": 6398,
      "##entive": 6399,
      "##urally": 6400,
      "atomic": 6401,
      "##aming": 6402,
      "abol": 6403,
      "chain": 6404,
      "channel": 6405,
      "##andal": 6406,
      "spect": 6407,
      "spicy": 6408,
      "outcome": 6409,
      "plot": 6410,
      "safer": 6411,
      "saxoph": 6412,
      "##arded": 6413,
      "enthusi": 6414,
      "boiled": 6415,
      "##isted": 6416,
      "comic": 6417,
      "whereabout": 6418,
      "amused": 6419,
      "sept": 6420,
      "section": 6421,
      "##load": 6422,
      "preaching": 6423,
      "root": 6424,
      "adorable": 6425,
      "bum": 6426,
      "factor": 6427,
      "orph": 6428,
      "##fted": 6429,
      "unim": 6430,
      "unne": 6431,
      "callous": 6432,
      "intr": 6433,
      "overc": 6434,
      "overl": 6435,
      "awa": 6436,
      "##olve": 6437,
      "##oline": 6438,
      "partners": 6439,
      "blaming": 6440,
      "tex": 6441,
      "flunk": 6442,
      "flaw": 6443,
      "##ciful": 6444,
      "##cience": 6445,
      "phoned": 6446,
      "watermel": 6447,
      "shovel": 6448,
      "contented": 6449,
      "contrad": 6450,
      "##proof": 6451,
      "##acu": 6452,
      "designed": 6453,
      "invention": 6454,
      "rip": 6455,
      "gladly": 6456,
      "##ucked": 6457,
      "cheered": 6458,
      "owner": 6459,
      "arrives": 6460,
      "##cessary": 6461,
      "passion": 6462,
      "conserv": 6463,
      "conscient": 6464,
      "smoked": 6465,
      "slave": 6466,
      "slapped": 6467,
      "slavery": 6468,
      "follows": 6469,
      "visits": 6470,
      "trigg": 6471,
      "snowstorm": 6472,
      "babies": 6473,
      "military": 6474,
      "collaps": 6475,
      "crafty": 6476,
      "##iforn": 6477,
      "shortly": 6478,
      "shortage": 6479,
      "holds": 6480,
      "dealt": 6481,
      "##iety": 6482,
      "checks": 6483,
      "guns": 6484,
      "sets": 6485,
      "distinguish": 6486,
      "cups": 6487,
      "worthy": 6488,
      "worthless": 6489,
      "affairs": 6490,
      "deliber": 6491,
      "install": 6492,
      "imagining": 6493,
      "flows": 6494,
      "entering": 6495,
      "californ": 6496,
      "novelist": 6497,
      "traitor": 6498,
      "suspended": 6499,
      "injury": 6500,
      "injuries": 6501,
      "volc": 6502,
      "unique": 6503,
      "vienna": 6504,
      "relaxing": 6505,
      "magn": 6506,
      "formal": 6507,
      "marrying": 6508,
      "organic": 6509,
      "occup": 6510,
      "charged": 6511,
      "basement": 6512,
      "evacu": 6513,
      "leads": 6514,
      "landing": 6515,
      "politicians": 6516,
      "basis": 6517,
      "beaten": 6518,
      "improving": 6519,
      "exhib": 6520,
      "flights": 6521,
      "attracted": 6522,
      "accomplished": 6523,
      "tightly": 6524,
      "squee": 6525,
      "bloss": 6526,
      "blocks": 6527,
      "candid": 6528,
      "naturally": 6529,
      "intends": 6530,
      "autom": 6531,
      "barks": 6532,
      "barked": 6533,
      "construction": 6534,
      "crimes": 6535,
      "campus": 6536,
      "disgu": 6537,
      "servant": 6538,
      "described": 6539,
      "discover": 6540,
      "turtles": 6541,
      "predicted": 6542,
      "courageous": 6543,
      "rolled": 6544,
      "anti": 6545,
      "sensible": 6546,
      "requested": 6547,
      "lowered": 6548,
      "merciful": 6549,
      "deliver": 6550,
      "delivery": 6551,
      "fashioned": 6552,
      "existence": 6553,
      "concluded": 6554,
      "photographer": 6555,
      "included": 6556,
      "bowed": 6557,
      "july": 6558,
      "strictly": 6559,
      "russia": 6560,
      "reduced": 6561,
      "caution": 6562,
      "emotions": 6563,
      "heights": 6564,
      "advertising": 6565,
      "elephant": 6566,
      "conclusions": 6567,
      "materials": 6568,
      "sixteen": 6569,
      "communicate": 6570,
      "communication": 6571,
      "hyd": 6572,
      "whistle": 6573,
      "whistling": 6574,
      "scratch": 6575,
      "mosquitoes": 6576,
      "wisdom": 6577,
      "exaggerate": 6578,
      "elderly": 6579,
      "lifetim": 6580,
      "intrigued": 6581,
      "sleeve": 6582,
      "wandered": 6583,
      "babysitter": 6584,
      "mechanic": 6585,
      "dispos": 6586,
      "incorrect": 6587,
      "catholic": 6588,
      "##ground": 6589,
      "limited": 6590,
      "overreacting": 6591,
      "rugby": 6592,
      "kilometers": 6593,
      "nauseous": 6594,
      "##atisfied": 6595,
      "typewriter": 6596,
      "robbery": 6597,
      "observant": 6598,
      "technology": 6599,
      "forbid": 6600,
      "criminals": 6601,
      "hawaii": 6602,
      "saxophone": 6603,
      "whereabouts": 6604,
      "september": 6605,
      "unnecessary": 6606,
      "conservative": 6607,
      "conscientious": 6608,
      "california": 6609,
      "21": 6610,
      "70": 6611,
      "bent": 6612,
      "bart": 6613,
      "bones": 6614,
      "cas": 6615,
      "cakes": 6616,
      "cases": 6617,
      "dict": 6618,
      "dangers": 6619,
      "dinos": 6620,
      "eiff": 6621,
      "fee": 6622,
      "fulf": 6623,
      "gall": 6624,
      "guts": 6625,
      "mal": 6626,
      "nations": 6627,
      "ol": 6628,
      "pork": 6629,
      "pump": 6630,
      "rh": 6631,
      "rational": 6632,
      "sar": 6633,
      "sip": 6634,
      "tap": 6635,
      "tick": 6636,
      "tiss": 6637,
      "tues": 6638,
      "ult": 6639,
      "vul": 6640,
      "wan": 6641,
      "wid": 6642,
      "##over": 6643,
      "##tained": 6644,
      "##agh": 6645,
      "##mons": 6646,
      "##son": 6647,
      "##put": 6648,
      "##pack": 6649,
      "##point": 6650,
      "##person": 6651,
      "##kka": 6652,
      "##gers": 6653,
      "##gment": 6654,
      "##lict": 6655,
      "##bag": 6656,
      "toss": 6657,
      "tons": 6658,
      "##inate": 6659,
      "##inci": 6660,
      "##anuts": 6661,
      "##orthy": 6662,
      "##llen": 6663,
      "##lley": 6664,
      "##asy": 6665,
      "inapp": 6666,
      "##ido": 6667,
      "##iding": 6668,
      "anonym": 6669,
      "lip": 6670,
      "##stit": 6671,
      "##imney": 6672,
      "steel": 6673,
      "stream": 6674,
      "##iter": 6675,
      "myster": 6676,
      "##icient": 6677,
      "##oops": 6678,
      "##alified": 6679,
      "##rived": 6680,
      "asian": 6681,
      "noises": 6682,
      "choo": 6683,
      "chimney": 6684,
      "troops": 6685,
      "worries": 6686,
      "alert": 6687,
      "##ending": 6688,
      "spir": 6689,
      "spagh": 6690,
      "outf": 6691,
      "ups": 6692,
      "lets": 6693,
      "enorm": 6694,
      "boiling": 6695,
      "helmet": 6696,
      "##istry": 6697,
      "mansion": 6698,
      "agr": 6699,
      "coin": 6700,
      "proved": 6701,
      "proph": 6702,
      "quant": 6703,
      "dies": 6704,
      "prem": 6705,
      "prev": 6706,
      "expressed": 6707,
      "peanuts": 6708,
      "unmar": 6709,
      "compan": 6710,
      "wage": 6711,
      "wages": 6712,
      "waitress": 6713,
      "guilt": 6714,
      "overd": 6715,
      "diseases": 6716,
      "partly": 6717,
      "sweep": 6718,
      "##elry": 6719,
      "blink": 6720,
      "bless": 6721,
      "blank": 6722,
      "##izes": 6723,
      "hurric": 6724,
      "startled": 6725,
      "score": 6726,
      "resume": 6727,
      "decline": 6728,
      "remembering": 6729,
      "beings": 6730,
      "grade": 6731,
      "strang": 6732,
      "attentive": 6733,
      "acts": 6734,
      "perman": 6735,
      "painter": 6736,
      "counts": 6737,
      "##qualified": 6738,
      "promotion": 6739,
      "farther": 6740,
      "passing": 6741,
      "imports": 6742,
      "lighter": 6743,
      "lightly": 6744,
      "hokka": 6745,
      "consum": 6746,
      "conscience": 6747,
      "slammed": 6748,
      "realistic": 6749,
      "discreet": 6750,
      "cutting": 6751,
      "dresses": 6752,
      "muscles": 6753,
      "unturned": 6754,
      "##ubby": 6755,
      "numb": 6756,
      "confess": 6757,
      "conflict": 6758,
      "excused": 6759,
      "deprived": 6760,
      "explaining": 6761,
      "##ological": 6762,
      "catches": 6763,
      "forehead": 6764,
      "washes": 6765,
      "complains": 6766,
      "dolls": 6767,
      "corn": 6768,
      "corp": 6769,
      "camer": 6770,
      "picky": 6771,
      "presented": 6772,
      "medal": 6773,
      "curse": 6774,
      "transfer": 6775,
      "transport": 6776,
      "extent": 6777,
      "taxis": 6778,
      "individ": 6779,
      "medication": 6780,
      "drag": 6781,
      "paran": 6782,
      "silk": 6783,
      "speechless": 6784,
      "heavier": 6785,
      "suspected": 6786,
      "fairy": 6787,
      "vocation": 6788,
      "volley": 6789,
      "earliest": 6790,
      "announce": 6791,
      "skipped": 6792,
      "193": 6793,
      "194": 6794,
      "packing": 6795,
      "gradually": 6796,
      "superv": 6797,
      "proficient": 6798,
      "euros": 6799,
      "balls": 6800,
      "museums": 6801,
      "blinded": 6802,
      "washington": 6803,
      "chocolates": 6804,
      "volunteering": 6805,
      "##rams": 6806,
      "administ": 6807,
      "brilli": 6808,
      "cellar": 6809,
      "farmers": 6810,
      "investment": 6811,
      "##awa": 6812,
      "groups": 6813,
      "saturdays": 6814,
      "unfor": 6815,
      "discovery": 6816,
      "intentionally": 6817,
      "claus": 6818,
      "steam": 6819,
      "##ograms": 6820,
      "stomachache": 6821,
      "speeding": 6822,
      "criticized": 6823,
      "alarmed": 6824,
      "gamble": 6825,
      "astute": 6826,
      "verge": 6827,
      "separate": 6828,
      "include": 6829,
      "kilograms": 6830,
      "review": 6831,
      "faithful": 6832,
      "puzzled": 6833,
      "participated": 6834,
      "receiving": 6835,
      "degree": 6836,
      "explode": 6837,
      "##while": 6838,
      "applau": 6839,
      "cotton": 6840,
      "torn": 6841,
      "shouted": 6842,
      "inspired": 6843,
      "identify": 6844,
      "council": 6845,
      "pathetic": 6846,
      "congratulated": 6847,
      "congratulations": 6848,
      "massage": 6849,
      "calculated": 6850,
      "sympathy": 6851,
      "defeated": 6852,
      "scratched": 6853,
      "citizen": 6854,
      "balance": 6855,
      "pigs": 6856,
      "mosquito": 6857,
      "wiser": 6858,
      "effects": 6859,
      "elders": 6860,
      "creepy": 6861,
      "stressful": 6862,
      "sewing": 6863,
      "title": 6864,
      "refund": 6865,
      "astonished": 6866,
      "spinach": 6867,
      "swallow": 6868,
      "chemistry": 6869,
      "cabinet": 6870,
      "demonstration": 6871,
      "acknowled": 6872,
      "disobeyed": 6873,
      "jewelry": 6874,
      "strawberries": 6875,
      "pharmacy": 6876,
      "regretted": 6877,
      "inherited": 6878,
      "thrilled": 6879,
      "quarrel": 6880,
      "squirrel": 6881,
      "rapidly": 6882,
      "philosophy": 6883,
      "unbelievable": 6884,
      "pipe": 6885,
      "resembles": 6886,
      "inconven": 6887,
      "purchase": 6888,
      "festival": 6889,
      "##etti": 6890,
      "procedure": 6891,
      "dishonest": 6892,
      "orphan": 6893,
      "trigger": 6894,
      "collapsed": 6895,
      "lifetime": 6896,
      "bartender": 6897,
      "dinosaur": 6898,
      "eiffel": 6899,
      "sarc": 6900,
      "tuesday": 6901,
      "inappro": 6902,
      "anonymous": 6903,
      "spaghetti": 6904,
      "enormous": 6905,
      "unmarried": 6906,
      "hurricane": 6907,
      "permanent": 6908,
      "hokkaido": 6909,
      "volleyball": 6910,
      "brilliant": 6911,
      "bach": 6912,
      "cart": 6913,
      "dull": 6914,
      "dates": 6915,
      "ditch": 6916,
      "fry": 6917,
      "gang": 6918,
      "hudd": 6919,
      "kan": 6920,
      "kite": 6921,
      "lid": 6922,
      "link": 6923,
      "mult": 6924,
      "mamm": 6925,
      "net": 6926,
      "ped": 6927,
      "rout": 6928,
      "rud": 6929,
      "rank": 6930,
      "rats": 6931,
      "san": 6932,
      "vit": 6933,
      "voy": 6934,
      "wink": 6935,
      "wounds": 6936,
      "##for": 6937,
      "##food": 6938,
      "##oe": 6939,
      "##overs": 6940,
      "##ae": 6941,
      "##case": 6942,
      "##has": 6943,
      "##how": 6944,
      "##ec": 6945,
      "##pea": 6946,
      "##pip": 6947,
      "##iod": 6948,
      "##rim": 6949,
      "##rate": 6950,
      "##rous": 6951,
      "##lin": 6952,
      "##lance": 6953,
      "##ban": 6954,
      "##brow": 6955,
      "##berg": 6956,
      "tone": 6957,
      "##oning": 6958,
      "##orate": 6959,
      "##lling": 6960,
      "##aser": 6961,
      "whales": 6962,
      "dove": 6963,
      "dogh": 6964,
      "heating": 6965,
      "isol": 6966,
      "hairsty": 6967,
      "reck": 6968,
      "shakes": 6969,
      "shark": 6970,
      "liars": 6971,
      "onions": 6972,
      "##imately": 6973,
      "stare": 6974,
      "##che": 6975,
      "##child": 6976,
      "wig": 6977,
      "whatso": 6978,
      "##iti": 6979,
      "##itled": 6980,
      "##ading": 6981,
      "withd": 6982,
      "summ": 6983,
      "abst": 6984,
      "##roken": 6985,
      "chap": 6986,
      "chubby": 6987,
      "somewh": 6988,
      "traged": 6989,
      "sock": 6990,
      "sober": 6991,
      "##ndant": 6992,
      "##thern": 6993,
      "##enda": 6994,
      "spr": 6995,
      "spider": 6996,
      "##unken": 6997,
      "outrage": 6998,
      "marath": 6999,
      "plus": 7000,
      "plates": 7001,
      "location": 7002,
      "##uls": 7003,
      "justify": 7004,
      "sailing": 7005,
      "tool": 7006,
      "agenda": 7007,
      "mug": 7008,
      "pole": 7009,
      "wrist": 7010,
      "homeless": 7011,
      "carries": 7012,
      "dial": 7013,
      "dipping": 7014,
      "offensive": 7015,
      "prejud": 7016,
      "##itement": 7017,
      "lemons": 7018,
      "backyard": 7019,
      "faced": 7020,
      "unpr": 7021,
      "unple": 7022,
      "mustache": 7023,
      "drastic": 7024,
      "drunken": 7025,
      "sched": 7026,
      "housework": 7027,
      "overwh": 7028,
      "overcoat": 7029,
      "broom": 7030,
      "dismiss": 7031,
      "displ": 7032,
      "##oles": 7033,
      "glance": 7034,
      "click": 7035,
      "scandal": 7036,
      "brick": 7037,
      "doorbell": 7038,
      "decre": 7039,
      "advanced": 7040,
      "flour": 7041,
      "flute": 7042,
      "driven": 7043,
      "minds": 7044,
      "monster": 7045,
      "monkeys": 7046,
      "watering": 7047,
      "finishing": 7048,
      "sits": 7049,
      "period": 7050,
      "colder": 7051,
      "desires": 7052,
      "counted": 7053,
      "##quate": 7054,
      "launched": 7055,
      "passenger": 7056,
      "mostly": 7057,
      "vision": 7058,
      "snore": 7059,
      "snickering": 7060,
      "##iculture": 7061,
      "imported": 7062,
      "bites": 7063,
      "skip": 7064,
      "skating": 7065,
      "##bec": 7066,
      "sickness": 7067,
      "##asonable": 7068,
      "confide": 7069,
      "##working": 7070,
      "excitement": 7071,
      "adding": 7072,
      "##shine": 7073,
      "pacific": 7074,
      "refle": 7075,
      "closing": 7076,
      "secretly": 7077,
      "bicycles": 7078,
      "region": 7079,
      "catching": 7080,
      "countryside": 7081,
      "growth": 7082,
      "differently": 7083,
      "snows": 7084,
      "snowed": 7085,
      "spoil": 7086,
      "completed": 7087,
      "considerate": 7088,
      "penny": 7089,
      "discussing": 7090,
      "horiz": 7091,
      "salty": 7092,
      "grandchild": 7093,
      "hospitality": 7094,
      "sunshine": 7095,
      "bagpip": 7096,
      "travelers": 7097,
      "assert": 7098,
      "assigned": 7099,
      "species": 7100,
      "extro": 7101,
      "instant": 7102,
      "instantly": 7103,
      "floats": 7104,
      "escorted": 7105,
      "ruled": 7106,
      "warmly": 7107,
      "freaked": 7108,
      "subur": 7109,
      "joining": 7110,
      "starve": 7111,
      "corrected": 7112,
      "##armed": 7113,
      "fooling": 7114,
      "approval": 7115,
      "gifted": 7116,
      "##atures": 7117,
      "locker": 7118,
      "doubtful": 7119,
      "controlled": 7120,
      "deepest": 7121,
      "annivers": 7122,
      "causing": 7123,
      "barbec": 7124,
      "specialist": 7125,
      "brace": 7126,
      "mah": 7127,
      "magician": 7128,
      "forms": 7129,
      "198": 7130,
      "organize": 7131,
      "eyebrow": 7132,
      "define": 7133,
      "evident": 7134,
      "calmed": 7135,
      "judgment": 7136,
      "woken": 7137,
      "fruits": 7138,
      "sticky": 7139,
      "fingern": 7140,
      "tales": 7141,
      "seafood": 7142,
      "universal": 7143,
      "garlic": 7144,
      "gasoline": 7145,
      "exercising": 7146,
      "robot": 7147,
      "potential": 7148,
      "peaceful": 7149,
      "exceptions": 7150,
      "cello": 7151,
      "employee": 7152,
      "golden": 7153,
      "obeyed": 7154,
      "automat": 7155,
      "created": 7156,
      "device": 7157,
      "filthy": 7158,
      "brightest": 7159,
      "constant": 7160,
      "unfortunate": 7161,
      "profession": 7162,
      "acquitted": 7163,
      "educated": 7164,
      "despises": 7165,
      "description": 7166,
      "suspects": 7167,
      "intentions": 7168,
      "disagre": 7169,
      "maintain": 7170,
      "gathering": 7171,
      "airplanes": 7172,
      "glob": 7173,
      "towels": 7174,
      "compete": 7175,
      "programs": 7176,
      "tendency": 7177,
      "statement": 7178,
      "encoun": 7179,
      "encourage": 7180,
      "fashionable": 7181,
      "december": 7182,
      "challeng": 7183,
      "adopt": 7184,
      "separately": 7185,
      "behaves": 7186,
      "obsessed": 7187,
      "negotiate": 7188,
      "estab": 7189,
      "kilos": 7190,
      "declared": 7191,
      "physical": 7192,
      "physics": 7193,
      "responded": 7194,
      "biology": 7195,
      "bassoon": 7196,
      "rubbed": 7197,
      "hypo": 7198,
      "convenience": 7199,
      "salesman": 7200,
      "railway": 7201,
      "britain": 7202,
      "fascinated": 7203,
      "achievement": 7204,
      "identity": 7205,
      "flooded": 7206,
      "praised": 7207,
      "troubled": 7208,
      "troubles": 7209,
      "contribute": 7210,
      "barefo": 7211,
      "greece": 7212,
      "stretch": 7213,
      "cheeks": 7214,
      "sailor": 7215,
      "protested": 7216,
      "freezing": 7217,
      "grandpa": 7218,
      "microphone": 7219,
      "racist": 7220,
      "votes": 7221,
      "relatively": 7222,
      "official": 7223,
      "mixed": 7224,
      "infected": 7225,
      "refuge": 7226,
      "principles": 7227,
      "chewed": 7228,
      "blackmailed": 7229,
      "bulb": 7230,
      "tigers": 7231,
      "crawling": 7232,
      "irritating": 7233,
      "pierced": 7234,
      "stroke": 7235,
      "palace": 7236,
      "virus": 7237,
      "unreasonable": 7238,
      "olympics": 7239,
      "kobe": 7240,
      "dolphin": 7241,
      "steady": 7242,
      "democra": 7243,
      "disrespect": 7244,
      "heartbroken": 7245,
      "panting": 7246,
      "sample": 7247,
      "revenge": 7248,
      "stinks": 7249,
      "associ": 7250,
      "luxury": 7251,
      "powers": 7252,
      "aspirin": 7253,
      "unbear": 7254,
      "uneasy": 7255,
      "scarcely": 7256,
      "arabic": 7257,
      "abolished": 7258,
      "watermelon": 7259,
      "tissue": 7260,
      "wanna": 7261,
      "spirits": 7262,
      "outfit": 7263,
      "agriculture": 7264,
      "cameras": 7265,
      "paranoid": 7266,
      "announcement": 7267,
      "dinosaurs": 7268,
      "huddled": 7269,
      "kanji": 7270,
      "vitam": 7271,
      "voyage": 7272,
      "##peare": 7273,
      "doghouse": 7274,
      "hairstyle": 7275,
      "shakespeare": 7276,
      "whatsoever": 7277,
      "somewhat": 7278,
      "unpleasant": 7279,
      "overwhel": 7280,
      "bagpipes": 7281,
      "anniversary": 7282,
      "80": 7283,
      "aven": 7284,
      "ber": 7285,
      "blog": 7286,
      "cope": 7287,
      "cub": 7288,
      "dim": 7289,
      "dated": 7290,
      "duck": 7291,
      "dirt": 7292,
      "fi": 7293,
      "fuse": 7294,
      "fiction": 7295,
      "fountain": 7296,
      "gaz": 7297,
      "hiring": 7298,
      "ii": 7299,
      "jar": 7300,
      "jet": 7301,
      "ly": 7302,
      "mow": 7303,
      "nut": 7304,
      "nick": 7305,
      "num": 7306,
      "ori": 7307,
      "overe": 7308,
      "pee": 7309,
      "pry": 7310,
      "pess": 7311,
      "rage": 7312,
      "rode": 7313,
      "sid": 7314,
      "sorts": 7315,
      "tan": 7316,
      "tel": 7317,
      "tab": 7318,
      "winner": 7319,
      "yo": 7320,
      "##fl": 7321,
      "##off": 7322,
      "##ointed": 7323,
      "##test": 7324,
      "##tray": 7325,
      "##avor": 7326,
      "##corn": 7327,
      "##cuff": 7328,
      "##embers": 7329,
      "##ser": 7330,
      "##sing": 7331,
      "##piece": 7332,
      "##ij": 7333,
      "##iving": 7334,
      "##rated": 7335,
      "##rank": 7336,
      "##ku": 7337,
      "##gred": 7338,
      "##down": 7339,
      "##zart": 7340,
      "##lim": 7341,
      "##lted": 7342,
      "##liness": 7343,
      "##worthy": 7344,
      "##bow": 7345,
      "##jo": 7346,
      "##jong": 7347,
      "ther": 7348,
      "therm": 7349,
      "##inter": 7350,
      "##inated": 7351,
      "theft": 7352,
      "##onn": 7353,
      "##reh": 7354,
      "##isor": 7355,
      "##asm": 7356,
      "##esters": 7357,
      "##escope": 7358,
      "dope": 7359,
      "dozed": 7360,
      "hay": 7361,
      "hallow": 7362,
      "hacks": 7363,
      "rewr": 7364,
      "ingred": 7365,
      "shi": 7366,
      "##ste": 7367,
      "##stand": 7368,
      "stad": 7369,
      "stressed": 7370,
      "##chy": 7371,
      "##chair": 7372,
      "forks": 7373,
      "neph": 7374,
      "knot": 7375,
      "##uri": 7376,
      "##urd": 7377,
      "##rib": 7378,
      "##rial": 7379,
      "##rily": 7380,
      "##amb": 7381,
      "##ambitious": 7382,
      "alley": 7383,
      "##rogen": 7384,
      "chased": 7385,
      "##oded": 7386,
      "ali": 7387,
      "##endar": 7388,
      "seek": 7389,
      "spouse": 7390,
      "outrank": 7391,
      "excess": 7392,
      "lover": 7393,
      "lovers": 7394,
      "##ulated": 7395,
      "##ategy": 7396,
      "deer": 7397,
      "delete": 7398,
      "manip": 7399,
      "pleaded": 7400,
      "coc": 7401,
      "moves": 7402,
      "mozart": 7403,
      "seas": 7404,
      "sealed": 7405,
      "seeds": 7406,
      "##ership": 7407,
      "##loaded": 7408,
      "##raph": 7409,
      "mule": 7410,
      "##ounding": 7411,
      "booked": 7412,
      "budd": 7413,
      "peas": 7414,
      "fax": 7415,
      "facing": 7416,
      "##angle": 7417,
      "unbut": 7418,
      "unambitious": 7419,
      "##icky": 7420,
      "believing": 7421,
      "housew": 7422,
      "remembers": 7423,
      "overcome": 7424,
      "overtime": 7425,
      "awoke": 7426,
      "appointed": 7427,
      "handic": 7428,
      "handles": 7429,
      "handbag": 7430,
      "handcuff": 7431,
      "##tens": 7432,
      "swed": 7433,
      "##abul": 7434,
      "blushed": 7435,
      "blessed": 7436,
      "imply": 7437,
      "finicky": 7438,
      "clum": 7439,
      "clerk": 7440,
      "scam": 7441,
      "questioning": 7442,
      "resort": 7443,
      "resident": 7444,
      "hopefully": 7445,
      "kindly": 7446,
      "flames": 7447,
      "flavor": 7448,
      "gramm": 7449,
      "beds": 7450,
      "theirs": 7451,
      "raincoat": 7452,
      "string": 7453,
      "strategy": 7454,
      "interests": 7455,
      "attributed": 7456,
      "contemp": 7457,
      "warming": 7458,
      "greater": 7459,
      "englishman": 7460,
      "design": 7461,
      "invaded": 7462,
      "inviting": 7463,
      "invinci": 7464,
      "##teous": 7465,
      "recy": 7466,
      "recess": 7467,
      "restroom": 7468,
      "restored": 7469,
      "winds": 7470,
      "server": 7471,
      "meetings": 7472,
      "arrival": 7473,
      "snake": 7474,
      "snap": 7475,
      "trusting": 7476,
      "slower": 7477,
      "parks": 7478,
      "guessing": 7479,
      "confron": 7480,
      "##works": 7481,
      "depressing": 7482,
      "fellow": 7483,
      "tripped": 7484,
      "hats": 7485,
      "solar": 7486,
      "solid": 7487,
      "allowance": 7488,
      "sentenced": 7489,
      "trem": 7490,
      "infuri": 7491,
      "beginners": 7492,
      "absurd": 7493,
      "examples": 7494,
      "teams": 7495,
      "##bruary": 7496,
      "medit": 7497,
      "hospitalized": 7498,
      "sunlight": 7499,
      "distant": 7500,
      "distances": 7501,
      "assign": 7502,
      "offering": 7503,
      "february": 7504,
      "worthwhile": 7505,
      "insan": 7506,
      "simpl": 7507,
      "columb": 7508,
      "immigr": 7509,
      "testify": 7510,
      "calendar": 7511,
      "freak": 7512,
      "poorer": 7513,
      "footprints": 7514,
      "popcorn": 7515,
      "temple": 7516,
      "temples": 7517,
      "protesters": 7518,
      "fatal": 7519,
      "fourth": 7520,
      "topics": 7521,
      "lending": 7522,
      "purs": 7523,
      "proposed": 7524,
      "courteous": 7525,
      "urban": 7526,
      "dependent": 7527,
      "holes": 7528,
      "former": 7529,
      "ashtray": 7530,
      "typist": 7531,
      "feeds": 7532,
      "leading": 7533,
      "superior": 7534,
      "produce": 7535,
      "detailed": 7536,
      "blinds": 7537,
      "##cript": 7538,
      "demanding": 7539,
      "millions": 7540,
      "matches": 7541,
      "events": 7542,
      "##hold": 7543,
      "##ugged": 7544,
      "frighten": 7545,
      "frightening": 7546,
      "wisely": 7547,
      "devil": 7548,
      "majors": 7549,
      "majored": 7550,
      "harmful": 7551,
      "audio": 7552,
      "dieting": 7553,
      "judgement": 7554,
      "equip": 7555,
      "equals": 7556,
      "acquaint": 7557,
      "scientific": 7558,
      "turkey": 7559,
      "printer": 7560,
      "resigned": 7561,
      "resignation": 7562,
      "##lights": 7563,
      "suspicion": 7564,
      "gentlemen": 7565,
      "strive": 7566,
      "surfing": 7567,
      "odds": 7568,
      "##bbing": 7569,
      "strenuous": 7570,
      "permitting": 7571,
      "deceased": 7572,
      "issues": 7573,
      "divide": 7574,
      "investigating": 7575,
      "melting": 7576,
      "astro": 7577,
      "observe": 7578,
      "including": 7579,
      "industrial": 7580,
      "ignoring": 7581,
      "sympt": 7582,
      "##ometer": 7583,
      "weighs": 7584,
      "bullets": 7585,
      "briefcase": 7586,
      "experts": 7587,
      "release": 7588,
      "reservations": 7589,
      "physically": 7590,
      "witnessed": 7591,
      "biased": 7592,
      "##coming": 7593,
      "technical": 7594,
      "digest": 7595,
      "digging": 7596,
      "claimed": 7597,
      "narrowly": 7598,
      "literally": 7599,
      "variety": 7600,
      "wires": 7601,
      "gaining": 7602,
      "honeymo": 7603,
      "label": 7604,
      "chopin": 7605,
      "financially": 7606,
      "influential": 7607,
      "sympathetic": 7608,
      "recovering": 7609,
      "fussy": 7610,
      "frustrating": 7611,
      "forgiveness": 7612,
      "blankets": 7613,
      "portug": 7614,
      "decorated": 7615,
      "consciousness": 7616,
      "memorized": 7617,
      "benefit": 7618,
      "cynical": 7619,
      "officially": 7620,
      "titanic": 7621,
      "activity": 7622,
      "activities": 7623,
      "traditional": 7624,
      "astonish": 7625,
      "dormit": 7626,
      "reaction": 7627,
      "outlive": 7628,
      "swallowed": 7629,
      "revolution": 7630,
      "tiger": 7631,
      "geograph": 7632,
      "angrily": 7633,
      "mutual": 7634,
      "flinching": 7635,
      "slippers": 7636,
      "karate": 7637,
      "reveal": 7638,
      "ankle": 7639,
      "cockro": 7640,
      "adventure": 7641,
      "napkin": 7642,
      "butterflies": 7643,
      "ipad": 7644,
      "korean": 7645,
      "tunnel": 7646,
      "analy": 7647,
      "dissatisfied": 7648,
      "##umption": 7649,
      "dislikes": 7650,
      "athletic": 7651,
      "bakery": 7652,
      "folks": 7653,
      "stalling": 7654,
      "stabbed": 7655,
      "primary": 7656,
      "comparison": 7657,
      "errands": 7658,
      "rebels": 7659,
      "volcano": 7660,
      "evacuate": 7661,
      "automob": 7662,
      "disguised": 7663,
      "prophe": 7664,
      "individual": 7665,
      "applauded": 7666,
      "acknowledged": 7667,
      "inconvenience": 7668,
      "sarcastic": 7669,
      "inappropriate": 7670,
      "isolated": 7671,
      "tragedy": 7672,
      "marathon": 7673,
      "scheduled": 7674,
      "extroverted": 7675,
      "suburbs": 7676,
      "bracelet": 7677,
      "mahjong": 7678,
      "eyebrows": 7679,
      "fingernails": 7680,
      "global": 7681,
      "barefoot": 7682,
      "democracy": 7683,
      "unbearable": 7684,
      "numerous": 7685,
      "pessim": 7686,
      "telescope": 7687,
      "halloween": 7688,
      "hacksaw": 7689,
      "ingredient": 7690,
      "stadium": 7691,
      "nephew": 7692,
      "unbuttoned": 7693,
      "grammat": 7694,
      "invincible": 7695,
      "confronted": 7696,
      "columbus": 7697,
      "geography": 7698,
      "23": 7699,
      "apt": 7700,
      "aug": 7701,
      "bounds": 7702,
      "booze": 7703,
      "cable": 7704,
      "dime": 7705,
      "dug": 7706,
      "ec": 7707,
      "ep": 7708,
      "eb": 7709,
      "eve": 7710,
      "fried": 7711,
      "fans": 7712,
      "fier": 7713,
      "hilt": 7714,
      "hives": 7715,
      "jes": 7716,
      "jell": 7717,
      "jun": 7718,
      "jugg": 7719,
      "lun": 7720,
      "mand": 7721,
      "nast": 7722,
      "nav": 7723,
      "poo": 7724,
      "pam": 7725,
      "pies": 7726,
      "ram": 7727,
      "rack": 7728,
      "rash": 7729,
      "ti": 7730,
      "ted": 7731,
      "tide": 7732,
      "tale": 7733,
      "vig": 7734,
      "virt": 7735,
      "wes": 7736,
      "wolves": 7737,
      "ya": 7738,
      "yea": 7739,
      "yach": 7740,
      "zeal": 7741,
      "##name": 7742,
      "##fact": 7743,
      "##feter": 7744,
      "##ov": 7745,
      "##ollen": 7746,
      "##ah": 7747,
      "##cr": 7748,
      "##cest": 7749,
      "##cup": 7750,
      "##cling": 7751,
      "##ckey": 7752,
      "##cabul": 7753,
      "##ham": 7754,
      "##hand": 7755,
      "##eart": 7756,
      "##pal": 7757,
      "##rid": 7758,
      "##rict": 7759,
      "##kers": 7760,
      "##uild": 7761,
      "##lines": 7762,
      "##vable": 7763,
      "##ximately": 7764,
      "##bar": 7765,
      "##boy": 7766,
      "##build": 7767,
      "##14": 7768,
      "##oura": 7769,
      "thinner": 7770,
      "##erted": 7771,
      "##erior": 7772,
      "##onies": 7773,
      "##isure": 7774,
      "##isco": 7775,
      "##orters": 7776,
      "##ara": 7777,
      "##esy": 7778,
      "dom": 7779,
      "heal": 7780,
      "hazard": 7781,
      "##thes": 7782,
      "reh": 7783,
      "shamp": 7784,
      "shuff": 7785,
      "ancest": 7786,
      "lions": 7787,
      "##stop": 7788,
      "steep": 7789,
      "stitch": 7790,
      "stoned": 7791,
      "wives": 7792,
      "wipe": 7793,
      "forcing": 7794,
      "##itors": 7795,
      "##itution": 7796,
      "cane": 7797,
      "##icop": 7798,
      "##icious": 7799,
      "##vering": 7800,
      "##alty": 7801,
      "##enter": 7802,
      "##tering": 7803,
      "##ria": 7804,
      "##iration": 7805,
      "atl": 7806,
      "asp": 7807,
      "##ustroph": 7808,
      "alleg": 7809,
      "sued": 7810,
      "subt": 7811,
      "sufficient": 7812,
      "##aine": 7813,
      "##ctic": 7814,
      "chips": 7815,
      "somehow": 7816,
      "trim": 7817,
      "trace": 7818,
      "trash": 7819,
      "tromb": 7820,
      "worm": 7821,
      "timing": 7822,
      "soil": 7823,
      "##estra": 7824,
      "##opsy": 7825,
      "usa": 7826,
      "spit": 7827,
      "upd": 7828,
      "margar": 7829,
      "lobby": 7830,
      "fran": 7831,
      "frag": 7832,
      "fract": 7833,
      "##ils": 7834,
      "helicop": 7835,
      "##istics": 7836,
      "commission": 7837,
      "##ille": 7838,
      "##illing": 7839,
      "##aker": 7840,
      "prosper": 7841,
      "##raw": 7842,
      "##venir": 7843,
      "##few": 7844,
      "##ortal": 7845,
      "makeup": 7846,
      "prayed": 7847,
      "leisure": 7848,
      "expand": 7849,
      "expired": 7850,
      "expose": 7851,
      "thoughtful": 7852,
      "backpack": 7853,
      "bump": 7854,
      "leap": 7855,
      "leaks": 7856,
      "smiles": 7857,
      "##asso": 7858,
      "unp": 7859,
      "unac": 7860,
      "uninter": 7861,
      "acid": 7862,
      "compreh": 7863,
      "schol": 7864,
      "nights": 7865,
      "hardworking": 7866,
      "downs": 7867,
      "broch": 7868,
      "disgra": 7869,
      "disney": 7870,
      "##osh": 7871,
      "sweeth": 7872,
      "swollen": 7873,
      "##eless": 7874,
      "blouse": 7875,
      "interven": 7876,
      "interfer": 7877,
      "clar": 7878,
      "scr": 7879,
      "scan": 7880,
      "scot": 7881,
      "bride": 7882,
      "##ums": 7883,
      "cattle": 7884,
      "greasy": 7885,
      "deciding": 7886,
      "fled": 7887,
      "function": 7888,
      "grump": 7889,
      "rainbow": 7890,
      "monument": 7891,
      "attained": 7892,
      "founded": 7893,
      "beggar": 7894,
      "actual": 7895,
      "perse": 7896,
      "misses": 7897,
      "runner": 7898,
      "##oya": 7899,
      "cricket": 7900,
      "repay": 7901,
      "repub": 7902,
      "repairs": 7903,
      "inval": 7904,
      "ripped": 7905,
      "ripe": 7906,
      "##ques": 7907,
      "##udes": 7908,
      "snee": 7909,
      "snacks": 7910,
      "biting": 7911,
      "lighten": 7912,
      "accidentally": 7913,
      "hockey": 7914,
      "conspir": 7915,
      "discrim": 7916,
      "##beat": 7917,
      "relied": 7918,
      "highway": 7919,
      "##iented": 7920,
      "##mitted": 7921,
      "fireworks": 7922,
      "musical": 7923,
      "monthly": 7924,
      "confusing": 7925,
      "headlights": 7926,
      "dreamer": 7927,
      "tries": 7928,
      "##lican": 7929,
      "regained": 7930,
      "towns": 7931,
      "throughout": 7932,
      "territ": 7933,
      "trips": 7934,
      "penalty": 7935,
      "corrupt": 7936,
      "grandma": 7937,
      "fails": 7938,
      "recovery": 7939,
      "emphas": 7940,
      "pattern": 7941,
      "sunk": 7942,
      "artific": 7943,
      "necessity": 7944,
      "curfew": 7945,
      "paperwork": 7946,
      "sweating": 7947,
      "deluding": 7948,
      "extended": 7949,
      "insulted": 7950,
      "insulting": 7951,
      "instinct": 7952,
      "christian": 7953,
      "vacations": 7954,
      "racial": 7955,
      "raising": 7956,
      "gardening": 7957,
      "indeed": 7958,
      "humble": 7959,
      "tempting": 7960,
      "umbrellas": 7961,
      "recognition": 7962,
      "electron": 7963,
      "sadd": 7964,
      "parall": 7965,
      "parag": 7966,
      "bury": 7967,
      "souvenir": 7968,
      "syn": 7969,
      "shots": 7970,
      "approximately": 7971,
      "survival": 7972,
      "respectful": 7973,
      "belonged": 7974,
      "vocabul": 7975,
      "ironed": 7976,
      "cafeter": 7977,
      "machines": 7978,
      "mailbox": 7979,
      "entitled": 7980,
      "specialty": 7981,
      "figures": 7982,
      "protecting": 7983,
      "shops": 7984,
      "braces": 7985,
      "weirdest": 7986,
      "boats": 7987,
      "male": 7988,
      "concerns": 7989,
      "196": 7990,
      "supported": 7991,
      "profit": 7992,
      "conditioning": 7993,
      "pleasantly": 7994,
      "calmly": 7995,
      "feared": 7996,
      "##books": 7997,
      "eighty": 7998,
      "explanations": 7999,
      "extreme": 8000,
      "sticks": 8001,
      "appearances": 8002,
      "burns": 8003,
      "cowards": 8004,
      "accounts": 8005,
      "beatles": 8006,
      "central": 8007,
      "directly": 8008,
      "robots": 8009,
      "subjects": 8010,
      "peacefully": 8011,
      "appointments": 8012,
      "tighten": 8013,
      "articles": 8014,
      "idiots": 8015,
      "block": 8016,
      "annoys": 8017,
      "employed": 8018,
      "autopsy": 8019,
      "pretends": 8020,
      "banjo": 8021,
      "films": 8022,
      "harsh": 8023,
      "chickens": 8024,
      "##ification": 8025,
      "economics": 8026,
      "weakness": 8027,
      "electrician": 8028,
      "despised": 8029,
      "expression": 8030,
      "editor": 8031,
      "claustroph": 8032,
      "heroin": 8033,
      "mainly": 8034,
      "browser": 8035,
      "replied": 8036,
      "masterpiece": 8037,
      "slightest": 8038,
      "nara": 8039,
      "tricky": 8040,
      "deceive": 8041,
      "unusually": 8042,
      "inclined": 8043,
      "logic": 8044,
      "estimate": 8045,
      "undressing": 8046,
      "suggestions": 8047,
      "carpenter": 8048,
      "assuming": 8049,
      "improvement": 8050,
      "whiskey": 8051,
      "screwed": 8052,
      "##heart": 8053,
      "techni": 8054,
      "rubb": 8055,
      "bitterly": 8056,
      "hypoc": 8057,
      "notebooks": 8058,
      "explor": 8059,
      "advertised": 8060,
      "courtesy": 8061,
      "archae": 8062,
      "nonstop": 8063,
      "tort": 8064,
      "satisfy": 8065,
      "combination": 8066,
      "funds": 8067,
      "fundamental": 8068,
      "contributed": 8069,
      "regarded": 8070,
      "cooperative": 8071,
      "regularly": 8072,
      "predictable": 8073,
      "whispering": 8074,
      "brainer": 8075,
      "obligation": 8076,
      "unemployment": 8077,
      "guaranteed": 8078,
      "freezes": 8079,
      "groggy": 8080,
      "voting": 8081,
      "struggle": 8082,
      "creeps": 8083,
      "consequence": 8084,
      "conceited": 8085,
      "frogs": 8086,
      "environmental": 8087,
      "nagoya": 8088,
      "smoothly": 8089,
      "unwilling": 8090,
      "surrendered": 8091,
      "chemical": 8092,
      "blackmailing": 8093,
      "anticipate": 8094,
      "anticipated": 8095,
      "uniforms": 8096,
      "wrap": 8097,
      "severely": 8098,
      "refreshing": 8099,
      "opponents": 8100,
      "acknowledge": 8101,
      "shaved": 8102,
      "shaving": 8103,
      "clients": 8104,
      "senior": 8105,
      "earrings": 8106,
      "instruments": 8107,
      "slippery": 8108,
      "loyalty": 8109,
      "disoriented": 8110,
      "bankruptcy": 8111,
      "intimidated": 8112,
      "extinguish": 8113,
      "reluctant": 8114,
      "terrorists": 8115,
      "hamburger": 8116,
      "orchestra": 8117,
      "phrase": 8118,
      "entertaining": 8119,
      "measured": 8120,
      "overlook": 8121,
      "deliberately": 8122,
      "occupied": 8123,
      "exhibition": 8124,
      "squeeze": 8125,
      "blossoms": 8126,
      "disposal": 8127,
      "forbidden": 8128,
      "casual": 8129,
      "fulfill": 8130,
      "lipstick": 8131,
      "quantity": 8132,
      "companies": 8133,
      "corpor": 8134,
      "administration": 8135,
      "bachel": 8136,
      "rudeness": 8137,
      "withdraw": 8138,
      "summit": 8139,
      "##ulsive": 8140,
      "dismissed": 8141,
      "displayed": 8142,
      "horizon": 8143,
      "assertive": 8144,
      "barbecue": 8145,
      "disagreed": 8146,
      "encounter": 8147,
      "refugees": 8148,
      "nickname": 8149,
      "orient": 8150,
      "thermometer": 8151,
      "aliens": 8152,
      "cocaine": 8153,
      "handicapped": 8154,
      "clumsy": 8155,
      "assignment": 8156,
      "immigrants": 8157,
      "equipment": 8158,
      "astrology": 8159,
      "honeymoon": 8160,
      "prophecy": 8161,
      "pessimistic": 8162,
      "august": 8163,
      "fierce": 8164,
      "hilton": 8165,
      "junior": 8166,
      "nasty": 8167,
      "navy": 8168,
      "tipt": 8169,
      "western": 8170,
      "yeah": 8171,
      "shampoo": 8172,
      "trombone": 8173,
      "helicopter": 8174,
      "uninterest": 8175,
      "disneyland": 8176,
      "sweetheart": 8177,
      "grumpy": 8178,
      "conspiracy": 8179,
      "discrimination": 8180,
      "artificial": 8181,
      "vocabulary": 8182,
      "cafeteria": 8183,
      "claustrophob": 8184,
      "60": 8185,
      "65": 8186,
      "99": 8187,
      "ari": 8188,
      "aust": 8189,
      "ba": 8190,
      "baking": 8191,
      "bacter": 8192,
      "cust": 8193,
      "crem": 8194,
      "dar": 8195,
      "dign": 8196,
      "dense": 8197,
      "dna": 8198,
      "eq": 8199,
      "esper": 8200,
      "fist": 8201,
      "gal": 8202,
      "gest": 8203,
      "gig": 8204,
      "gross": 8205,
      "hic": 8206,
      "hib": 8207,
      "hike": 8208,
      "jung": 8209,
      "kim": 8210,
      "lens": 8211,
      "max": 8212,
      "mask": 8213,
      "nic": 8214,
      "nest": 8215,
      "naught": 8216,
      "niece": 8217,
      "oath": 8218,
      "py": 8219,
      "pir": 8220,
      "pod": 8221,
      "pand": 8222,
      "pud": 8223,
      "punch": 8224,
      "porter": 8225,
      "rin": 8226,
      "ray": 8227,
      "rates": 8228,
      "sed": 8229,
      "sorrow": 8230,
      "tails": 8231,
      "tucked": 8232,
      "ufo": 8233,
      "ven": 8234,
      "vent": 8235,
      "vib": 8236,
      "veter": 8237,
      "vending": 8238,
      "vicious": 8239,
      "woo": 8240,
      "waking": 8241,
      "zi": 8242,
      "zip": 8243,
      "##nam": 8244,
      "##fall": 8245,
      "##ford": 8246,
      "##oven": 8247,
      "##table": 8248,
      "##ahol": 8249,
      "##cisco": 8250,
      "##hill": 8251,
      "##hama": 8252,
      "##metic": 8253,
      "##sed": 8254,
      "##sis": 8255,
      "##pret": 8256,
      "##rot": 8257,
      "##rical": 8258,
      "##ront": 8259,
      "##rics": 8260,
      "##ki": 8261,
      "##uished": 8262,
      "##gon": 8263,
      "##gue": 8264,
      "##gones": 8265,
      "##dri": 8266,
      "##dress": 8267,
      "##dream": 8268,
      "##zes": 8269,
      "##li": 8270,
      "##lied": 8271,
      "##vy": 8272,
      "##bes": 8273,
      "##bur": 8274,
      "##bul": 8275,
      "##back": 8276,
      "##bra": 8277,
      "##0s": 8278,
      "thread": 8279,
      "thail": 8280,
      "toe": 8281,
      "toll": 8282,
      "##ino": 8283,
      "##ina": 8284,
      "thesis": 8285,
      "##atible": 8286,
      "##onald": 8287,
      "##edient": 8288,
      "##rels": 8289,
      "##orious": 8290,
      "##llible": 8291,
      "##arse": 8292,
      "##arried": 8293,
      "##arians": 8294,
      "##arium": 8295,
      "heels": 8296,
      "hack": 8297,
      "##think": 8298,
      "##thoven": 8299,
      "rein": 8300,
      "inexp": 8301,
      "##idote": 8302,
      "wept": 8303,
      "##otic": 8304,
      "shore": 8305,
      "##keep": 8306,
      "donut": 8307,
      "donate": 8308,
      "liber": 8309,
      "stap": 8310,
      "stable": 8311,
      "stung": 8312,
      "##anto": 8313,
      "##itter": 8314,
      "myth": 8315,
      "##icit": 8316,
      "##uted": 8317,
      "wanting": 8318,
      "##see": 8319,
      "##alf": 8320,
      "##alistic": 8321,
      "##urt": 8322,
      "##irl": 8323,
      "##eable": 8324,
      "##eavor": 8325,
      "abuse": 8326,
      "abhor": 8327,
      "##rop": 8328,
      "##rol": 8329,
      "chol": 8330,
      "chains": 8331,
      "tract": 8332,
      "alto": 8333,
      "##eller": 8334,
      "##usion": 8335,
      "spade": 8336,
      "spray": 8337,
      "outgoing": 8338,
      "upload": 8339,
      "upcoming": 8340,
      "march": 8341,
      "marked": 8342,
      "needle": 8343,
      "plat": 8344,
      "plug": 8345,
      "placed": 8346,
      "##ulate": 8347,
      "##ulpt": 8348,
      "sack": 8349,
      "frantic": 8350,
      "bolted": 8351,
      "dele": 8352,
      "workahol": 8353,
      "coma": 8354,
      "comics": 8355,
      "manner": 8356,
      "##illa": 8357,
      "##aki": 8358,
      "conqu": 8359,
      "concept": 8360,
      "convey": 8361,
      "bygones": 8362,
      "coke": 8363,
      "proves": 8364,
      "amate": 8365,
      "amput": 8366,
      "seine": 8367,
      "##apy": 8368,
      "##apse": 8369,
      "##apore": 8370,
      "butch": 8371,
      "eater": 8372,
      "print": 8373,
      "prude": 8374,
      "priced": 8375,
      "premon": 8376,
      "roast": 8377,
      "royal": 8378,
      "##mbled": 8379,
      "exposed": 8380,
      "expelled": 8381,
      "backst": 8382,
      "daydream": 8383,
      "buff": 8384,
      "surely": 8385,
      "leaf": 8386,
      "pecul": 8387,
      "underne": 8388,
      "undergo": 8389,
      "unfriend": 8390,
      "unpre": 8391,
      "unimp": 8392,
      "##ewalk": 8393,
      "compatible": 8394,
      "waist": 8395,
      "belief": 8396,
      "twent": 8397,
      "twitter": 8398,
      "gullible": 8399,
      "##renched": 8400,
      "remarried": 8401,
      "##forest": 8402,
      "hardships": 8403,
      "downloaded": 8404,
      "disloy": 8405,
      "ideal": 8406,
      "understandable": 8407,
      "##ability": 8408,
      "blames": 8409,
      "couples": 8410,
      "meets": 8411,
      "interpret": 8412,
      "drinkable": 8413,
      "accus": 8414,
      "teasing": 8415,
      "scal": 8416,
      "screen": 8417,
      "sculpt": 8418,
      "showers": 8419,
      "resigning": 8420,
      "##umes": 8421,
      "opener": 8422,
      "grouch": 8423,
      "moron": 8424,
      "moral": 8425,
      "camel": 8426,
      "camels": 8427,
      "drivers": 8428,
      "drifted": 8429,
      "persp": 8430,
      "breast": 8431,
      "foundation": 8432,
      "trainer": 8433,
      "shoel": 8434,
      "begging": 8435,
      "easiest": 8436,
      "peru": 8437,
      "elsewhere": 8438,
      "##acing": 8439,
      "rung": 8440,
      "secure": 8441,
      "payche": 8442,
      "singapore": 8443,
      "crunch": 8444,
      "crank": 8445,
      "crude": 8446,
      "cracked": 8447,
      "desper": 8448,
      "designer": 8449,
      "hourly": 8450,
      "involve": 8451,
      "restr": 8452,
      "resting": 8453,
      "restart": 8454,
      "restless": 8455,
      "enjoyable": 8456,
      "passage": 8457,
      "##ensitive": 8458,
      "kidney": 8459,
      "consulted": 8460,
      "consulting": 8461,
      "consumption": 8462,
      "trustworthy": 8463,
      "slim": 8464,
      "slope": 8465,
      "killer": 8466,
      "endure": 8467,
      "endanger": 8468,
      "endings": 8469,
      "endeavor": 8470,
      "discourage": 8471,
      "disconn": 8472,
      "behalf": 8473,
      "choked": 8474,
      "obedient": 8475,
      "relations": 8476,
      "relieve": 8477,
      "muslim": 8478,
      "prescri": 8479,
      "stocks": 8480,
      "hunter": 8481,
      "##ubbed": 8482,
      "fireman": 8483,
      "fireplace": 8484,
      "fishy": 8485,
      "freeze": 8486,
      "hairdress": 8487,
      "##shed": 8488,
      "feller": 8489,
      "refuses": 8490,
      "cleaner": 8491,
      "solving": 8492,
      "probable": 8493,
      "thirties": 8494,
      "secretive": 8495,
      "##ceptable": 8496,
      "disappro": 8497,
      "retires": 8498,
      "retiring": 8499,
      "quicker": 8500,
      "##scope": 8501,
      "armchair": 8502,
      "collea": 8503,
      "collided": 8504,
      "collapse": 8505,
      "##brush": 8506,
      "pointless": 8507,
      "hitch": 8508,
      "patrol": 8509,
      "artists": 8510,
      "hotels": 8511,
      "district": 8512,
      "##versial": 8513,
      "##portant": 8514,
      "neighbour": 8515,
      "honored": 8516,
      "risen": 8517,
      "convicted": 8518,
      "strangely": 8519,
      "extract": 8520,
      "insensitive": 8521,
      "float": 8522,
      "christians": 8523,
      "ruins": 8524,
      "escort": 8525,
      "caps": 8526,
      "riddle": 8527,
      "entertained": 8528,
      "gardener": 8529,
      "copied": 8530,
      "testing": 8531,
      "##amedics": 8532,
      "poorly": 8533,
      "banks": 8534,
      "bothers": 8535,
      "##gettable": 8536,
      "##ivable": 8537,
      "##amped": 8538,
      "drawn": 8539,
      "smartest": 8540,
      "parrot": 8541,
      "paramedics": 8542,
      "burden": 8543,
      "ships": 8544,
      "translating": 8545,
      "chairperson": 8546,
      "respects": 8547,
      "posted": 8548,
      "iceberg": 8549,
      "controversial": 8550,
      "irs": 8551,
      "cafe": 8552,
      "pushing": 8553,
      "protected": 8554,
      "bragging": 8555,
      "urge": 8556,
      "photogen": 8557,
      "duties": 8558,
      "stuffed": 8559,
      "pressing": 8560,
      "depending": 8561,
      "generation": 8562,
      "generations": 8563,
      "##ilingual": 8564,
      "convincing": 8565,
      "possibilities": 8566,
      "feeding": 8567,
      "vegetarians": 8568,
      "conditioned": 8569,
      "histor": 8570,
      "balloon": 8571,
      "judged": 8572,
      "governor": 8573,
      "drops": 8574,
      "peaches": 8575,
      "treaty": 8576,
      "suffers": 8577,
      "uncon": 8578,
      "practiced": 8579,
      "practically": 8580,
      "sweets": 8581,
      "daddy": 8582,
      "beats": 8583,
      "northern": 8584,
      "contacted": 8585,
      "##cony": 8586,
      "ache": 8587,
      "brushing": 8588,
      "threaten": 8589,
      "temperamental": 8590,
      "drawers": 8591,
      "employment": 8592,
      "departed": 8593,
      "exhausting": 8594,
      "commotion": 8595,
      "brightened": 8596,
      "napole": 8597,
      "golfer": 8598,
      "toothbrush": 8599,
      "sharpening": 8600,
      "auditor": 8601,
      "picasso": 8602,
      "constitution": 8603,
      "froze": 8604,
      "shallow": 8605,
      "repeating": 8606,
      "hesitation": 8607,
      "bandage": 8608,
      "determination": 8609,
      "##ernate": 8610,
      "steer": 8611,
      "steering": 8612,
      "housing": 8613,
      "losses": 8614,
      "roller": 8615,
      "scares": 8616,
      "antidote": 8617,
      "concentrated": 8618,
      "pronounced": 8619,
      "jacksons": 8620,
      "witch": 8621,
      "divine": 8622,
      "ironic": 8623,
      "psyched": 8624,
      "melody": 8625,
      "scold": 8626,
      "amounts": 8627,
      "symph": 8628,
      "negotiation": 8629,
      "poisoning": 8630,
      "hammered": 8631,
      "applicants": 8632,
      "miracles": 8633,
      "falsely": 8634,
      "owls": 8635,
      "screwdri": 8636,
      "inflation": 8637,
      "witnesses": 8638,
      "psychologist": 8639,
      "crop": 8640,
      "##ixture": 8641,
      "boarding": 8642,
      "performed": 8643,
      "hostage": 8644,
      "rubber": 8645,
      "methods": 8646,
      "digital": 8647,
      "fancy": 8648,
      "romance": 8649,
      "mental": 8650,
      "exploded": 8651,
      "disappointment": 8652,
      "beethoven": 8653,
      "inspiration": 8654,
      "combat": 8655,
      "troubling": 8656,
      "unlock": 8657,
      "affection": 8658,
      "congratulate": 8659,
      "ninet": 8660,
      "calculate": 8661,
      "looph": 8662,
      "shaves": 8663,
      "statistics": 8664,
      "186": 8665,
      "balcony": 8666,
      "vanished": 8667,
      "vanilla": 8668,
      "retirement": 8669,
      "decorating": 8670,
      "freezer": 8671,
      "occasionally": 8672,
      "microscope": 8673,
      "civilization": 8674,
      "150": 8675,
      "1975": 8676,
      "defendant": 8677,
      "benefits": 8678,
      "diamonds": 8679,
      "cycling": 8680,
      "stingy": 8681,
      "satisfaction": 8682,
      "infection": 8683,
      "mexican": 8684,
      "principal": 8685,
      "bushes": 8686,
      "intriguing": 8687,
      "wrapped": 8688,
      "motioned": 8689,
      "alphabetical": 8690,
      "blushing": 8691,
      "bruised": 8692,
      "bruises": 8693,
      "strawberry": 8694,
      "merely": 8695,
      "senator": 8696,
      "loads": 8697,
      "unrealistic": 8698,
      "diplomatic": 8699,
      "olympic": 8700,
      "revealed": 8701,
      "sexy": 8702,
      "napkins": 8703,
      "butterfly": 8704,
      "extinguished": 8705,
      "appealed": 8706,
      "hypnotized": 8707,
      "hamburgers": 8708,
      "utmost": 8709,
      "underwear": 8710,
      "advertisement": 8711,
      "yogurt": 8712,
      "##kohama": 8713,
      "shadow": 8714,
      "enthusiastic": 8715,
      "unimportant": 8716,
      "overcooked": 8717,
      "awaits": 8718,
      "candidate": 8719,
      "antiques": 8720,
      "hydrogen": 8721,
      "dictator": 8722,
      "olives": 8723,
      "ultimate": 8724,
      "vulgar": 8725,
      "tossed": 8726,
      "##iterate": 8727,
      "choosing": 8728,
      "strangest": 8729,
      "unforgettable": 8730,
      "mammal": 8731,
      "routine": 8732,
      "##force": 8733,
      "outrageous": 8734,
      "automatically": 8735,
      "challenges": 8736,
      "established": 8737,
      "hypothes": 8738,
      "disrespectful": 8739,
      "associate": 8740,
      "berlin": 8741,
      "lyrics": 8742,
      "peeked": 8743,
      "sidewalk": 8744,
      "yokohama": 8745,
      "seaside": 8746,
      "implying": 8747,
      "residential": 8748,
      "recycle": 8749,
      "meditating": 8750,
      "simpler": 8751,
      "acquaintance": 8752,
      "automobile": 8753,
      "jesus": 8754,
      "jelly": 8755,
      "yawn": 8756,
      "yacht": 8757,
      "##ouraging": 8758,
      "margarine": 8759,
      "francisco": 8760,
      "unacceptable": 8761,
      "scholar": 8762,
      "scotland": 8763,
      "paragraph": 8764,
      "technique": 8765,
      "tiptoed": 8766,
      "bacteria": 8767,
      "custody": 8768,
      "cremated": 8769,
      "equally": 8770,
      "esperanto": 8771,
      "hibernate": 8772,
      "jungle": 8773,
      "naughty": 8774,
      "rinse": 8775,
      "zipper": 8776,
      "thailand": 8777,
      "liberty": 8778,
      "premonition": 8779,
      "peculiar": 8780,
      "underneath": 8781,
      "unfriendly": 8782,
      "unimpressed": 8783,
      "disloyal": 8784,
      "paycheck": 8785,
      "prescription": 8786,
      "photogenic": 8787,
      "napoleon": 8788,
      "auditorium": 8789,
      "screwdriver": 8790,
      "hypothesis": 8791,
      "ah": 8792,
      "ax": 8793,
      "aqu": 8794,
      "bang": 8795,
      "bac": 8796,
      "bores": 8797,
      "bilingual": 8798,
      "cage": 8799,
      "damp": 8800,
      "dwell": 8801,
      "drenched": 8802,
      "eag": 8803,
      "erect": 8804,
      "egy": 8805,
      "fer": 8806,
      "fet": 8807,
      "fad": 8808,
      "fare": 8809,
      "fert": 8810,
      "fug": 8811,
      "gains": 8812,
      "hood": 8813,
      "hunch": 8814,
      "icy": 8815,
      "jit": 8816,
      "jaw": 8817,
      "ken": 8818,
      "ket": 8819,
      "lon": 8820,
      "lame": 8821,
      "lag": 8822,
      "lined": 8823,
      "lamb": 8824,
      "mc": 8825,
      "mit": 8826,
      "mice": 8827,
      "mig": 8828,
      "mour": 8829,
      "mixture": 8830,
      "pit": 8831,
      "pears": 8832,
      "pony": 8833,
      "rust": 8834,
      "rop": 8835,
      "raking": 8836,
      "si": 8837,
      "sow": 8838,
      "sipped": 8839,
      "tag": 8840,
      "tables": 8841,
      "tux": 8842,
      "troph": 8843,
      "tube": 8844,
      "uf": 8845,
      "vet": 8846,
      "ward": 8847,
      "##nics": 8848,
      "##number": 8849,
      "##fident": 8850,
      "##fles": 8851,
      "##fying": 8852,
      "##tie": 8853,
      "##tress": 8854,
      "##tied": 8855,
      "##af": 8856,
      "##cus": 8857,
      "##clo": 8858,
      "##cakes": 8859,
      "##crat": 8860,
      "##hi": 8861,
      "##hic": 8862,
      "##my": 8863,
      "##mers": 8864,
      "##mark": 8865,
      "##made": 8866,
      "##matic": 8867,
      "##eth": 8868,
      "##eath": 8869,
      "##sist": 8870,
      "##sions": 8871,
      "##pan": 8872,
      "##pelled": 8873,
      "##iop": 8874,
      "##iance": 8875,
      "##iac": 8876,
      "##rison": 8877,
      "##kind": 8878,
      "##kirt": 8879,
      "##uan": 8880,
      "##ufact": 8881,
      "##gs": 8882,
      "##gled": 8883,
      "##dles": 8884,
      "##dog": 8885,
      "##donald": 8886,
      "##zing": 8887,
      "##lord": 8888,
      "##lined": 8889,
      "##liest": 8890,
      "##vation": 8891,
      "##win": 8892,
      "##wat": 8893,
      "##war": 8894,
      "##water": 8895,
      "##writer": 8896,
      "##bble": 8897,
      "##bted": 8898,
      "##bac": 8899,
      "##belt": 8900,
      "##backs": 8901,
      "##bler": 8902,
      "##jas": 8903,
      "thai": 8904,
      "ton": 8905,
      "toast": 8906,
      "tobac": 8907,
      "##iner": 8908,
      "##inent": 8909,
      "##inable": 8910,
      "##inies": 8911,
      "##inating": 8912,
      "##inations": 8913,
      "##inished": 8914,
      "##incts": 8915,
      "##inawa": 8916,
      "##attered": 8917,
      "##onf": 8918,
      "##onally": 8919,
      "##aned": 8920,
      "##ancy": 8921,
      "##edge": 8922,
      "##edict": 8923,
      "##isons": 8924,
      "##isms": 8925,
      "##orant": 8926,
      "##asks": 8927,
      "##aria": 8928,
      "##esar": 8929,
      "##espan": 8930,
      "dood": 8931,
      "beards": 8932,
      "reb": 8933,
      "rear": 8934,
      "reass": 8935,
      "rebo": 8936,
      "init": 8937,
      "inade": 8938,
      "inex": 8939,
      "##idges": 8940,
      "##ldy": 8941,
      "welf": 8942,
      "##otes": 8943,
      "##otam": 8944,
      "shap": 8945,
      "shine": 8946,
      "shru": 8947,
      "licking": 8948,
      "##etable": 8949,
      "##step": 8950,
      "goose": 8951,
      "gogg": 8952,
      "stake": 8953,
      "stacked": 8954,
      "##ita": 8955,
      "##itals": 8956,
      "##itants": 8957,
      "##icting": 8958,
      "##icial": 8959,
      "##verance": 8960,
      "##utes": 8961,
      "##alented": 8962,
      "##alog": 8963,
      "##ades": 8964,
      "notified": 8965,
      "##urning": 8966,
      "##ami": 8967,
      "##amaged": 8968,
      "##cel": 8969,
      "allies": 8970,
      "nod": 8971,
      "sumo": 8972,
      "sucking": 8973,
      "abused": 8974,
      "abilities": 8975,
      "chill": 8976,
      "##oda": 8977,
      "##odorant": 8978,
      "trau": 8979,
      "traps": 8980,
      "timetable": 8981,
      "sobbing": 8982,
      "vehic": 8983,
      "##opotam": 8984,
      "alter": 8985,
      "alright": 8986,
      "alps": 8987,
      "##endid": 8988,
      "##enders": 8989,
      "##geons": 8990,
      "heroes": 8991,
      "spared": 8992,
      "spank": 8993,
      "outs": 8994,
      "outnumber": 8995,
      "willed": 8996,
      "mark": 8997,
      "exiled": 8998,
      "extern": 8999,
      "needless": 9000,
      "plag": 9001,
      "pliers": 9002,
      "haste": 9003,
      "justified": 9004,
      "sav": 9005,
      "##asts": 9006,
      "##ila": 9007,
      "##ardess": 9008,
      "enab": 9009,
      "##ieval": 9010,
      "dear": 9011,
      "dement": 9012,
      "defect": 9013,
      "deodorant": 9014,
      "##istent": 9015,
      "comed": 9016,
      "mankind": 9017,
      "manufact": 9018,
      "agent": 9019,
      "agency": 9020,
      "coaster": 9021,
      "mole": 9022,
      "moldy": 9023,
      "seed": 9024,
      "seal": 9025,
      "##ously": 9026,
      "##rens": 9027,
      "pox": 9028,
      "polished": 9029,
      "##rowave": 9030,
      "##apted": 9031,
      "##aphor": 9032,
      "butt": 9033,
      "arched": 9034,
      "diab": 9035,
      "offense": 9036,
      "##auc": 9037,
      "joint": 9038,
      "rocket": 9039,
      "exped": 9040,
      "newly": 9041,
      "backup": 9042,
      "background": 9043,
      "##tted": 9044,
      "busier": 9045,
      "adores": 9046,
      "adapted": 9047,
      "madrid": 9048,
      "buck": 9049,
      "bugged": 9050,
      "##ector": 9051,
      "##assing": 9052,
      "underlined": 9053,
      "oral": 9054,
      "unst": 9055,
      "unrel": 9056,
      "unthink": 9057,
      "dram": 9058,
      "drama": 9059,
      "compens": 9060,
      "wax": 9061,
      "wave": 9062,
      "waff": 9063,
      "waving": 9064,
      "intent": 9065,
      "intense": 9066,
      "believable": 9067,
      "schem": 9068,
      "household": 9069,
      "gum": 9070,
      "##oodles": 9071,
      "overcon": 9072,
      "overqualified": 9073,
      "awarded": 9074,
      "handling": 9075,
      "handmade": 9076,
      "hardware": 9077,
      "##aves": 9078,
      "disk": 9079,
      "disci": 9080,
      "earning": 9081,
      "##osis": 9082,
      "leftovers": 9083,
      "swore": 9084,
      "swarm": 9085,
      "##aborate": 9086,
      "##abitants": 9087,
      "blur": 9088,
      "blister": 9089,
      "imprison": 9090,
      "finance": 9091,
      "glimp": 9092,
      "teas": 9093,
      "tequ": 9094,
[...]
